<unk>	0
<s>	0
</s>	0
<0x00>	0
<0x01>	0
<0x02>	0
<0x03>	0
<0x04>	0
<0x05>	0
<0x06>	0
<0x07>	0
<0x08>	0
<0x09>	0
<0x0A>	0
<0x0B>	0
<0x0C>	0
<0x0D>	0
<0x0E>	0
<0x0F>	0
<0x10>	0
<0x11>	0
<0x12>	0
<0x13>	0
<0x14>	0
<0x15>	0
<0x16>	0
<0x17>	0
<0x18>	0
<0x19>	0
<0x1A>	0
<0x1B>	0
<0x1C>	0
<0x1D>	0
<0x1E>	0
<0x1F>	0
<0x20>	0
<0x21>	0
<0x22>	0
<0x23>	0
<0x24>	0
<0x25>	0
<0x26>	0
<0x27>	0
<0x28>	0
<0x29>	0
<0x2A>	0
<0x2B>	0
<0x2C>	0
<0x2D>	0
<0x2E>	0
<0x2F>	0
<0x30>	0
<0x31>	0
<0x32>	0
<0x33>	0
<0x34>	0
<0x35>	0
<0x36>	0
<0x37>	0
<0x38>	0
<0x39>	0
<0x3A>	0
<0x3B>	0
<0x3C>	0
<0x3D>	0
<0x3E>	0
<0x3F>	0
<0x40>	0
<0x41>	0
<0x42>	0
<0x43>	0
<0x44>	0
<0x45>	0
<0x46>	0
<0x47>	0
<0x48>	0
<0x49>	0
<0x4A>	0
<0x4B>	0
<0x4C>	0
<0x4D>	0
<0x4E>	0
<0x4F>	0
<0x50>	0
<0x51>	0
<0x52>	0
<0x53>	0
<0x54>	0
<0x55>	0
<0x56>	0
<0x57>	0
<0x58>	0
<0x59>	0
<0x5A>	0
<0x5B>	0
<0x5C>	0
<0x5D>	0
<0x5E>	0
<0x5F>	0
<0x60>	0
<0x61>	0
<0x62>	0
<0x63>	0
<0x64>	0
<0x65>	0
<0x66>	0
<0x67>	0
<0x68>	0
<0x69>	0
<0x6A>	0
<0x6B>	0
<0x6C>	0
<0x6D>	0
<0x6E>	0
<0x6F>	0
<0x70>	0
<0x71>	0
<0x72>	0
<0x73>	0
<0x74>	0
<0x75>	0
<0x76>	0
<0x77>	0
<0x78>	0
<0x79>	0
<0x7A>	0
<0x7B>	0
<0x7C>	0
<0x7D>	0
<0x7E>	0
<0x7F>	0
<0x80>	0
<0x81>	0
<0x82>	0
<0x83>	0
<0x84>	0
<0x85>	0
<0x86>	0
<0x87>	0
<0x88>	0
<0x89>	0
<0x8A>	0
<0x8B>	0
<0x8C>	0
<0x8D>	0
<0x8E>	0
<0x8F>	0
<0x90>	0
<0x91>	0
<0x92>	0
<0x93>	0
<0x94>	0
<0x95>	0
<0x96>	0
<0x97>	0
<0x98>	0
<0x99>	0
<0x9A>	0
<0x9B>	0
<0x9C>	0
<0x9D>	0
<0x9E>	0
<0x9F>	0
<0xA0>	0
<0xA1>	0
<0xA2>	0
<0xA3>	0
<0xA4>	0
<0xA5>	0
<0xA6>	0
<0xA7>	0
<0xA8>	0
<0xA9>	0
<0xAA>	0
<0xAB>	0
<0xAC>	0
<0xAD>	0
<0xAE>	0
<0xAF>	0
<0xB0>	0
<0xB1>	0
<0xB2>	0
<0xB3>	0
<0xB4>	0
<0xB5>	0
<0xB6>	0
<0xB7>	0
<0xB8>	0
<0xB9>	0
<0xBA>	0
<0xBB>	0
<0xBC>	0
<0xBD>	0
<0xBE>	0
<0xBF>	0
<0xC0>	0
<0xC1>	0
<0xC2>	0
<0xC3>	0
<0xC4>	0
<0xC5>	0
<0xC6>	0
<0xC7>	0
<0xC8>	0
<0xC9>	0
<0xCA>	0
<0xCB>	0
<0xCC>	0
<0xCD>	0
<0xCE>	0
<0xCF>	0
<0xD0>	0
<0xD1>	0
<0xD2>	0
<0xD3>	0
<0xD4>	0
<0xD5>	0
<0xD6>	0
<0xD7>	0
<0xD8>	0
<0xD9>	0
<0xDA>	0
<0xDB>	0
<0xDC>	0
<0xDD>	0
<0xDE>	0
<0xDF>	0
<0xE0>	0
<0xE1>	0
<0xE2>	0
<0xE3>	0
<0xE4>	0
<0xE5>	0
<0xE6>	0
<0xE7>	0
<0xE8>	0
<0xE9>	0
<0xEA>	0
<0xEB>	0
<0xEC>	0
<0xED>	0
<0xEE>	0
<0xEF>	0
<0xF0>	0
<0xF1>	0
<0xF2>	0
<0xF3>	0
<0xF4>	0
<0xF5>	0
<0xF6>	0
<0xF7>	0
<0xF8>	0
<0xF9>	0
<0xFA>	0
<0xFB>	0
<0xFC>	0
<0xFD>	0
<0xFE>	0
<0xFF>	0
▁स	-0
को	-1
मा	-2
का	-3
▁प	-4
र्	-5
्र	-6
न्	-7
▁ग	-8
ने	-9
▁र	-10
ले	-11
्य	-12
ला	-13
▁ब	-14
▁भ	-15
▁अ	-16
▁ह	-17
▁क	-18
▁व	-19
▁न	-20
ार	-21
▁छ	-22
▁म	-23
▁त	-24
▁द	-25
▁प्र	-26
▁ज	-27
▁आ	-28
ाल	-29
स्	-30
ति	-31
ता	-32
क्	-33
यो	-34
ान	-35
▁उ	-36
एको	-37
ना	-38
▁का	-39
▁गर	-40
नि	-41
▁वि	-42
हर	-43
▁गर्	-44
त्र	-45
म्	-46
लाई	-47
नु	-48
ेको	-49
▁य	-50
वा	-51
▁च	-52
▁हु	-53
िक	-54
ित	-55
▁रा	-56
▁मा	-57
था	-58
रा	-59
▁नि	-60
▁श	-61
▁ख	-62
▁ला	-63
▁ल	-64
्या	-65
या	-66
री	-67
▁ए	-68
▁ने	-69
त्	-70
न्द	-71
पाल	-72
क्ष	-73
ल्	-74
▁स्	-75
▁सा	-76
ेर	-77
▁पनि	-78
▁सं	-79
▁थ	-80
हि	-81
▁दि	-82
बा	-83
▁हो	-84
ाउ	-85
ेश	-86
ष्	-87
हरु	-88
▁सम	-89
ुर	-90
▁लाग	-91
▁नेपाल	-92
दै	-93
हा	-94
नी	-95
र्य	-96
दा	-97
िका	-98
▁फ	-99
▁थि	-100
न्छ	-101
ेका	-102
रि	-103
एका	-104
स्त	-105
▁त्य	-106
▁भएको	-107
ाम	-108
बाट	-109
▁१	-110
पा	-111
▁के	-112
द्	-113
▁२	-114
▁भने	-115
▁पा	-116
▁सम्	-117
कार	-118
▁छन्	-119
▁यो	-120
्न	-121
वि	-122
▁रह	-123
हरू	-124
ष्ट	-125
ेख	-126
▁ध	-127
लो	-128
▁कार्य	-129
▁निर्	-130
▁घ	-131
▁गरि	-132
भा	-133
▁कु	-134
▁लागि	-135
न्त्र	-136
▁पु	-137
्रो	-138
ेल	-139
रण	-140
सा	-141
छि	-142
क्र	-143
ही	-144
ीय	-145
▁ट	-146
▁यस	-147
▁गरेको	-148
न्त	-149
▁एक	-150
▁गर्ने	-151
र्ष	-152
▁गर्न	-153
▁सु	-154
▁बा	-155
▁आफ	-156
गा	-157
ारी	-158
्च	-159
िय	-160
स्था	-161
▁अध	-162
देश	-163
▁प्रति	-164
▁तथा	-165
▁वा	-166
00	-167
▁बि	-168
ली	-169
धान	-170
टा	-171
▁सर	-172
▁व्य	-173
▁ड	-174
िन	-175
▁को	-176
▁राज	-177
▁क्	-178
ेखि	-179
▁थियो	-180
ुप	-181
ँग	-182
▁सह	-183
▁उन	-184
योग	-185
▁दु	-186
ण्	-187
▁हुने	-188
द्ध	-189
की	-190
पछि	-191
गर	-192
न्न	-193
▁अनु	-194
पर्	-195
रह	-196
▁मु	-197
ौं	-198
▁बता	-199
रो	-200
कि	-201
म्म	-202
एर	-203
भि	-204
▁बढ	-205
▁उप	-206
ेट	-207
▁नै	-208
ेस	-209
▁सि	-210
र्थ	-211
ीले	-212
▁तर	-213
िल्	-214
ङ्	-215
▁क्ष	-216
▁त्यस	-217
ालय	-218
ीको	-219
ण्ड	-220
▁स्थ	-221
ंग	-222
र्व	-223
्व	-224
▁वर्ष	-225
क्त	-226
ष्ट्र	-227
ेत	-228
हाँ	-229
▁ठ	-230
स्थ	-231
▁अव	-232
▁भन्	-233
▁हाम	-234
बार	-235
ाउँ	-236
▁सरकार	-237
िम	-238
सँग	-239
ाइ	-240
▁काम	-241
न्द्र	-242
प्	-243
नमा	-244
▁थिए	-245
कारी	-246
▁परि	-247
▁इ	-248
▁रहेको	-249
सार	-250
▁बना	-251
▁जा	-252
न्ध	-253
न्य	-254
क्रम	-255
बै	-256
ठमा	-257
जार	-258
सि	-259
न्दा	-260
▁२०	-261
जा	-262
नुपर्	-263
▁लि	-264
▁विश	-265
ेत्र	-266
▁समा	-267
जना	-268
▁अर्	-269
▁काठमा	-270
याँ	-271
टी	-272
डा	-273
नको	-274
▁से	-275
प्र	-276
नुभ	-277
तिक	-278
▁नेपाली	-279
लि	-280
▁जन	-281
ँदै	-282
▁रुप	-283
▁भए	-284
▁क्षेत्र	-285
▁(	-286
द्य	-287
▁सबै	-288
▁स्थान	-289
मु	-290
डि	-291
▁व्यव	-292
▁प्रा	-293
सी	-294
▁जना	-295
ती	-296
▁उत्	-297
हिले	-298
▁सो	-299
्ने	-300
ुरु	-301
ैन	-302
▁काठमाड	-303
▁गरेका	-304
स्ता	-305
▁कि	-306
▁राम	-307
▁1	-308
उने	-309
▁हुन्छ	-310
▁३	-311
क्षा	-312
▁मि	-313
हु	-314
दी	-315
ानी	-316
▁पू	-317
ेला	-318
▁पर्	-319
▁मात्र	-320
ोज	-321
धि	-322
धार	-323
म्प	-324
▁आफ्न	-325
सम्म	-326
▁ना	-327
माण	-328
क्ति	-329
▁भएका	-330
न्त्री	-331
▁भन्ने	-332
र्म	-333
चार	-334
▁उनी	-335
ञ्च	-336
▁राष्ट्र	-337
▁बु	-338
▁मह	-339
उन	-340
▁देखि	-341
▁दिन	-342
ध्य	-343
दि	-344
▁कुरा	-345
▁कार्यक्रम	-346
▁गरिएको	-347
▁पार्	-348
▁बै	-349
सक	-350
▁अध्य	-351
वार	-352
▁पहि	-353
नै	-354
▁गरी	-355
्रा	-356
▁छैन	-357
र्ण	-358
पालिका	-359
िल्ला	-360
▁महि	-361
रमा	-362
बन्ध	-363
▁उनले	-364
▁पर	-365
▁गर्दै	-366
छन्	-367
स्तो	-368
▁राख	-369
▁हुन	-370
▁जिल्ला	-371
गत	-372
▁समय	-373
▁था	-374
त्य	-375
िति	-376
ेरै	-377
▁५	-378
▁भा	-379
▁प्रश	-380
▁5	-381
ाउने	-382
▁झ	-383
ेक	-384
मान	-385
▁सक्	-386
▁जान	-387
▁ती	-388
▁प्रहर	-389
कृ	-390
्रम	-391
लेख	-392
▁भार	-393
▁स्व	-394
ुट	-395
▁आफ्नो	-396
भाव	-397
▁धेरै	-398
ेद	-399
▁कम	-400
▁चा	-401
ोक	-402
▁गरे	-403
▁हि	-404
▁शि	-405
▁पुग	-406
रहेको	-407
रु	-408
टक	-409
▁जो	-410
त्व	-411
कास	-412
्यो	-413
ब्	-414
▁भारत	-415
▁अहिले	-416
▁हजार	-417
ुक	-418
▁काठमाडौं	-419
चि	-420
ंक	-421
ग्र	-422
▁केही	-423
▁देश	-424
▁या	-425
ोल	-426
निक	-427
िया	-428
▁गत	-429
टर	-430
▁निर्माण	-431
▁अन्त	-432
ष्ठ	-433
▁साथ	-434
▁४	-435
▁कारण	-436
▁विकास	-437
ैले	-438
▁लग	-439
▁दुई	-440
▁हा	-441
▁आयो	-442
▁गा	-443
मन्त्री	-444
देखि	-445
्ञ	-446
▁दा	-447
कै	-448
..	-449
डी	-450
ताको	-451
▁यु	-452
▁शा	-453
पू	-454
ाउन	-455
हरुको	-456
▁रो	-457
जी	-458
▁कुनै	-459
▁ओ	-460
मुख	-461
ँदा	-462
▁नगर	-463
र्फ	-464
नुभयो	-465
▁अध्यक्ष	-466
▁हुन्	-467
▁मो	-468
▁प्रदेश	-469
ूल	-470
▁लगा	-471
▁स्वा	-472
र्च	-473
पुर	-474
बी	-475
ौँ	-476
▁आज	-477
▁अधिका	-478
▁केन्द्र	-479
हरुले	-480
▁खा	-481
मि	-482
▁पो	-483
▁व्यवस्था	-484
▁श्र	-485
कु	-486
ँच	-487
ूप	-488
▁६	-489
जन	-490
ारा	-491
▁भयो	-492
▁R	-493
▁2	-494
घि	-495
फल	-496
नुपर्ने	-497
शा	-498
यत	-499
▁पहिलो	-500
▁घर	-501
दान	-502
▁निर्वा	-503
टो	-504
म्ब	-505
▁दो	-506
खा	-507
▁स्थानीय	-508
▁रुपमा	-509
▁चि	-510
ाली	-511
▁प्रधान	-512
▁गु	-513
वन	-514
▁समेत	-515
स्तै	-516
ग्	-517
हित	-518
▁नाम	-519
र्ता	-520
01	-521
भन्दा	-522
▁सञ्च	-523
▁नयाँ	-524
▁देख	-525
ुन	-526
▁सकि	-527
▁भि	-528
▁सद	-529
स्य	-530
▁राम्रो	-531
षय	-532
ोर	-533
▁विश्व	-534
▁गाउँ	-535
यु	-536
▁लाख	-537
ेन्	-538
▁कार्यालय	-539
यन	-540
ङ्ग	-541
▁हामी	-542
ीत	-543
इन	-544
▁अवस्था	-545
▁बो	-546
▁आव	-547
भाग	-548
▁निर्वाच	-549
▁एउ	-550
र्या	-551
▁अर्को	-552
▁9	-553
मै	-554
▁जानकारी	-555
▁सय	-556
वास	-557
000	-558
▁बताउ	-559
▁त्यो	-560
▁गरेर	-561
▁Rs	-562
थि	-563
▁संघ	-564
▁महा	-565
▁ढ	-566
भिन्न	-567
er	-568
स्ट	-569
▁बताए	-570
लमा	-571
▁प्रहरी	-572
▁प्रमुख	-573
▁सम्बन्ध	-574
▁७	-575
रको	-576
पी	-577
▁अनुसार	-578
▁विषय	-579
मेर	-580
▁सरकारले	-581
▁समिति	-582
श्य	-583
▁महिला	-584
▁खु	-585
णा	-586
्छ	-587
ाना	-588
▁राजनी	-589
▁ति	-590
▁कस	-591
▁आएको	-592
▁अस	-593
न्दै	-594
ीमा	-595
ेव	-596
▁खेल	-597
▁गर्नु	-598
जिक	-599
▁तय	-600
▁रूप	-601
सो	-602
धा	-603
च्च	-604
▁भइ	-605
▁ल्या	-606
▁सेवा	-607
प्त	-608
▁उहाँ	-609
ज्ञ	-610
▁t	-611
▁मन	-612
▁छो	-613
▁पार्टी	-614
es	-615
▁सामा	-616
मी	-617
न्ति	-618
स्या	-619
▁अब	-620
राज	-621
वाद	-622
ट्	-623
जि	-624
▁नेता	-625
▁कृ	-626
सन	-627
टि	-628
▁पछि	-629
दुर	-630
▁भू	-631
वादी	-632
▁रु	-633
▁विभिन्न	-634
▁नभ	-635
▁लेख	-636
▁रहेका	-637
▁P	-638
▁बढी	-639
▁दल	-640
▁बज	-641
▁पार	-642
▁पत्र	-643
्यान	-644
▁औ	-645
र्त	-646
चना	-647
▁सहयोग	-648
धन	-649
▁जि	-650
▁गर्दा	-651
▁एउटा	-652
र्श	-653
हार	-654
▁अप	-655
ma	-656
▁राष्ट्रिय	-657
▁समस्या	-658
▁हे	-659
टना	-660
र्ग	-661
इएको	-662
▁गो	-663
सको	-664
▁डा	-665
▁जी	-666
▁आयोजना	-667
▁सम्प	-668
▁विद्य	-669
हो	-670
▁तपा	-671
यर	-672
▁मे	-673
सम	-674
▁संस्था	-675
▁समाज	-676
नुपर्छ	-677
▁प्रयोग	-678
र्थिक	-679
पाद	-680
▁सदस्य	-681
▁व्यक्ति	-682
▁शु	-683
▁प्रश्न	-684
▁१०	-685
पूर्ण	-686
श्यक	-687
▁सुरु	-688
ेन	-689
▁आर्थिक	-690
▁हुँदै	-691
▁सञ्चाल	-692
▁निय	-693
विधान	-694
त्म	-695
▁मन्त्र	-696
▁बाल	-697
र्क	-698
सले	-699
हरुलाई	-700
▁आइ	-701
▁छा	-702
हरूले	-703
▁८	-704
रहेका	-705
साय	-706
▁व्या	-707
▁कम्प	-708
हरूको	-709
▁अन्य	-710
▁संविधान	-711
तामा	-712
▁मुल	-713
ोग	-714
▁सुर	-715
हादुर	-716
डक	-717
▁रूपमा	-718
▁उक्त	-719
िएको	-720
mai	-721
23	-722
माले	-723
45	-724
▁भन्दै	-725
▁नगरपालिका	-726
▁98	-727
▁ठू	-728
67	-729
▁मानि	-730
िर	-731
2345	-732
234567	-733
▁तीन	-734
▁प्रधानमन्त्री	-735
श्च	-736
त्त	-737
▁अभ	-738
पति	-739
▁सक	-740
क्षण	-741
▁बेला	-742
▁चु	-743
▁बस	-744
टन	-745
▁अस्	-746
▁९	-747
▁अनि	-748
▁आफू	-749
ृद्ध	-750
▁दिने	-751
सकेको	-752
▁उनको	-753
सं	-754
्रेस	-755
▁भनेर	-756
▁गते	-757
ामा	-758
स्थ्य	-759
ित्	-760
▁आधार	-761
ुल	-762
पत	-763
मो	-764
शत	-765
▁बे	-766
on	-767
▁जाने	-768
ड्	-769
▁भन्दा	-770
▁आवश्यक	-771
स्रो	-772
तन्त्र	-773
ेष	-774
▁क्षेत्रमा	-775
न्या	-776
▁तपाई	-777
ठक	-778
▁सडक	-779
जु	-780
पन	-781
पना	-782
▁बस्	-783
करण	-784
▁अमेर	-785
दैन	-786
▁क्रम	-787
▁संग	-788
तृ	-789
▁स्था	-790
▁प्रतिशत	-791
▁सम्म	-792
चा	-793
पि	-794
स्थित	-795
▁प्रव	-796
▁मुख	-797
स्तु	-798
यक	-799
▁सू	-800
▁सार्व	-801
रोड	-802
समा	-803
▁उत्त	-804
▁पोख	-805
▁कम्पनी	-806
▁बैंक	-807
उँ	-808
ञ्	-809
▁तह	-810
वी	-811
▁दोस्रो	-812
▁करोड	-813
▁रि	-814
▁नेपालको	-815
जनिक	-816
ेरो	-817
▁बने	-818
▁हाल	-819
▁रुपै	-820
▁स्वास्थ्य	-821
क्य	-822
▁पर्ने	-823
द्या	-824
at	-825
ोष	-826
▁खोज	-827
पत्र	-828
▁२०७	-829
णय	-830
भित्र	-831
▁माग	-832
▁मत	-833
लेको	-834
सद	-835
न्स	-836
नुभएको	-837
▁निका	-838
▁डि	-839
▁निर्णय	-840
▁ले	-841
▁होइन	-842
्रि	-843
शी	-844
सक्	-845
ेन्द्र	-846
▁हाम्रो	-847
काल	-848
▁बजार	-849
▁सार्वजनिक	-850
▁महिना	-851
▁मूल	-852
▁बुझ	-853
न्ड	-854
▁पुन	-855
युक्त	-856
बहादुर	-857
कम	-858
▁राजनीतिक	-859
▁पूर्व	-860
▁उत्पाद	-861
्यु	-862
त्या	-863
बीच	-864
ेमा	-865
▁निर्वाचन	-866
▁मान	-867
गरिक	-868
ुवा	-869
▁गीत	-870
▁उल्	-871
एपछि	-872
▁चल	-873
▁पर्य	-874
▁बैठक	-875
र्ड	-876
he	-877
▁सन्	-878
▁मुलुक	-879
▁पढ	-880
▁नागरिक	-881
ic	-882
काश	-883
▁हुनु	-884
▁किन	-885
राष्ट्र	-886
▁अघि	-887
▁दिएको	-888
न्व	-889
▁बाँ	-890
▁पटक	-891
धिक	-892
▁अन्तर्	-893
धी	-894
हान	-895
ृत	-896
▁राज्य	-897
र्ने	-898
▁निक	-899
▁d	-900
▁लोक	-901
बि	-902
▁कर्म	-903
▁मेरो	-904
▁मन्त्रालय	-905
▁वै	-906
▁निर्देश	-907
दाय	-908
र्न	-909
ख्या	-910
▁नेतृ	-911
वै	-912
▁योजना	-913
क्रिया	-914
▁रुपैयाँ	-915
▁भनि	-916
▁यस्तो	-917
▁f	-918
क्षक	-919
▁H	-920
सभा	-921
▁प्राप्त	-922
▁सम्पन्न	-923
▁खो	-924
चिव	-925
▁नग	-926
▁नेपालमा	-927
▁कार्यक्रममा	-928
▁शिक्षा	-929
▁भेट	-930
▁मैले	-931
लको	-932
पु	-933
ैं	-934
▁घटना	-935
ठन	-936
▁कति	-937
▁अगा	-938
▁जनता	-939
▁नेतृत्व	-940
▁अभि	-941
▁पाइ	-942
दछ	-943
▁ठूलो	-944
▁दश	-945
▁टो	-946
▁सभा	-947
▁पुर	-948
न्छन्	-949
अघि	-950
▁3	-951
▁सहभाग	-952
▁व्यवसाय	-953
चारी	-954
▁विद्या	-955
▁रे	-956
ow	-957
▁पक्ष	-958
▁मुख्य	-959
▁सफल	-960
▁माओ	-961
घा	-962
▁आएका	-963
ृत्य	-964
▁सर्व	-965
पताल	-966
▁अधिकारी	-967
▁हामीले	-968
प्रति	-969
▁चौ	-970
▁गाउँपालिका	-971
▁4	-972
▁अस्पताल	-973
राम	-974
ोट	-975
▁उद्य	-976
फा	-977
▁दिए	-978
षा	-979
▁विदेश	-980
▁थप	-981
▁सम्झ	-982
um	-983
▁प्रभाव	-984
स्कृ	-985
सहित	-986
बु	-987
▁वाक्य	-988
▁विशेष	-989
ेष्ठ	-990
▁20	-991
ीन	-992
पनि	-993
▁पाँच	-994
त्मक	-995
▁यहाँ	-996
वरण	-997
▁नी	-998
थ्यो	-999
ेपछि	-1000
▁बार	-1001
▁मात्रै	-1002
re	-1003
▁वटा	-1004
▁ऐ	-1005
▁जनाएको	-1006
▁उत्तर	-1007
▁समु	-1008
▁100	-1009
24	-1010
mail	-1011
क्ता	-1012
▁लगानी	-1013
भर	-1014
▁सामाजिक	-1015
▁500	-1016
▁1000	-1017
▁कर्मचारी	-1018
▁5000	-1019
त्ति	-1020
01234567	-1021
▁ओली	-1022
ूह	-1023
▁विद्यालय	-1024
सु	-1025
▁यी	-1026
ृद्धि	-1027
▁क्रममा	-1028
▁साथै	-1029
म्भ	-1030
▁चार	-1031
▁१९	-1032
▁आग	-1033
▁वडा	-1034
▁संर	-1035
▁मध	-1036
से	-1037
सँगै	-1038
▁लक्ष	-1039
in	-1040
▁चाह	-1041
ध्ये	-1042
▁गर्छ	-1043
मति	-1044
▁न्य	-1045
तमा	-1046
दो	-1047
▁लगायत	-1048
▁बनाउन	-1049
ंग्रेस	-1050
▁उठ	-1051
▁तेस	-1052
▁पि	-1053
▁सक्छ	-1054
मार	-1055
हरुमा	-1056
कल	-1057
▁ठाउँ	-1058
▁अझ	-1059
चित्र	-1060
▁थापा	-1061
▁परिवार	-1062
▁१५	-1063
▁काठमाडौँ	-1064
र्थी	-1065
▁लागेको	-1066
र्ट	-1067
▁साम	-1068
नका	-1069
▁रकम	-1070
▁कांग्रेस	-1071
▁फो	-1072
नेछ	-1073
▁भएर	-1074
▁छन	-1075
पर	-1076
▁एमाले	-1077
त्ता	-1078
सर	-1079
▁तेस्रो	-1080
हरूलाई	-1081
▁उल्लेख	-1082
▁सङ्	-1083
▁सुरक्षा	-1084
▁कृष	-1085
रोध	-1086
▁गएको	-1087
▁श्री	-1088
डियो	-1089
▁इन्	-1090
टै	-1091
केट	-1092
▁युवा	-1093
वेद	-1094
▁प्रतिनि	-1095
व्य	-1096
नाव	-1097
ेज	-1098
अनु	-1099
्री	-1100
▁एव	-1101
ष्ण	-1102
▁हर	-1103
▁हुनेछ	-1104
▁यसको	-1105
▁क्या	-1106
्नु	-1107
▁उपा	-1108
▁साल	-1109
▁[	-1110
▁अर्थ	-1111
▁मृत्य	-1112
न्तर	-1113
▁व्याप	-1114
▁अवस्थामा	-1115
▁१२	-1116
दर्श	-1117
▁क्र	-1118
लाइ	-1119
▁नहु	-1120
बारे	-1121
▁पै	-1122
▁अमेरिका	-1123
▁विषयमा	-1124
▁बनाउने	-1125
ीर	-1126
▁मलाई	-1127
▁आउने	-1128
▁हुँदा	-1129
न्दोल	-1130
ल्ला	-1131
▁उत्पादन	-1132
▁मौ	-1133
एन	-1134
▁श्रेष्ठ	-1135
▁जे	-1136
▁उपचार	-1137
▁मन्त्री	-1138
▁ता	-1139
an	-1140
नाइ	-1141
▁परेको	-1142
साद	-1143
राष्ट्रिय	-1144
बर	-1145
सन्	-1146
▁चलचित्र	-1147
▁उद्योग	-1148
समेत	-1149
्वास	-1150
▁घोष	-1151
बल	-1152
ञ्ज	-1153
गरी	-1154
न्ने	-1155
▁सञ्चालन	-1156
▁तत्	-1157
▁जित	-1158
▁उहाँले	-1159
▁l	-1160
▁बी	-1161
▁अद	-1162
क्स	-1163
▁अगाडि	-1164
▁पद	-1165
▁खे	-1166
र्मा	-1167
▁प्रतियोग	-1168
▁उपल	-1169
▁नीति	-1170
म्बर	-1171
▁छि	-1172
ल्या	-1173
▁११	-1174
▁मृत्यु	-1175
▁तपाईं	-1176
▁समूह	-1177
▁जारी	-1178
▁अन	-1179
▁टोली	-1180
▁जुन	-1181
जक	-1182
तको	-1183
▁परिव	-1184
तर्फ	-1185
वारी	-1186
दार	-1187
ामी	-1188
▁निकै	-1189
टमा	-1190
▁करि	-1191
▁कला	-1192
सन्धान	-1193
तिर	-1194
ाएको	-1195
▁सां	-1196
हाल	-1197
▁जन्	-1198
मित	-1199
▁भारतीय	-1200
▁अभिय	-1201
ेकी	-1202
▁सकिन्छ	-1203
▁प्रकाश	-1204
▁समयमा	-1205
रुद्ध	-1206
ेड	-1207
▁खर्च	-1208
▁बन्द	-1209
▁अनुसन्धान	-1210
▁आउ	-1211
▁छल	-1212
▁जीवन	-1213
▁यात्र	-1214
▁आन्दोल	-1215
▁आयोग	-1216
ल्लो	-1217
▁बाहि	-1218
▁सक्ने	-1219
च्छ	-1220
▁दुर्	-1221
▁फिल्	-1222
ोधन	-1223
▁उद्	-1224
र्फत	-1225
▁पौ	-1226
चाल	-1227
▁भाग	-1228
▁गुरु	-1229
▁२०१	-1230
रक	-1231
▁जोड	-1232
▁न्या	-1233
▁उच्च	-1234
▁रोज	-1235
▁छलफल	-1236
अनुसार	-1237
▁परी	-1238
▁भ्रम	-1239
▁पत्रकार	-1240
▁प्रहरीले	-1241
▁चर्च	-1242
माथि	-1243
ीका	-1244
▁तयार	-1245
▁तयारी	-1246
▁अफ	-1247
▁जस्तो	-1248
लब	-1249
ग्रह	-1250
▁भएकाले	-1251
िता	-1252
राई	-1253
पो	-1254
▁दे	-1255
▁-	-1256
विधि	-1257
गायत	-1258
▁अध्ययन	-1259
▁बर्ष	-1260
▁शक्ति	-1261
्दै	-1262
▁उपलब्	-1263
▁घोषणा	-1264
▁पठ	-1265
▁कानु	-1266
धारण	-1267
▁पोखरा	-1268
▁कहाँ	-1269
छा	-1270
हुन्छ	-1271
लग	-1272
▁माओवादी	-1273
ेम	-1274
यात	-1275
▁किस	-1276
भव	-1277
▁पानी	-1278
▁महान	-1279
▁भित्र	-1280
▁प्रत्य	-1281
नले	-1282
कर्ता	-1283
▁फि	-1284
▁भएपछि	-1285
▁अदाल	-1286
झा	-1287
▁ग्र	-1288
ानो	-1289
▁त्यसैले	-1290
सिक	-1291
▁कार्	-1292
▁बजेट	-1293
▁छु	-1294
तिमा	-1295
▁कार्या	-1296
डेल	-1297
▁भु	-1298
▁त्यहाँ	-1299
▁मानिस	-1300
ेरि	-1301
कपा	-1302
▁भइरहेको	-1303
▁पक्र	-1304
थे	-1305
नामा	-1306
or	-1307
▁फिल्म	-1308
्ना	-1309
▁गर्नुपर्ने	-1310
▁५०	-1311
▁ट्र	-1312
▁बताउनुभयो	-1313
▁अधिकार	-1314
वाह	-1315
▁होला	-1316
गम	-1317
वल	-1318
▁आरो	-1319
ट्ट	-1320
▁a	-1321
▁लिएर	-1322
▁N	-1323
▁प्रस्तु	-1324
▁प्रक्रिया	-1325
om	-1326
ल्ने	-1327
▁महत्व	-1328
▁मूल्य	-1329
▁सी	-1330
तिहा	-1331
ृह	-1332
▁विज्ञ	-1333
ङ्क	-1334
▁योग	-1335
▁बस्ने	-1336
▁परिवर्त	-1337
▁कृषि	-1338
मिक	-1339
it	-1340
▁पी	-1341
▁यही	-1342
ेन्ट	-1343
काली	-1344
▁बताएका	-1345
▁पक्राउ	-1346
धिका	-1347
▁प्रदान	-1348
ंश	-1349
▁लामो	-1350
र्स	-1351
▁कार्यान्व	-1352
▁२५	-1353
▁सरकारी	-1354
▁कर	-1355
▁स्थापना	-1356
तले	-1357
▁विस्त	-1358
▁त्यही	-1359
▁फा	-1360
▁दै	-1361
लेर	-1362
▁भनेको	-1363
▁चीन	-1364
▁यसै	-1365
वर	-1366
▁रहे	-1367
▁हरेक	-1368
▁विभाग	-1369
▁ज्ञ	-1370
▁विद्यार्थी	-1371
▁सबैभन्दा	-1372
ou	-1373
▁सचिव	-1374
ालिका	-1375
▁T	-1376
हित्य	-1377
▁भ्रमण	-1378
▁दुवै	-1379
▁छुट	-1380
जो	-1381
संग	-1382
ष्टि	-1383
▁दिएका	-1384
▁अभियान	-1385
▁देखिन्छ	-1386
इन्	-1387
द्दा	-1388
▁राष्ट्रपति	-1389
यी	-1390
स्ताव	-1391
▁गौ	-1392
▁कसरी	-1393
▁त्यस्तै	-1394
▁प्रच	-1395
ंह	-1396
▁कार	-1397
▁सरकारको	-1398
▁निर	-1399
मिका	-1400
▁ब्या	-1401
शु	-1402
लामा	-1403
र्वा	-1404
▁एवं	-1405
▁बाटो	-1406
▁गरिने	-1407
▁आधारमा	-1408
▁आँ	-1409
▁प्रतिनिधि	-1410
▁जु	-1411
▁पाउने	-1412
▁सूचना	-1413
लु	-1414
▁सन्द	-1415
▁आफ्ना	-1416
▁विज	-1417
▁दक्ष	-1418
ारि	-1419
नाले	-1420
कर्ष	-1421
▁अरु	-1422
रत	-1423
▁प्रशा	-1424
्दा	-1425
▁चुनाव	-1426
▁त्यसको	-1427
▁ब्य	-1428
▁निकाय	-1429
प्रसाद	-1430
▁थाले	-1431
सिया	-1432
सम्	-1433
▁नेकपा	-1434
▁अन्तर्राष्ट्रिय	-1435
▁धा	-1436
ध्यक्ष	-1437
▁साहित्य	-1438
▁पुगेको	-1439
▁उम्म	-1440
▁मान्छ	-1441
कको	-1442
▁३०	-1443
तिको	-1444
▁देव	-1445
▁शुरु	-1446
▁मुद्दा	-1447
भू	-1448
▁अर्ब	-1449
▁रोग	-1450
▁म्या	-1451
वेश	-1452
▁समुदाय	-1453
▁०	-1454
▁पैसा	-1455
▁I	-1456
▁राई	-1457
स्क	-1458
▁बारेमा	-1459
▁बनेको	-1460
▁हुँदैन	-1461
▁थाल	-1462
▁चरण	-1463
ाउनु	-1464
▁आमा	-1465
▁गोल	-1466
चित	-1467
▁थिएन	-1468
लगायत	-1469
▁b	-1470
ion	-1471
▁खेला	-1472
ैँ	-1473
▁सोच	-1474
र्जा	-1475
यम	-1476
▁सहभागी	-1477
▁D	-1478
▁प्रस्ताव	-1479
ll	-1480
▁रोजग	-1481
▁अधिक	-1482
▁नेपालले	-1483
▁समाचार	-1484
स्कार	-1485
▁आफ्नै	-1486
▁पर्यटक	-1487
▁चला	-1488
▁फाइ	-1489
▁पूर्ण	-1490
त्री	-1491
▁यस्तै	-1492
▁नं	-1493
▁पूरा	-1494
▁ई	-1495
▁उनलाई	-1496
▁डे	-1497
▁नियन्त्र	-1498
▁हत्या	-1499
तार	-1500
▁तिम	-1501
र्ति	-1502
पक्ष	-1503
▁यस्ता	-1504
मध्ये	-1505
▁थाहा	-1506
दर	-1507
▁दर	-1508
▁अति	-1509
▁पछिल्लो	-1510
▁बिहान	-1511
▁बिक	-1512
▁संघीय	-1513
▁सम्झौ	-1514
▁o	-1515
▁फुट	-1516
▁स्रो	-1517
▁स्त	-1518
▁करिब	-1519
▁ताल	-1520
▁यसले	-1521
पटक	-1522
▁स्ट	-1523
तो	-1524
जित	-1525
▁मानव	-1526
ताका	-1527
▁लिन	-1528
▁१३	-1529
▁१८	-1530
▁सहमति	-1531
तम	-1532
▁स्प	-1533
▁अन्ति	-1534
▁उपलब्ध	-1535
▁देखिएको	-1536
उनु	-1537
ल्न	-1538
un	-1539
▁व्यवस्थापन	-1540
▁आरोप	-1541
दिन	-1542
▁पश्च	-1543
▁विश्वास	-1544
▁भो	-1545
रिया	-1546
▁अन्तिम	-1547
▁परेका	-1548
▁प्रया	-1549
▁पार्ट	-1550
▁चाल	-1551
▁सुन	-1552
कमा	-1553
▁अर	-1554
▁आदि	-1555
▁संसद	-1556
▁भद	-1557
▁पौडेल	-1558
पान	-1559
▁गण	-1560
▁the	-1561
िण	-1562
▁भूमिका	-1563
सकेका	-1564
▁१४	-1565
▁देउ	-1566
us	-1567
▁उम्मेद	-1568
त्तिक	-1569
▁शे	-1570
▁E	-1571
▁दृ	-1572
ढी	-1573
▁पर्छ	-1574
▁शर्मा	-1575
▁सम्भाव	-1576
com	-1577
▁सामान्य	-1578
र्जन	-1579
▁प्रेम	-1580
▁केन्द्रीय	-1581
▁नभएको	-1582
▁हात	-1583
▁छोरा	-1584
लले	-1585
▁कै	-1586
▁आगामी	-1587
▁हेर्	-1588
लव	-1589
▁१६	-1590
▁खेलमा	-1591
तरण	-1592
न्ट	-1593
पक	-1594
▁त्यसै	-1595
▁बाट	-1596
▁तो	-1597
▁प्रदर्श	-1598
▁यति	-1599
▁बाहिर	-1600
▁मै	-1601
▁दी	-1602
श्व	-1603
विधा	-1604
ig	-1605
▁नेपालका	-1606
ल्क	-1607
सका	-1608
वेदन	-1609
▁नियन्त्रण	-1610
▁भै	-1611
▁अझै	-1612
▁नारा	-1613
▁खाने	-1614
लिक	-1615
▁वर्षको	-1616
▁परिवर्तन	-1617
ज्य	-1618
वान	-1619
हरूमा	-1620
▁टा	-1621
रुप	-1622
ation	-1623
ct	-1624
▁भट्ट	-1625
▁भई	-1626
▁सम्मेल	-1627
▁सहित	-1628
शील	-1629
ers	-1630
ल्प	-1631
ँड	-1632
▁लु	-1633
परि	-1634
ङको	-1635
उँदै	-1636
यण	-1637
▁मना	-1638
ine	-1639
▁संख्या	-1640
एस	-1641
द्वार	-1642
▁विमान	-1643
▁जिम्म	-1644
तावरण	-1645
▁वाह	-1646
▁भण्ड	-1647
▁नम्बर	-1648
▁शान्ति	-1649
डित	-1650
est	-1651
▁संस्कृ	-1652
▁पहिले	-1653
▁व्यापार	-1654
▁बलि	-1655
ढा	-1656
▁चाहि	-1657
ध्यम	-1658
सक्ने	-1659
▁पर्व	-1660
कम्प	-1661
▁भिडियो	-1662
▁प्रस्तुत	-1663
शि	-1664
ग्गा	-1665
▁th	-1666
▁y	-1667
▁विद्यु	-1668
og	-1669
▁प्रण	-1670
ते	-1671
▁राजधान	-1672
▁संयो	-1673
▁न्याय	-1674
काम	-1675
▁फरक	-1676
▁टि	-1677
▁निम्	-1678
रीको	-1679
वासी	-1680
▁0	-1681
▁The	-1682
▁ध्यान	-1683
▁दू	-1684
ाल्	-1685
▁गठन	-1686
कालीन	-1687
▁वातावरण	-1688
▁तर्फ	-1689
ियन	-1690
▁दर्श	-1691
िकी	-1692
ंगल	-1693
▁सात	-1694
▁विक	-1695
▁7	-1696
्युनि	-1697
▁सोम	-1698
▁मान्छे	-1699
▁भाषा	-1700
कोट	-1701
▁कवि	-1702
▁गि	-1703
▁गृह	-1704
▁घरमा	-1705
▁पदा	-1706
▁शै	-1707
▁टु	-1708
क्का	-1709
▁दक्षिण	-1710
-1	-1711
▁बजारमा	-1712
ver	-1713
▁स्थानमा	-1714
▁10	-1715
▁6	-1716
▁you	-1717
विद्य	-1718
मन्त्र	-1719
ुरो	-1720
कुमार	-1721
▁8	-1722
क्क	-1723
ंगा	-1724
▁धर्म	-1725
द्धा	-1726
▁बहु	-1727
▁विस्तार	-1728
own	-1729
▁बढेको	-1730
▁गति	-1731
घटना	-1732
▁जन्म	-1733
▁छैनन्	-1734
▁संयुक्त	-1735
▁दर्ता	-1736
▁छौं	-1737
▁गै	-1738
▁साँ	-1739
▁j	-1740
▁प्रवेश	-1741
▁15	-1742
म्मा	-1743
▁अपरा	-1744
ell	-1745
one	-1746
▁सांसद	-1747
▁झा	-1748
/2	-1749
▁Pr	-1750
▁खान	-1751
▁याद	-1752
पित	-1753
▁त्यसपछि	-1754
होस्	-1755
▁तथ	-1756
▁लाई	-1757
र्ज	-1758
हन	-1759
ुरुष	-1760
बेला	-1761
▁शुक्र	-1762
▁la	-1763
ick	-1764
▁एस	-1765
धु	-1766
do	-1767
▁सम्मान	-1768
स्थिति	-1769
ks	-1770
▁ठाउँमा	-1771
▁फर्	-1772
▁कम्युनि	-1773
▁हुन्छन्	-1774
▁जस्ता	-1775
▁br	-1776
▁प्रमाण	-1777
▁are	-1778
देव	-1779
▁सुधार	-1780
बद्ध	-1781
ँदैन	-1782
▁सुविधा	-1783
▁30	-1784
▁निर्देशन	-1785
▁सहज	-1786
ps	-1787
▁200	-1788
▁वितरण	-1789
21	-1790
▁सम्झौता	-1791
साइ	-1792
▁us	-1793
क्षित	-1794
▁गरिरहेको	-1795
ox	-1796
विक	-1797
ब्द	-1798
its	-1799
▁Ph	-1800
संघ	-1801
▁जग्गा	-1802
कर्म	-1803
▁50	-1804
▁आग्रह	-1805
किएको	-1806
▁अन्तर	-1807
5,	-1808
org	-1809
ेलि	-1810
▁नजिक	-1811
▁बालब	-1812
-01	-1813
▁40	-1814
umb	-1815
41	-1816
▁दुर्घटना	-1817
65	-1818
▁गर्दछ	-1819
ates	-1820
email	-1821
▁मन्द	-1822
ctu	-1823
लै	-1824
ices	-1825
▁जनताको	-1826
89	-1827
zy	-1828
ब्र्या	-1829
0,	-1830
ष्ठक	-1831
सलाई	-1832
43	-1833
main	-1834
▁Hell	-1835
▁भनाइ	-1836
के	-1837
-01-1	-1838
/20	-1839
▁than	-1840
▁test	-1841
▁How	-1842
▁over	-1843
▁त्यति	-1844
▁dig	-1845
uick	-1846
▁Email	-1847
▁Pun	-1848
▁Numb	-1849
▁100,	-1850
▁brown	-1851
▁9841	-1852
▁user	-1853
▁Hello	-1854
▁Phone	-1855
▁thanks	-1856
/01	-1857
765	-1858
▁dog	-1859
▁jum	-1860
▁fine	-1861
4321	-1862
▁fox	-1863
domain	-1864
/2024	-1865
▁2024	-1866
▁500,	-1867
▁lazy	-1868
43210,	-1869
कोष्ठक	-1870
▁1000,	-1871
▁15/01	-1872
▁98765	-1873
▁Dates	-1874
▁jumps	-1875
-01-15,	-1876
234567,	-1877
▁Prices	-1878
▁Punctu	-1879
▁digits	-1880
▁Numbers	-1881
ब्र्याकेट	-1882
▁01234567	-1883
▁0123456789	-1884
▁15/01/2024	-1885
▁9801234567	-1886
▁2024-01-15,	-1887
▁9841234567,	-1888
▁9876543210,	-1889
▁Punctuation	-1890
▁स्वी	-1891
▁पुरुष	-1892
क्रमण	-1893
क्टर	-1894
▁त्रि	-1895
णि	-1896
ून	-1897
▁कार्यान्वयन	-1898
▁यसरी	-1899
▁विचार	-1900
ताले	-1901
नाथ	-1902
▁सञ्चार	-1903
▁तुल	-1904
▁बाँकी	-1905
▁१७	-1906
▁अर्था	-1907
देश्य	-1908
स्त्र	-1909
▁गुरुङ	-1910
▁भूकम्प	-1911
▁तिन	-1912
▁यसलाई	-1913
▁गरा	-1914
▁जल	-1915
▁पर्यटन	-1916
हेक	-1917
▁जस्तै	-1918
लाको	-1919
▁फेरि	-1920
▁क्षम	-1921
▁संरक्षण	-1922
एकी	-1923
र्भ	-1924
▁शाखा	-1925
▁अवसर	-1926
▁२१	-1927
▁तत्काल	-1928
सरमा	-1929
▁जिल्लामा	-1930
उँछ	-1931
कृत	-1932
▁नहुने	-1933
पय	-1934
▁एन	-1935
▁शनि	-1936
▁दैनिक	-1937
▁पराज	-1938
▁भदौ	-1939
▁बताउँ	-1940
▁असार	-1941
्रै	-1942
दू	-1943
▁कलाकार	-1944
▁जीव	-1945
▁कारो	-1946
▁विगत	-1947
▁कतिपय	-1948
पको	-1949
▁भर्	-1950
▁संश	-1951
िकेट	-1952
लाग	-1953
ाको	-1954
▁बालबालिका	-1955
नाको	-1956
▁प्रयास	-1957
▁कात्तिक	-1958
▁दाहाल	-1959
▁कथा	-1960
सम्बन्ध	-1961
▁शिक्षक	-1962
▁बीच	-1963
▁जब	-1964
▁शुभ	-1965
▁चिक	-1966
▁आत्म	-1967
▁सवारी	-1968
चान	-1969
▁लाग्ने	-1970
षण	-1971
यार	-1972
▁व्यक्त	-1973
▁मध्य	-1974
▁लक्ष्य	-1975
▁सिंह	-1976
▁ऊ	-1977
▁बुध	-1978
▁प्रचण्ड	-1979
▁कृष्ण	-1980
▁उनका	-1981
▁गर्छन्	-1982
धे	-1983
स्ती	-1984
▁कायम	-1985
खु	-1986
▁जति	-1987
▁च्या	-1988
▁चित	-1989
द्वारा	-1990
टल	-1991
▁अधिकृत	-1992
▁चिनि	-1993
▁रहने	-1994
▁सीमा	-1995
▁लो	-1996
▁कमा	-1997
▁गरिरहेका	-1998
▁घु	-1999
▁कहिले	-2000
▁चिकित्	-2001
तबार	-2002
▁तामा	-2003
ल्य	-2004
▁आन्दोलन	-2005
▁व्यवसायी	-2006
्वा	-2007
▁नाममा	-2008
▁आई	-2009
▁लगायतका	-2010
▁देशको	-2011
▁सकेको	-2012
▁खेलाडी	-2013
▁गठ	-2014
▁निजी	-2015
्ले	-2016
▁असोज	-2017
▁विश्वक	-2018
चालन	-2019
▁धन	-2020
▁भण्डारी	-2021
▁विवाद	-2022
▁गरेपछि	-2023
कले	-2024
▁यसमा	-2025
▁अमेरिकी	-2026
▁माथि	-2027
▁सर्	-2028
▁सम्भावना	-2029
▁संयोजक	-2030
▁सकिने	-2031
सित	-2032
डान	-2033
▁साथी	-2034
▁खेत	-2035
▁भन्छन्	-2036
▁ऐन	-2037
ेप	-2038
▁उमेर	-2039
▁प्रतियोगि	-2040
▁लिने	-2041
▁दिनुभयो	-2042
▁फै	-2043
▁उम्मेदवार	-2044
ालले	-2045
▁भन्नुभयो	-2046
मे	-2047
▁गरिन्छ	-2048
▁घट	-2049
नेट	-2050
▁यसअघि	-2051
▁लिएको	-2052
▁औष	-2053
▁सहकारी	-2054
▁गर्नुभएको	-2055
ेता	-2056
▁कानुन	-2057
▁गुण	-2058
▁निरन्तर	-2059
▁टिम	-2060
राब	-2061
▁सम्बन्धित	-2062
▁क्लब	-2063
▁२२	-2064
ठा	-2065
ग्री	-2066
कारा	-2067
▁सम्ब	-2068
▁प्रणाली	-2069
▁श्रम	-2070
मत	-2071
००	-2072
▁किसान	-2073
▁मंगल	-2074
▁गराउने	-2075
▁शब्द	-2076
निर्	-2077
▁शुक्रबार	-2078
णी	-2079
श्चित	-2080
कार्य	-2081
▁थालेको	-2082
▁जसले	-2083
▁आफु	-2084
पानी	-2085
▁मिल्	-2086
ेवारी	-2087
▁प्रविधि	-2088
▁यादव	-2089
▁बजे	-2090
▁आश	-2091
▁क्षेत्रको	-2092
▁सोमबार	-2093
▁एका	-2094
ालि	-2095
शाख	-2096
▁अन्त्य	-2097
स्थल	-2098
मार्ग	-2099
▁बुद्ध	-2100
डिया	-2101
▁सङ्घ	-2102
▁सम्पूर्ण	-2103
▁गर्नुपर्छ	-2104
▁ढु	-2105
▁भौ	-2106
▁गैर	-2107
ाउँदै	-2108
▁वृद्धि	-2109
भु	-2110
कलन	-2111
गो	-2112
▁हेर	-2113
सचिव	-2114
▁प्राथ	-2115
▁एकता	-2116
▁बन्न	-2117
▁लाग्छ	-2118
▁टे	-2119
▁अभाव	-2120
सम्बन्धी	-2121
▁नियम	-2122
▁शरी	-2123
▁आम	-2124
▁हिमा	-2125
▁संरचना	-2126
तै	-2127
नो	-2128
▁दिइ	-2129
▁रहेछ	-2130
▁राख्ने	-2131
▁देशमा	-2132
▁२४	-2133
▁बनाएको	-2134
▁इतिहा	-2135
▁स्वतन्त्र	-2136
ंका	-2137
▁पुरा	-2138
▁बच	-2139
ष्टा	-2140
हल	-2141
बाही	-2142
वे	-2143
▁कान	-2144
▁घा	-2145
गरपालिका	-2146
इरा	-2147
▁खरि	-2148
▁राजा	-2149
▁उपभ	-2150
▁महत्वपूर्ण	-2151
▁सोही	-2152
▁जिम्मेवारी	-2153
▁दिव	-2154
▁स्रोत	-2155
▁कले	-2156
▁याता	-2157
▁पुर्	-2158
▁प्राथमिक	-2159
▁पुनः	-2160
▁भाव	-2161
▁राजनीति	-2162
▁काँग	-2163
न्त्रिक	-2164
▁उद्देश्य	-2165
▁यौ	-2166
▁ठा	-2167
▁सै	-2168
▁अवसरमा	-2169
▁फे	-2170
▁क्षति	-2171
आर	-2172
▁२०६	-2173
▁विरोध	-2174
योजना	-2175
▁प्रशासन	-2176
▁गाडी	-2177
फाइ	-2178
▁कसै	-2179
▁नदि	-2180
▁संसार	-2181
▁पृ	-2182
ेश्व	-2183
▁बताउँछन्	-2184
▁प्रकार	-2185
लित	-2186
▁खड्	-2187
▁प्रतिस्	-2188
▁आइतबार	-2189
ीकरण	-2190
ित्व	-2191
▁भारतको	-2192
त्कार	-2193
लर	-2194
प्ता	-2195
▁मधेश	-2196
▁साइ	-2197
ध्या	-2198
रेल	-2199
▁पुस्त	-2200
▁सिर्	-2201
▁काँग्रेस	-2202
शन	-2203
▁बिक्री	-2204
▁२८	-2205
ोरी	-2206
▁पूजा	-2207
▁ओलीले	-2208
षद्	-2209
कारात्मक	-2210
▁सँग	-2211
▁बुधबार	-2212
िल्लो	-2213
▁खरिद	-2214
ंसा	-2215
ोत्	-2216
ची	-2217
▁समाधान	-2218
न्थ्यो	-2219
▁विवरण	-2220
▁आवश्यकता	-2221
एम	-2222
▁पाएको	-2223
ङमा	-2224
▁पूर्वा	-2225
▁बाध्य	-2226
सव	-2227
▁बनाएर	-2228
▁जिल्लाको	-2229
▁सन्त	-2230
▁कार्की	-2231
▁संगीत	-2232
▁स्पष्ट	-2233
▁पहिचान	-2234
▁औं	-2235
▁अन्तर्गत	-2236
चार्य	-2237
▁हस्ता	-2238
▁दाबी	-2239
▁वन	-2240
डो	-2241
▁मधेस	-2242
▁वरि	-2243
▁सामु	-2244
टु	-2245
▁कारोबार	-2246
▁किलो	-2247
▁गम्भ	-2248
▁निर्देशक	-2249
▁गराउन	-2250
▁२७	-2251
▁नव	-2252
▁ज्यान	-2253
लग्न	-2254
▁गम्भीर	-2255
▁केहि	-2256
▁भट्टराई	-2257
▁सुझा	-2258
▁प्रतिस्पर्	-2259
कृष्ट	-2260
▁मान्य	-2261
▁दिनमा	-2262
लका	-2263
वाट	-2264
▁उसले	-2265
▁पश्चिम	-2266
▁अग्र	-2267
▁देखा	-2268
▁यसका	-2269
▁केपी	-2270
▁रोजगारी	-2271
▁छोरी	-2272
▁धार	-2273
▁अर्का	-2274
▁शनिबार	-2275
▁राख्न	-2276
▁बला	-2277
▁पुग्ने	-2278
▁विदेशी	-2279
▁पारि	-2280
▁२०७५	-2281
रले	-2282
ालको	-2283
▁दिनु	-2284
▁यात्रा	-2285
▁द्व	-2286
▁आउन	-2287
▁सुनि	-2288
▁अत्य	-2289
▁अहिलेसम्म	-2290
▁सभापति	-2291
▁माध्यम	-2292
▁फर्क	-2293
चन	-2294
तान्त्रिक	-2295
▁गर्नुभयो	-2296
थी	-2297
टे	-2298
न्ज	-2299
च्चा	-2300
▁यदि	-2301
▁४०	-2302
▁खुला	-2303
▁वर्षीय	-2304
न्दु	-2305
▁अरू	-2306
▁संशोधन	-2307
▁बम	-2308
▁वर्ग	-2309
▁प्रत्येक	-2310
▁ठूला	-2311
▁पुरस्कार	-2312
▁आकर्ष	-2313
▁माया	-2314
▁जनाको	-2315
▁घाइ	-2316
▁पार्टीको	-2317
धिकरण	-2318
धेयक	-2319
▁सिर्जना	-2320
▁हरा	-2321
▁एज	-2322
▁कुल	-2323
दे	-2324
▁समितिले	-2325
▁प्रतिष्ठ	-2326
कृति	-2327
▁भएन	-2328
▁देउवा	-2329
▁कोइरा	-2330
सद्	-2331
▁अनुभव	-2332
▁भन्न	-2333
▁साउन	-2334
क्रिय	-2335
▁राखेर	-2336
▁त्यस्तो	-2337
▁आफूलाई	-2338
▁आठ	-2339
पद	-2340
▁भी	-2341
▁पेश	-2342
▁जेठ	-2343
▁कसैले	-2344
▁विवाह	-2345
▁अवधि	-2346
▁विधेयक	-2347
▁२९	-2348
योजन	-2349
ेसम्म	-2350
▁बह	-2351
रामी	-2352
▁संलग्न	-2353
▁बर्	-2354
स्व	-2355
▁प्रशि	-2356
म्परा	-2357
▁घण्	-2358
ल्दै	-2359
▁ग्रा	-2360
▁चै	-2361
न्तरण	-2362
फो	-2363
▁सजि	-2364
▁शहर	-2365
▁भ्र	-2366
▁त्यसलाई	-2367
▁प्राधिकरण	-2368
▁उपाध्यक्ष	-2369
ष्य	-2370
▁वे	-2371
मात्र	-2372
▁हट	-2373
देशिक	-2374
▁कक्षा	-2375
▁क्रिकेट	-2376
▁पीडित	-2377
▁समन्व	-2378
▁२३	-2379
▁परिण	-2380
▁प्रजा	-2381
▁हामीलाई	-2382
▁प्रावि	-2383
▁खास	-2384
सिर	-2385
▁परम्परा	-2386
▁यातायात	-2387
लेका	-2388
▁जापान	-2389
▁निर्वाचनमा	-2390
▁पाल	-2391
▁चर्चा	-2392
▁परीक्षा	-2393
▁२६	-2394
▁संस्कृति	-2395
▁चुन	-2396
▁सानो	-2397
▁फु	-2398
▁बाबु	-2399
सीले	-2400
▁मनो	-2401
विरुद्ध	-2402
▁भइसकेको	-2403
ीलाई	-2404
हरण	-2405
▁आँखा	-2406
सीको	-2407
▁बन्ने	-2408
▁कम्पनीले	-2409
▁मंगलबार	-2410
द्र	-2411
▁आजको	-2412
पमा	-2413
ानि	-2414
▁सपना	-2415
ेलु	-2416
▁पहा	-2417
ौती	-2418
▁पुगेका	-2419
▁खबर	-2420
रीय	-2421
▁बसेको	-2422
▁सर्वो	-2423
▁भक्त	-2424
नेर	-2425
▁वर्षमा	-2426
▁स्थापित	-2427
▁हरि	-2428
▁भवन	-2429
▁सम्बोधन	-2430
▁मं	-2431
ेले	-2432
▁लागी	-2433
र्मिक	-2434
▁अघ	-2435
▁फुटबल	-2436
▁प्रदर्शन	-2437
▁लै	-2438
▁समन्वय	-2439
सिल	-2440
छु	-2441
▁युव	-2442
पूर्व	-2443
▁कलेज	-2444
▁समितिको	-2445
▁प्रतियोगिता	-2446
तालाई	-2447
न्दी	-2448
बाटै	-2449
▁उत्कृष्ट	-2450
▁भाइ	-2451
▁२००	-2452
▁जम	-2453
▁अंक	-2454
▁संक	-2455
वटा	-2456
▁आफूले	-2457
▁संगठन	-2458
ल्ट	-2459
हरुका	-2460
▁एकै	-2461
्यास	-2462
▁अख	-2463
▁इन्टर	-2464
▁घाइते	-2465
▁डो	-2466
▁कुन	-2467
▁छिन्	-2468
▁राजधानी	-2469
▁बैठकले	-2470
▁२०७४	-2471
▁पेट	-2472
▁सम्बन्धी	-2473
▁आयोजित	-2474
▁त्यसमा	-2475
▁तिहार	-2476
नुहुन्छ	-2477
▁सक्दैन	-2478
लाल	-2479
्रे	-2480
▁पाइन्छ	-2481
▁व्यवहार	-2482
चेत	-2483
रीमा	-2484
फ्	-2485
लाले	-2486
▁एक्	-2487
▁कारबाही	-2488
▁अपराध	-2489
▁मिला	-2490
▁प्राविधिक	-2491
▁लागू	-2492
▁सश	-2493
वसाय	-2494
▁भनी	-2495
मेन्ट	-2496
▁बिही	-2497
सिय	-2498
▁सालमा	-2499
थो	-2500
▁कर्ण	-2501
▁सुन्द	-2502
गमन	-2503
▁महासंघ	-2504
▁सुझाव	-2505
▁कोष	-2506
क्न	-2507
▁कोरिया	-2508
न्तरिक	-2509
हे	-2510
स्कृतिक	-2511
खर	-2512
▁अधिकांश	-2513
▁डु	-2514
▁क्षेत्रका	-2515
▁सम्बन्धमा	-2516
▁मन्त्रालयले	-2517
▁चितवन	-2518
तीमा	-2519
सँगको	-2520
▁कारणले	-2521
जोर	-2522
साब	-2523
प्प	-2524
▁थापाले	-2525
▁नपा	-2526
स्थान	-2527
वाज	-2528
▁वित्त	-2529
डमा	-2530
लीमा	-2531
▁वीर	-2532
▁ट्रा	-2533
▁आन्तरिक	-2534
▁अधि	-2535
▁वास्त	-2536
▁सक्रिय	-2537
ल्लाह	-2538
▁तामाङ	-2539
ज्ञान	-2540
धीश	-2541
▁बैंकले	-2542
▁आदेश	-2543
▁शेयर	-2544
तियार	-2545
▁बनाइ	-2546
सरी	-2547
▁छाड	-2548
▁क्षमता	-2549
▁कोही	-2550
▁कार्यक्रमको	-2551
कन	-2552
▁बन्	-2553
▁मार्फत	-2554
▁कार्यकर्ता	-2555
▁जोख	-2556
▁मिति	-2557
चारिक	-2558
▁लक्ष्	-2559
en	-2560
मको	-2561
▁समितिका	-2562
▁तालिम	-2563
कुल	-2564
▁बैठकमा	-2565
दल	-2566
हत	-2567
▁स्थिति	-2568
▁एउटै	-2569
▁नाका	-2570
▁सध	-2571
▁सुना	-2572
▁वस्तु	-2573
▁निष्	-2574
▁पूर्वाधार	-2575
▁तथ्या	-2576
लाका	-2577
ृत्ति	-2578
▁नौ	-2579
▁जरु	-2580
वाल	-2581
बाइ	-2582
▁सकेन	-2583
▁धार्मिक	-2584
▁प्रभावित	-2585
▁खाना	-2586
▁धु	-2587
▁यौन	-2588
▁उनीहरू	-2589
▁तहको	-2590
▁जरुरी	-2591
▁असर	-2592
गुन	-2593
लन	-2594
▁नारायण	-2595
▁सर्वोच्च	-2596
ad	-2597
सस	-2598
▁गरेकी	-2599
▁हुनुपर्छ	-2600
▁समृद्धि	-2601
ेसन	-2602
▁समर्थ	-2603
▁योगदान	-2604
▁खड्का	-2605
▁चरणमा	-2606
वाफ	-2607
▁उदा	-2608
▁मज	-2609
▁देशका	-2610
दु	-2611
▁माघ	-2612
▁नदी	-2613
▁पक्षमा	-2614
▁दृष्टि	-2615
▁है	-2616
तीय	-2617
▁गुना	-2618
आई	-2619
▁लाग्	-2620
▁घण्टा	-2621
विद्यालय	-2622
▁यू	-2623
मन	-2624
यता	-2625
▁काममा	-2626
लत	-2627
▁बोक	-2628
▁रमा	-2629
▁कमजोर	-2630
▁ज्ञान	-2631
त्रा	-2632
याधीश	-2633
▁नसकेको	-2634
▁पराजित	-2635
▁किसिम	-2636
र्तमान	-2637
▁चिनियाँ	-2638
▁गठबन्ध	-2639
▁राखिएको	-2640
▁गरिएका	-2641
ारो	-2642
▁नप	-2643
न्छु	-2644
▁उसको	-2645
▁सहा	-2646
गु	-2647
▁अभिन	-2648
▁प्रत्यक्ष	-2649
▁पुष्	-2650
ँजी	-2651
ाइएको	-2652
िएका	-2653
▁क्रा	-2654
श्	-2655
▁थिइन्	-2656
▁जोडि	-2657
▁हुनुपर्ने	-2658
पे	-2659
िनी	-2660
▁शाह	-2661
▁साँझ	-2662
▁तहमा	-2663
▁गुणस्त	-2664
ेली	-2665
▁चिन्	-2666
▁लगाउने	-2667
▁निर्वाचित	-2668
▁कामदार	-2669
▁गौतम	-2670
रीक्षक	-2671
▁राखेको	-2672
▁भवि	-2673
द्द	-2674
▁स्थित	-2675
▁तत्कालीन	-2676
▁ल्याउन	-2677
लीको	-2678
▁बिहीबार	-2679
▁गुमा	-2680
▁हक	-2681
▁कस्तो	-2682
▁शी	-2683
▁अंग	-2684
▁लाइ	-2685
▁प्रतिस्पर्धा	-2686
रूप	-2687
▁स्या	-2688
▁मन्दिर	-2689
▁उद्ध	-2690
रीले	-2691
▁सञ्ज	-2692
मती	-2693
▁नब	-2694
घाटन	-2695
▁पस	-2696
▁आम्	-2697
दानी	-2698
▁उपत्य	-2699
▁बिरामी	-2700
▁सिफ	-2701
▁हुँ	-2702
▁विरा	-2703
णिज्य	-2704
▁सहभागिता	-2705
▁अल	-2706
कर्मी	-2707
▁संसद्	-2708
▁ब्रा	-2709
▁क्रिया	-2710
▁प्रचार	-2711
दय	-2712
तः	-2713
▁चौध	-2714
यिका	-2715
▁सुख	-2716
तिकै	-2717
▁साना	-2718
▁जोखिम	-2719
रका	-2720
▁कमि	-2721
▁चिकित्सक	-2722
▁नर	-2723
▁पाउँ	-2724
पुग	-2725
ल्याण्ड	-2726
ारमा	-2727
▁]	-2728
▁कम्	-2729
▁बलात्कार	-2730
कुर	-2731
▁माइ	-2732
▁शिव	-2733
▁वाम	-2734
▁भौतिक	-2735
▁आशा	-2736
▁रन	-2737
▁जवाफ	-2738
पोर्ट	-2739
▁उनीहरु	-2740
▁काग	-2741
▁विश्वविद्यालय	-2742
▁सन्दर्भ	-2743
al	-2744
▁हाम्रा	-2745
▁तराई	-2746
▁संकलन	-2747
▁उपभो	-2748
▁कप	-2749
▁जम्मा	-2750
▁श्रेष्ठले	-2751
▁ची	-2752
▁गएका	-2753
▁पार्टीका	-2754
र्द	-2755
▁छुट्	-2756
▁पोखरेल	-2757
ar	-2758
▁कठ	-2759
पर्क	-2760
▁जनताले	-2761
रिक	-2762
▁आप	-2763
▁उपत्यका	-2764
▁६०	-2765
▁सल्लाह	-2766
▁दिइएको	-2767
▁फूल	-2768
▁रू	-2769
▁तर्फबाट	-2770
▁अस्पतालमा	-2771
जर	-2772
▁आए	-2773
ल्यै	-2774
▁मतदान	-2775
▁रेल	-2776
▁छिम	-2777
▁जहाँ	-2778
▁अर्थात्	-2779
नाई	-2780
मार्फत	-2781
कला	-2782
क्षर	-2783
साथ	-2784
ामु	-2785
▁नो	-2786
▁वित्तीय	-2787
▁ढि	-2788
▁सिफारि	-2789
थम	-2790
▁साता	-2791
▁निम्ति	-2792
▁क्रान्ति	-2793
िमि	-2794
▁प्या	-2795
▁नियमित	-2796
▁विरुद्ध	-2797
नेको	-2798
▁गए	-2799
क्ने	-2800
्यू	-2801
▁साउ	-2802
▁बराब	-2803
▁की	-2804
▁सेना	-2805
▁कार्यकारी	-2806
▁नसक्ने	-2807
अन्त	-2808
▁समावेश	-2809
डे	-2810
▁बढि	-2811
▁अने	-2812
▁भग	-2813
▁आचार्य	-2814
र्इ	-2815
ज्ञा	-2816
▁प्रतिवेदन	-2817
र्षिक	-2818
▁खन	-2819
▁गायक	-2820
दाता	-2821
▁उहाँको	-2822
ममा	-2823
▁बढ्ने	-2824
▁बोर्ड	-2825
▁हेर्न	-2826
▁बनेका	-2827
▁प्रकाशित	-2828
▁लामा	-2829
▁m	-2830
गी	-2831
िने	-2832
▁विप	-2833
▁सत्य	-2834
ञ्चन	-2835
▁अदालत	-2836
त्न	-2837
निर्माण	-2838
▁परीक्षण	-2839
यौं	-2840
▁चन्द्र	-2841
▁फोर	-2842
▁कालो	-2843
▁औषधि	-2844
साधारण	-2845
भिजन	-2846
▁सहर	-2847
▁दिएर	-2848
▁धारणा	-2849
▁गुनासो	-2850
▁अहिलेको	-2851
▁ल्याएको	-2852
दारी	-2853
▁गलत	-2854
▁प्रभावकारी	-2855
ारम्भ	-2856
▁वैशाख	-2857
क्षिक	-2858
▁साह	-2859
▁दलित	-2860
▁मेड	-2861
जस्ता	-2862
ण्डा	-2863
▁गावि	-2864
▁लाभ	-2865
▁साधन	-2866
▁भविष्य	-2867
र्गत	-2868
▁गोर	-2869
▁सुन्दर	-2870
▁सत्ता	-2871
ँडा	-2872
काे	-2873
▁सरकारलाई	-2874
ानु	-2875
▁स्वागत	-2876
▁सदर	-2877
टको	-2878
▁प्रतिनिधिसभा	-2879
▁सम्भव	-2880
),	-2881
टनगर	-2882
▁टोलीले	-2883
धुनिक	-2884
▁मगर	-2885
जको	-2886
▁निर्म	-2887
▁टेलि	-2888
▁छौँ	-2889
▁बताइएको	-2890
सम्मको	-2891
▁मले	-2892
ानीको	-2893
▁ब्	-2894
▁फर्कि	-2895
▁पहिरो	-2896
न्तु	-2897
लाइन	-2898
▁लिग	-2899
▁आवाज	-2900
▁दुख	-2901
जस्तो	-2902
▁राति	-2903
▁भ्रष्टा	-2904
▁अनुमान	-2905
▁भे	-2906
▁बेलायत	-2907
▁उनीहरुले	-2908
▁आयोजक	-2909
▁प्	-2910
▁प्रवक्ता	-2911
▁गएर	-2912
▁पाण्ड	-2913
ज्	-2914
▁ब्र	-2915
ेलिया	-2916
▁बद	-2917
▁दशम	-2918
▁छान	-2919
▁फेस	-2920
ालो	-2921
▁जिल्लाका	-2922
▁सकारात्मक	-2923
▁फोन	-2924
▁उपयोग	-2925
ोजिम	-2926
▁तस्	-2927
▁भएपनि	-2928
▁मोबाइ	-2929
▁जनक	-2930
▁गरियो	-2931
▁सिका	-2932
▁मान्यता	-2933
▁सुरक्षित	-2934
नीय	-2935
▁बेच	-2936
▁आयोगले	-2937
▁ल्याउने	-2938
क्कै	-2939
▁मिडिया	-2940
ःख	-2941
पुरमा	-2942
▁बताउँदै	-2943
▁होस्	-2944
▁केसी	-2945
▁सिद्धा	-2946
▁सम्पत्ति	-2947
▁समान	-2948
र्ख	-2949
▁कम्युनिष्ट	-2950
अन्तर्गत	-2951
▁बनाउ	-2952
ित्त	-2953
▁पे	-2954
▁हिजो	-2955
किस्ता	-2956
रान	-2957
▁प्रग	-2958
▁थुप	-2959
▁शैक्षिक	-2960
▁बल	-2961
▁खण्ड	-2962
िकल	-2963
▁खेती	-2964
पचारिक	-2965
▁प्रतिष्ठान	-2966
▁हुनुहुन्छ	-2967
ुट्	-2968
▁३१	-2969
▁ठु	-2970
▁कहि	-2971
▁/	-2972
िन्	-2973
▁नभए	-2974
▁जग	-2975
क्ट	-2976
िमिर	-2977
▁ग्राह	-2978
▁तरिका	-2979
इँ	-2980
▁सहकार्य	-2981
▁लोकतन्त्र	-2982
▁भनिएको	-2983
▁समाजमा	-2984
फी	-2985
पुरको	-2986
▁पाउन	-2987
▁डाक्टर	-2988
शक्ति	-2989
▁अधिकारीले	-2990
▁रंग	-2991
▁प्रतियोगितामा	-2992
▁न्यू	-2993
ोका	-2994
▁जाग	-2995
▁विद्युत्	-2996
िमा	-2997
▁थिएँ	-2998
▁अभिनय	-2999
▁बढ्दै	-3000
▁चर्चित	-3001
▁परिणाम	-3002
▁युनि	-3003
▁सबैलाई	-3004
▁हेर्दा	-3005
▁पाएका	-3006
▁पुर्या	-3007
▁बसेर	-3008
▁मिटर	-3009
▁वरिष्ठ	-3010
▁सामग्री	-3011
▁कल	-3012
▁जाँदा	-3013
▁आक्रमण	-3014
▁लागेका	-3015
▁आर	-3016
▁मोड	-3017
वाही	-3018
▁प्रधानमन्त्र	-3019
▁निर्माणको	-3020
▁बलियो	-3021
▁पदार्थ	-3022
▁अनुमति	-3023
▁सबैको	-3024
▁दुःख	-3025
▁पुष्प	-3026
म्बु	-3027
▁फिर्ता	-3028
▁झापा	-3029
▁चुनौती	-3030
▁सञ्चालनमा	-3031
▁उद्घाटन	-3032
र्चा	-3033
▁अग	-3034
दायिक	-3035
▁अपे	-3036
सू	-3037
▁विधि	-3038
कर	-3039
म्बा	-3040
▁सामान	-3041
▁थालेका	-3042
▁लाग्यो	-3043
कलाई	-3044
▁हुन्थ्यो	-3045
▁सौ	-3046
▁पाकिस्ता	-3047
▁वर्षा	-3048
िल	-3049
▁शीर्ष	-3050
पश्च	-3051
▁शुल्क	-3052
टेड	-3053
हिनी	-3054
▁नम	-3055
▁गाई	-3056
▁हिसाब	-3057
वली	-3058
▁गल्	-3059
▁परियोजना	-3060
▁पुनर्	-3061
▁कञ्चन	-3062
▁यथा	-3063
खो	-3064
ङ्गा	-3065
▁छोड	-3066
▁अनुगमन	-3067
▁अम	-3068
▁भ्रष्टाचार	-3069
▁हिंसा	-3070
कूल	-3071
कारि	-3072
बुक	-3073
दीको	-3074
▁भर	-3075
▁हिमाल	-3076
ुकु	-3077
▁पुल	-3078
▁मध्ये	-3079
▁प्रदेशसभा	-3080
▁मानसिक	-3081
▁घिमिर	-3082
▁छिमेकी	-3083
यल	-3084
पूर्ति	-3085
▁उनीहरुको	-3086
▁प्रतिबद्ध	-3087
▁शासन	-3088
▁बच्चा	-3089
▁विकासका	-3090
▁नेतृत्वको	-3091
▁वर्तमान	-3092
ेदार	-3093
▁पञ्च	-3094
▁तरकारी	-3095
▁कार्यालयले	-3096
कामना	-3097
विध	-3098
▁सम्पाद	-3099
▁दबा	-3100
▁पाउ	-3101
▁छनोट	-3102
▁३५	-3103
मले	-3104
▁चाड	-3105
▁फाइदा	-3106
च्छा	-3107
▁यात्रु	-3108
▁साधारण	-3109
र्सि	-3110
ल्ल	-3111
द्र्	-3112
▁कविता	-3113
▁सम्मेलन	-3114
▁संचालन	-3115
रोह	-3116
▁वार्ता	-3117
▁उपभोक्ता	-3118
▁पाठ	-3119
धानिक	-3120
बाहेक	-3121
▁व्यावसाय	-3122
घाट	-3123
▁सजा	-3124
▁निश्चित	-3125
▁पहल	-3126
ेदेखि	-3127
▁मन्त्रि	-3128
▁वैदेशिक	-3129
▁ढा	-3130
▁सदरमु	-3131
▁मंसिर	-3132
▁कतै	-3133
▁स्वदेश	-3134
हीन	-3135
▁मोटर	-3136
▁सेयर	-3137
किङ	-3138
▁विकेट	-3139
हरा	-3140
▁शेर	-3141
▁आयात	-3142
तिहासिक	-3143
ीया	-3144
रुपमा	-3145
▁अत्यन्त	-3146
▁गरिदि	-3147
भी	-3148
▁मैदान	-3149
▁पारेको	-3150
ोध	-3151
▁बंग	-3152
▁सदरमुकाम	-3153
२०	-3154
ाउँछ	-3155
▁पदाधिका	-3156
कृतिक	-3157
▁सर्वसाधारण	-3158
▁मार्ग	-3159
▁कुरामा	-3160
▁चासो	-3161
▁फागुन	-3162
▁कार्यालयमा	-3163
▁दाय	-3164
▁ज्ञा	-3165
▁बढाउन	-3166
▁विराटनगर	-3167
▁लोकतान्त्रिक	-3168
▁नेतृत्वमा	-3169
▁हित	-3170
ेश्वर	-3171
▁पारित	-3172
▁हासिल	-3173
▁मुलुकको	-3174
▁आएर	-3175
▁प्रसार	-3176
▁पर्दछ	-3177
▁बहादुर	-3178
लिएको	-3179
▁पार्ने	-3180
▁अा	-3181
▁सबैले	-3182
वाई	-3183
▁रण	-3184
▁विकल्प	-3185
▁जानु	-3186
▁स्म	-3187
▁तिनी	-3188
▁पाए	-3189
▁फोटो	-3190
मिटर	-3191
पर्ने	-3192
▁महानगरपालिका	-3193
▁प्रथम	-3194
▁सभ	-3195
▁आलो	-3196
▁भनेका	-3197
सला	-3198
▁भएकोले	-3199
▁नस	-3200
▁युरो	-3201
ङले	-3202
▁पहु	-3203
▁सचेत	-3204
▁पुरानो	-3205
▁जुट	-3206
▁फल	-3207
चक	-3208
▁समेट	-3209
▁युद्ध	-3210
▁रेडियो	-3211
▁चढ	-3212
▁पृथ	-3213
▁सक्छन्	-3214
यको	-3215
रे	-3216
▁सार	-3217
▁दलका	-3218
▁मुलुकमा	-3219
हण	-3220
▁संसदीय	-3221
▁प्रहरीको	-3222
▁बाहेक	-3223
एल	-3224
दन	-3225
▁उपस्थिति	-3226
▁सामुदायिक	-3227
▁सांस्कृतिक	-3228
ङका	-3229
ठो	-3230
▁उदाहरण	-3231
▁विज्ञान	-3232
क्षेप	-3233
▁मेला	-3234
र्नु	-3235
▁कार्यरत	-3236
▁खि	-3237
रामा	-3238
▁दोष	-3239
▁ललित	-3240
▁हैन	-3241
▁होटल	-3242
नगर	-3243
होर	-3244
▁चुना	-3245
▁सही	-3246
▁भारतले	-3247
▁वाणिज्य	-3248
▁जेल	-3249
▁हेर्ने	-3250
▁उपयुक्त	-3251
▁त्यसैगरी	-3252
हारी	-3253
सकेपछि	-3254
▁ऐतिहासिक	-3255
बिन	-3256
▁धान	-3257
लादेश	-3258
▁लगाएर	-3259
▁आम्दानी	-3260
▁अघिल्लो	-3261
▁संविधानसभा	-3262
ore	-3263
▁s	-3264
▁ट्या	-3265
▁इतिहास	-3266
▁तिमी	-3267
▁कुमार	-3268
▁यता	-3269
▁प्रेस	-3270
▁सन्देश	-3271
▁पौडेलले	-3272
▁फ्रा	-3273
▁राज्यको	-3274
बीचको	-3275
▁अनुदान	-3276
▁पर्या	-3277
कानी	-3278
▁राख्	-3279
▁आफैं	-3280
कोटा	-3281
▁क्याम्प	-3282
▁मुख्यमन्त्री	-3283
▁सन्दर्भमा	-3284
▁फेसबुक	-3285
▁गज	-3286
र्ब	-3287
सुक	-3288
▁बुट	-3289
▁समग्र	-3290
▁प्राकृतिक	-3291
▁पुग्न	-3292
▁अभिने	-3293
▁दोहो	-3294
त्तै	-3295
▁रोजगार	-3296
▁भोज	-3297
▁गर्नका	-3298
▁प्रारम्भ	-3299
▁त्यसले	-3300
▁पछा	-3301
▁बढ्	-3302
▁अन्	-3303
▁अपेक्षा	-3304
▁कहिल्यै	-3305
पथ	-3306
▁दिँदै	-3307
▁विकासको	-3308
▁नभई	-3309
▁डलर	-3310
▁ज्या	-3311
▁अथ	-3312
लाम	-3313
भने	-3314
▁बढाउने	-3315
▁मन्त्रिपरि	-3316
तका	-3317
▁गाँ	-3318
▁कर्णाली	-3319
▁भत्	-3320
▁उचित	-3321
▁लगाउन	-3322
▁वार्षिक	-3323
शुल्क	-3324
▁ते	-3325
▁लिएका	-3326
▁त्यसका	-3327
▁लगाएको	-3328
▁कम्पनीको	-3329
मिला	-3330
▁अनुरोध	-3331
▁उपस्थित	-3332
▁उनीहरूले	-3333
हरूका	-3334
▁महोत्	-3335
▁प्रगति	-3336
समिति	-3337
▁प्राय	-3338
गढ	-3339
वधान	-3340
▁सोध	-3341
▁भनिन्छ	-3342
▁स्थायी	-3343
▁साझा	-3344
परेको	-3345
▁सफलता	-3346
तह	-3347
▁केन्द्रित	-3348
कुद	-3349
▁कडा	-3350
न्तव्य	-3351
मारी	-3352
▁पहुँच	-3353
ज्ञानिक	-3354
▁विमानस्थल	-3355
ियम	-3356
▁न्यून	-3357
ीक	-3358
▁दशमलव	-3359
षद	-3360
▁खत	-3361
▁नसक्	-3362
▁बन्दै	-3363
र्पा	-3364
▁सञ्जाल	-3365
▁गाउँमा	-3366
▁पुस्तक	-3367
भार	-3368
▁गतिविधि	-3369
ाई	-3370
▁मेगा	-3371
श्र	-3372
▁खेलकुद	-3373
▁हाँ	-3374
▁चिया	-3375
वाला	-3376
▁भोलि	-3377
पण	-3378
▁नगद	-3379
▁सरो	-3380
▁स्वय	-3381
▁आफन्त	-3382
▁भर्ना	-3383
▁संघर्ष	-3384
▁आफै	-3385
▁एजेन्	-3386
▁भनाई	-3387
▁कर्जा	-3388
गढी	-3389
▁भावना	-3390
▁ढकाल	-3391
▁महत्	-3392
▁नगर्ने	-3393
नल	-3394
▁विनि	-3395
▁सम्पर्क	-3396
▁विश्वकप	-3397
▁एम	-3398
▁भेला	-3399
▁मलेसिया	-3400
प्रिय	-3401
राको	-3402
▁निर्धारण	-3403
जिनि	-3404
▁क्षेत्रीय	-3405
▁चित्र	-3406
▁थुप्रै	-3407
▁बिस्त	-3408
▁७०	-3409
▁भन्छ	-3410
▁सिद्धान्त	-3411
्याल	-3412
▁शव	-3413
▁आधुनिक	-3414
ेकै	-3415
▁भूमि	-3416
मेल	-3417
दछन्	-3418
▁किलोमिटर	-3419
हुँ	-3420
▁कुराकानी	-3421
भूत	-3422
▁मेडिकल	-3423
▁बढ्न	-3424
▁पार्न	-3425
भरि	-3426
▁मर्म	-3427
▁त्यस्ता	-3428
▁कम्युनिस्ट	-3429
▁बौ	-3430
र्का	-3431
▁प्रो	-3432
▁चैत	-3433
▁वर्षदेखि	-3434
▁दाजु	-3435
ल्ड	-3436
ेन्स	-3437
▁लक्ष्मी	-3438
नेटमा	-3439
▁समृद्ध	-3440
त्ती	-3441
शाली	-3442
▁अर्ज	-3443
▁सम्व	-3444
▁गराएको	-3445
वात	-3446
लगायतका	-3447
राख	-3448
▁कार्तिक	-3449
ुली	-3450
द्रा	-3451
ट्टा	-3452
▁भरत	-3453
▁हालसम्म	-3454
▁मोबाइल	-3455
▁प्रदेशको	-3456
▁निर्माणका	-3457
▁उनीहरूको	-3458
यनमा	-3459
▁गोली	-3460
▁पन्त	-3461
▁आउँछ	-3462
ढे	-3463
रीका	-3464
▁पास	-3465
▁अलि	-3466
▁रोक	-3467
▁जनप्रति	-3468
▁आयोजनामा	-3469
▁किश	-3470
फिक	-3471
ुपयोग	-3472
▁बोला	-3473
ंगो	-3474
र्माले	-3475
ारु	-3476
▁दर्जन	-3477
▁प्रहार	-3478
▁बग	-3479
▁विजयी	-3480
▁सरोकार	-3481
▁झु	-3482
▁जोग	-3483
▁टीका	-3484
▁गर्नेछ	-3485
▁परिच	-3486
▁विजय	-3487
सिंह	-3488
▁नगरी	-3489
▁जमिन	-3490
▁हिँड	-3491
▁वर्षीया	-3492
सक्छ	-3493
▁कानून	-3494
▁लड	-3495
▁भाष	-3496
▁दशक	-3497
चौ	-3498
श्रम	-3499
▁तिर	-3500
▁औपचारिक	-3501
▁महोत्सव	-3502
▁व्यक्तिगत	-3503
▁एवम्	-3504
मेश	-3505
▁मिनेट	-3506
विद्यु	-3507
▁नहुँदा	-3508
▁श्रीमती	-3509
्यता	-3510
▁बैंकको	-3511
स्ट्र	-3512
▁राहत	-3513
▁सजिलो	-3514
▁झन्	-3515
बास	-3516
नलमा	-3517
▁ऊर्जा	-3518
ग्रा	-3519
ाउँदा	-3520
▁दबाब	-3521
▁उपाधि	-3522
न्थ	-3523
निधि	-3524
▁नति	-3525
▁त्यसो	-3526
▁सडकमा	-3527
▁पत्रिका	-3528
▁शुभकामना	-3529
▁झण्ड	-3530
▁फेला	-3531
▁गणतन्त्र	-3532
▁विद्यार्थ	-3533
▁मापद	-3534
▁समारोह	-3535
▁जनतालाई	-3536
▁महिलाको	-3537
▁कट	-3538
▁तु	-3539
बन्दी	-3540
▁आधारित	-3541
▁सरकारका	-3542
ष्णु	-3543
ङक	-3544
स्की	-3545
▁क्यान्स	-3546
▁निज	-3547
▁उत्सा	-3548
▁खुसी	-3549
▁अन्न	-3550
▁मापदण्ड	-3551
▁विद्यालयमा	-3552
दम	-3553
▁सम्मेलनमा	-3554
वस्था	-3555
▁बस्न	-3556
▁२०७३	-3557
▁काठमाण्ड	-3558
भे	-3559
पन्न	-3560
▁राजदू	-3561
एकाले	-3562
▁दिउँ	-3563
बारी	-3564
▁४५	-3565
▁व्यक्तिको	-3566
▁८०	-3567
ेशन	-3568
▁बाग	-3569
▁मिलेर	-3570
▁नगरपालिकाको	-3571
चर	-3572
व्र	-3573
▁३२	-3574
▁जलविद्यु	-3575
▁नाटक	-3576
▁किनभने	-3577
▁नेपाललाई	-3578
▁नियन्त्रणमा	-3579
▁आधा	-3580
▁मोर	-3581
▁२०५	-3582
▁पर्यटकीय	-3583
▁पार्टीले	-3584
ंकन	-3585
▁अध्या	-3586
▁महिनामा	-3587
विन्द	-3588
▁अर्थात	-3589
▁स्थानिय	-3590
एफ	-3591
▁अनलाइन	-3592
▁सिफारिस	-3593
▁भन्नु	-3594
▁महेन्द्र	-3595
▁प्रतिक्रिया	-3596
जुरी	-3597
तिका	-3598
श्वर	-3599
▁दिदी	-3600
▁गोरखा	-3601
▁विविध	-3602
▁अनेक	-3603
▁मू	-3604
▁बोल	-3605
ारायण	-3606
▁माथ	-3607
ेटि	-3608
साई	-3609
▁अदालतले	-3610
▁चलन	-3611
▁निस्क	-3612
लम्ब	-3613
डिङ	-3614
▁दिल्	-3615
▁चुनावी	-3616
चो	-3617
▁आउँ	-3618
▁जान्छ	-3619
▁महासचिव	-3620
▁सशस्त्र	-3621
विन	-3622
▁दिनको	-3623
▁मित्र	-3624
▁भित्	-3625
▁अर्थतन्त्र	-3626
▁पदाधिकारी	-3627
▁७५	-3628
▁सिट	-3629
जान	-3630
▁प्रतिनिध	-3631
▁ढंग	-3632
▁सङ्ग	-3633
▁शेर्पा	-3634
▁व्यवस्थाप	-3635
▁जिम्मा	-3636
नन्	-3637
होस	-3638
▁झण्डै	-3639
▁बिभिन्न	-3640
किने	-3641
▁हाइ	-3642
▁जनजा	-3643
चन्द्र	-3644
▁मोर्चा	-3645
▁जय	-3646
दिने	-3647
लक	-3648
▁उद्धार	-3649
▁कानुनी	-3650
▁दिवस	-3651
रुवा	-3652
कारण	-3653
▁सूर्य	-3654
▁दस	-3655
▁दुबै	-3656
ठी	-3657
▁पहिला	-3658
▁अवधिमा	-3659
▁तर्क	-3660
▁मौलिक	-3661
▁अष्ट्र	-3662
▁डी	-3663
सुकै	-3664
▁उनि	-3665
▁व्यापारी	-3666
▁प्रतिबद्धता	-3667
सङ्	-3668
रहे	-3669
रव	-3670
्रु	-3671
▁०७	-3672
शुप	-3673
▁ठे	-3674
▁मेल	-3675
▁बसेका	-3676
▁भनिन्	-3677
न्द्व	-3678
डीको	-3679
▁मुक्त	-3680
▁Re	-3681
▁हार	-3682
▁विष्ट	-3683
▁बालिका	-3684
▁कोइराला	-3685
▁२०७२	-3686
ेलिक	-3687
▁उपम	-3688
▁बौद्ध	-3689
▁चलि	-3690
▁फोरम	-3691
▁नियुक्त	-3692
जमा	-3693
मूल	-3694
छिन्	-3695
▁सजाय	-3696
▁काठमाडौंमा	-3697
▁इज	-3698
▁काउ	-3699
पूर्वक	-3700
▁हस्तान्तरण	-3701
▁संघका	-3702
is	-3703
▁सब	-3704
▁चिन्ता	-3705
▁अमेरिकाको	-3706
▁उडान	-3707
▁यद्य	-3708
▁सुनु	-3709
गोल	-3710
▁रासस	-3711
▁माओवाद	-3712
▁व्यावसायिक	-3713
गञ्ज	-3714
देवी	-3715
▁काट	-3716
▁अभ्यास	-3717
▁तथ्य	-3718
▁एकजना	-3719
▁कैला	-3720
▁एश	-3721
कट	-3722
▁कमी	-3723
▁शरीर	-3724
▁दौ	-3725
▁स्वीकार	-3726
▁टिक	-3727
र्दै	-3728
▁अभिभाव	-3729
▁ट्रम्प	-3730
▁मन्त्रालयका	-3731
न्टर	-3732
वार्ड	-3733
▁न्यु	-3734
▁घो	-3735
तावास	-3736
▁more	-3737
डामा	-3738
जे	-3739
▁प्रवृत्ति	-3740
▁जसको	-3741
▁मुस्	-3742
▁भारतमा	-3743
▁विदेशमा	-3744
▁जसमा	-3745
▁महाधि	-3746
▁सप्त	-3747
▁विश्ले	-3748
▁निगम	-3749
र्ती	-3750
▁जनालाई	-3751
▁भुक्ता	-3752
▁तपाईंको	-3753
ीकृत	-3754
वत	-3755
नित	-3756
▁हङक	-3757
▁सन्ता	-3758
▁सैनिक	-3759
▁रगत	-3760
▁नआ	-3761
▁थोर	-3762
▁वास्तविक	-3763
▁राखेका	-3764
▁संविधानको	-3765
▁चयन	-3766
▁हरु	-3767
▁३३	-3768
ञ्चल	-3769
भाविक	-3770
▁वर्षअघि	-3771
भाइ	-3772
▁अत्या	-3773
▁परिषद्	-3774
▁छिटो	-3775
▁तथ्यांक	-3776
▁परिस्थिति	-3777
▁पशुप	-3778
क्षेत्र	-3779
▁दिउँसो	-3780
▁मौका	-3781
▁पृथ्व	-3782
▁अथवा	-3783
▁बीमा	-3784
प्रधान	-3785
▁पुस	-3786
▁धारा	-3787
▁महसु	-3788
▁पत्ता	-3789
▁परिचय	-3790
▁बिषय	-3791
विर	-3792
क्रो	-3793
▁नतिजा	-3794
▁बताएको	-3795
गार	-3796
▁मेरा	-3797
▁राणा	-3798
▁राजी	-3799
▁तुलनामा	-3800
क्सी	-3801
▁शाही	-3802
▁रात	-3803
▁हुनाले	-3804
▁केन्द्रका	-3805
▁गणेश	-3806
▁न्यायाधीश	-3807
▁जहा	-3808
▁बाह	-3809
▁प्रावधान	-3810
जस्तै	-3811
▁राजमार्ग	-3812
▁संस्थाको	-3813
न्ती	-3814
▁समर्थन	-3815
ल्पना	-3816
▁दलको	-3817
▁जनाएका	-3818
▁चो	-3819
▁बनाएका	-3820
▁जनप्रतिनिधि	-3821
▁हालै	-3822
उँदा	-3823
▁म्यु	-3824
छी	-3825
▁साझ	-3826
▁भएमा	-3827
▁चरणको	-3828
▁दुर	-3829
▁अगाडी	-3830
▁गरिसकेको	-3831
▁n	-3832
कमल	-3833
...	-3834
▁ठुलो	-3835
▁आलोचना	-3836
ियो	-3837
ुरू	-3838
कृष्ण	-3839
ण्डकी	-3840
▁बैङ्क	-3841
आइ	-3842
ियर	-3843
▁विभागले	-3844
▁परा	-3845
▁आस	-3846
▁सहयोगमा	-3847
▁किरा	-3848
▁पुगेर	-3849
▁एयर	-3850
▁एसिया	-3851
▁चौथो	-3852
▁सिन्ध	-3853
ङ्ग्र	-3854
▁पढ्न	-3855
▁महत्त्व	-3856
ामुख	-3857
▁चेत	-3858
▁संचाल	-3859
▁निर्माणमा	-3860
गरमा	-3861
▁पुँजी	-3862
निया	-3863
▁यिन	-3864
▁जसरी	-3865
▁शर्माले	-3866
▁राउ	-3867
▁विकासमा	-3868
यन्त्र	-3869
▁सँगै	-3870
▁बीचमा	-3871
▁अपना	-3872
▁यसैगरी	-3873
▁हिसाबले	-3874
▁पर्न	-3875
▁अख्	-3876
ल्पा	-3877
▁बुढा	-3878
टिङ	-3879
▁स्थल	-3880
ौला	-3881
▁जनकपुर	-3882
▁कार्यालयका	-3883
खेल	-3884
▁दम	-3885
्रोल	-3886
▁बिच	-3887
▁गोविन्द	-3888
▁सङ्घीय	-3889
▁दुर्घटनामा	-3890
▁खस	-3891
यमा	-3892
▁करी	-3893
▁पशु	-3894
▁निरा	-3895
▁पर्याप्त	-3896
▁समुह	-3897
वाइ	-3898
भूति	-3899
▁तेल	-3900
र्ताको	-3901
▁हस्ताक्षर	-3902
▁प्रकारको	-3903
▁नजिकै	-3904
▁मिनेटमा	-3905
▁अप्र	-3906
▁थोरै	-3907
▁बिना	-3908
▁रक्त	-3909
▁बमोजिम	-3910
▁स्वार्थ	-3911
▁डिज	-3912
वार्य	-3913
नन्द	-3914
लुङ	-3915
▁प्रतिपक्ष	-3916
इरहेको	-3917
▁अनुहार	-3918
▁चीनको	-3919
▁ट्राफिक	-3920
▁थु	-3921
▁अनिवार्य	-3922
वेशन	-3923
▁विज्ञप्	-3924
▁तल	-3925
▁गुल्	-3926
बे	-3927
मार्ट	-3928
▁२०१८	-3929
▁युरोप	-3930
देख	-3931
द्र्धन	-3932
▁सञ्चालक	-3933
▁प्राथमिकता	-3934
सके	-3935
ह्रो	-3936
▁उपमहान	-3937
▁प्रदेशमा	-3938
ताब	-3939
▁मृत	-3940
▁इच्छा	-3941
▁पात्र	-3942
यद	-3943
▁पुस्ता	-3944
▁पुष्पकमल	-3945
▁विस्तृत	-3946
▁खानेपानी	-3947
▁नेपालीको	-3948
▁कमल	-3949
▁मानिन्छ	-3950
भित्रै	-3951
घु	-3952
▁छे	-3953
▁पदमा	-3954
▁मण्ड	-3955
▁पछाडि	-3956
▁अमेरिकामा	-3957
▁टाइ	-3958
▁केसीले	-3959
▁उत्पन्न	-3960
नुभएका	-3961
▁प्रजातन्त्र	-3962
▁नाच	-3963
▁२०४	-3964
शाखा	-3965
▁बताउनु	-3966
क्षम	-3967
्याउने	-3968
▁रक्षा	-3969
▁टाढा	-3970
▁p	-3971
▁छै	-3972
▁भक्तपुर	-3973
▁केन्द्रमा	-3974
नीको	-3975
▁भण्डारीले	-3976
▁मौसम	-3977
सहितको	-3978
▁तलब	-3979
▁सेत	-3980
▁हस्त	-3981
संख्या	-3982
▁घरेलु	-3983
▁छानबिन	-3984
▁काल	-3985
क्रा	-3986
▁खोजी	-3987
▁इट	-3988
▁)	-3989
▁रणनी	-3990
▁देवकोटा	-3991
▁लोकप्रिय	-3992
टीमा	-3993
▁महसुस	-3994
▁सचिवालय	-3995
व्यक्ति	-3996
टाइ	-3997
श्वास	-3998
▁नभएर	-3999
▁प्रसाद	-4000
▁तस्क	-4001
▁दर्शक	-4002
▁प्रतियोगिताको	-4003
▁बुझ्न	-4004
▁संस्थाले	-4005
▁यसो	-4006
▁बिका	-4007
▁परे	-4008
▁च्याम्प	-4009
ेदन	-4010
होला	-4011
वमा	-4012
▁जाँच	-4013
ाउको	-4014
गमा	-4015
▁देख्न	-4016
▁देखिने	-4017
▁पीडा	-4018
▁जीवनमा	-4019
▁शो	-4020
▁अपा	-4021
▁गीतमा	-4022
▁लाग्न	-4023
▁धन्य	-4024
▁बेलामा	-4025
स्को	-4026
▁बसो	-4027
स्टर	-4028
▁बाँच	-4029
▁म्याग्	-4030
कोण	-4031
▁मनाइ	-4032
▁अक्	-4033
▁फर	-4034
▁आएपछि	-4035
िमिटेड	-4036
▁बराबरको	-4037
▁बिदा	-4038
▁चुनावमा	-4039
▁औँ	-4040
▁उनीहरुलाई	-4041
▁अच	-4042
▁विपक्ष	-4043
▁कोरि	-4044
▁बाढी	-4045
▁मन्दि	-4046
▁खार	-4047
धिकार	-4048
▁विना	-4049
▁पाइने	-4050
वैधानिक	-4051
▁गराइ	-4052
▁म्यान	-4053
▁१९९	-4054
▁निधन	-4055
लार्इ	-4056
▁आउनु	-4057
▁यहाँका	-4058
▁मन्त्रिपरिषद्	-4059
▁लेखक	-4060
▁चाहिँ	-4061
▁कारवाही	-4062
िकार	-4063
▁साढे	-4064
▁सीमित	-4065
▁नगरपालिकाले	-4066
▁लाल	-4067
▁भन्सार	-4068
्युट	-4069
▁गाउ	-4070
▁पाइएको	-4071
▁प्रकाशन	-4072
▁दिला	-4073
▁लगातार	-4074
▁समाजको	-4075
र्घ	-4076
▁स्कुल	-4077
▁कांग्रेसका	-4078
▁शेरबहादुर	-4079
जसो	-4080
शासन	-4081
▁परिचालन	-4082
▁तोक	-4083
▁कम्तीमा	-4084
परा	-4085
न्थे	-4086
▁गरिरह	-4087
ाएका	-4088
▁आवास	-4089
▁व्यक्तिले	-4090
लागि	-4091
्याम	-4092
▁उपचारका	-4093
▁मिस	-4094
▁जनशक्ति	-4095
▁आयोजनाको	-4096
▁राजनीतिमा	-4097
▁संस्कार	-4098
▁जनसंख्या	-4099
▁क्य	-4100
▁एक्स	-4101
▁भरि	-4102
▁व्यवस्थित	-4103
बो	-4104
▁९०	-4105
▁उजुरी	-4106
▁उसलाई	-4107
▁कास्की	-4108
नलाई	-4109
▁जाति	-4110
▁यादवले	-4111
वार्ता	-4112
▁लगाए	-4113
▁तोकिएको	-4114
▁कानू	-4115
▁राज्यले	-4116
▁खेल्ने	-4117
▁एकल	-4118
▁बंगलादेश	-4119
▁कामको	-4120
▁लिमिटेड	-4121
▁प्रशिक्षण	-4122
व्या	-4123
सिन्दा	-4124
▁प्रसारण	-4125
▁निर्मा	-4126
▁भीम	-4127
▁Read	-4128
▁जुम्	-4129
▁यसबाट	-4130
▁वैज्ञानिक	-4131
▁निर्वाचनको	-4132
▁सवै	-4133
▁खुशी	-4134
▁कतार	-4135
▁केवल	-4136
▁घरको	-4137
▁दशैं	-4138
▁दिन्छ	-4139
म्स	-4140
▁असफल	-4141
▁महिनाको	-4142
▁प्रशिक्षक	-4143
▁कार्यक्रमका	-4144
खित	-4145
▁गुरुङले	-4146
▁प्रमाणपत्र	-4147
द्व	-4148
ब्य	-4149
▁बारे	-4150
▁माछा	-4151
▁थालेपछि	-4152
▁देखिएका	-4153
▁मेगावाट	-4154
भेद	-4155
्छन्	-4156
▁एनआर	-4157
बम	-4158
ंदै	-4159
तीको	-4160
▁गयो	-4161
▁सरस	-4162
▁माध्यमबाट	-4163
▁बनि	-4164
युद्ध	-4165
▁रहेर	-4166
नीमा	-4167
▁मासु	-4168
▁प्रवाह	-4169
▁समयदेखि	-4170
▁अप्	-4171
मावली	-4172
ाएर	-4173
▁नियु	-4174
हरुसँग	-4175
▁अवार्ड	-4176
▁पुराना	-4177
▁म्युजिक	-4178
▁बरु	-4179
▁भोट	-4180
▁निस्	-4181
▁निः	-4182
▁भएकी	-4183
डर	-4184
▁आह	-4185
▁बनाइएको	-4186
▁गर्छु	-4187
शेष	-4188
ितो	-4189
▁नागरिकता	-4190
ूट	-4191
माओ	-4192
▁बताउनुभएको	-4193
लोकन	-4194
▁पत्	-4195
▁संगठ	-4196
▁मुटु	-4197
▁अष्ट्रेलिया	-4198
▁लगाइ	-4199
▁उद्देश्यले	-4200
जनक	-4201
▁अवै	-4202
▁बहस	-4203
▁रमाइ	-4204
ईएको	-4205
▁नवल	-4206
▁निकट	-4207
▁पहाड	-4208
▁गरिनेछ	-4209
ियाली	-4210
▁आनन्द	-4211
▁याउने	-4212
▁त्रिभु	-4213
▁हज	-4214
▁चाहना	-4215
▁मुक्ति	-4216
▁लक्षित	-4217
▁रस	-4218
वर्ष	-4219
▁लामि	-4220
▁उता	-4221
▁रचना	-4222
▁परराष्ट्र	-4223
▁विमानस्थ	-4224
▁बर	-4225
▁सूच	-4226
▁नियुक्ति	-4227
▁आय	-4228
नाम	-4229
▁मेयर	-4230
▁अख्तियार	-4231
तु	-4232
सेवा	-4233
▁पर्दैन	-4234
▁संवैधानिक	-4235
मण	-4236
जाने	-4237
▁हप्ता	-4238
सै	-4239
▁सिमा	-4240
प्रमुख	-4241
▁पारेर	-4242
जन्य	-4243
▁व्यस्त	-4244
▁नम्ब	-4245
▁तीव्र	-4246
▁बस्ती	-4247
▁करीब	-4248
▁गरिब	-4249
▁जर्म	-4250
▁गाविस	-4251
▁द्वन्द्व	-4252
ट्या	-4253
▁बोकेर	-4254
ल्यान्ड	-4255
टीका	-4256
▁क्रियाकला	-4257
▁उड	-4258
▁भव	-4259
▁उत्र	-4260
▁क्यान्सर	-4261
▁महिलाले	-4262
खण्ड	-4263
▁पत्रकारि	-4264
▁मेस	-4265
र्खा	-4266
र्को	-4267
▁हिन्द	-4268
▁देखाएको	-4269
▁भ्रमणमा	-4270
लिया	-4271
िन्छ	-4272
▁गाह्रो	-4273
▁रोक्न	-4274
▁सकेका	-4275
▁चे	-4276
▁डर	-4277
ालका	-4278
▁एकीकृत	-4279
▁महाशाखा	-4280
▁भोग	-4281
द्रो	-4282
ियाँ	-4283
▁हुनसक्छ	-4284
त्वमा	-4285
▁निरन्तरता	-4286
▁साँच	-4287
▁खाद्य	-4288
▁बुटवल	-4289
▁पानीको	-4290
▁मूल्या	-4291
▁सरकारमा	-4292
▁नगरपालिकाका	-4293
▁पर्दा	-4294
▁फैसला	-4295
▁गायिका	-4296
▁विगतमा	-4297
▁त्रिभुवन	-4298
▁अर्य	-4299
▁पाठक	-4300
▁सफा	-4301
▁नामक	-4302
▁कसैलाई	-4303
▁समाजवादी	-4304
▁सङ्ख्या	-4305
झदारी	-4306
र्खेत	-4307
▁न्यौ	-4308
किलो	-4309
र्यो	-4310
▁लामिछा	-4311
▁दूध	-4312
▁आइपुग	-4313
▁सहायक	-4314
▁५५	-4315
▁दाहालले	-4316
▁चरि	-4317
▁अतिथि	-4318
बजार	-4319
▁होट	-4320
▁सेवन	-4321
▁व्यापक	-4322
▁पुगे	-4323
▁माटो	-4324
▁कुकुर	-4325
▁बिजु	-4326
हुन्थ्यो	-4327
▁मानिसको	-4328
▁कांग्रेसले	-4329
ानै	-4330
ृति	-4331
▁बताइन्	-4332
▁बोल्दै	-4333
फ्ट	-4334
▁संकेत	-4335
▁मनमा	-4336
▁रातो	-4337
▁बढ्दो	-4338
▁हिन्दु	-4339
▁महानि	-4340
▁सकिएको	-4341
▁अदालतमा	-4342
▁भुक्तानी	-4343
लिङ	-4344
▁आत	-4345
▁बेल्	-4346
▁हातमा	-4347
▁आदिवासी	-4348
▁यद्यपि	-4349
▁कार्यमा	-4350
▁तार	-4351
▁नारी	-4352
घर	-4353
टिल	-4354
▁मोटरसाइ	-4355
▁खतरा	-4356
▁ढंगले	-4357
▁दरबार	-4358
▁c	-4359
चु	-4360
भग	-4361
▁घुम्	-4362
▁सिने	-4363
▁निर्वाह	-4364
▁गुणस्तर	-4365
▁मञ्च	-4366
जय	-4367
▁खेलको	-4368
▁भर्खर	-4369
ानमा	-4370
▁दिशा	-4371
▁मधेसी	-4372
वहार	-4373
▁मात्रामा	-4374
▁प्रतिनिधित्व	-4375
चे	-4376
▁बित	-4377
▁असन्तु	-4378
▁सुर्खेत	-4379
वीर	-4380
▁सेमि	-4381
▁तहका	-4382
▁प्ला	-4383
▁रेग्	-4384
▁जनाले	-4385
▁वर्षसम्म	-4386
▁न्यौपा	-4387
▁राजदूत	-4388
▁जन्मि	-4389
ईन	-4390
▁प्रकृ	-4391
ईको	-4392
न्दे	-4393
▁बिता	-4394
▁टाउको	-4395
ुप्	-4396
▁सन्ध	-4397
▁जातीय	-4398
▁समयमै	-4399
▁रिय	-4400
ोत्त	-4401
▁लेखा	-4402
▁राख्नु	-4403
वनी	-4404
▁हुदै	-4405
नाल्	-4406
रै	-4407
▁गन्तव्य	-4408
र्दा	-4409
हरुबाट	-4410
▁संघको	-4411
▁भारतका	-4412
▁अध्यक्षतामा	-4413
▁रिपोर्ट	-4414
एँ	-4415
▁उपाय	-4416
बिर	-4417
पश्चिम	-4418
▁छुट्टै	-4419
▁दृष्टिकोण	-4420
फि	-4421
▁अग्	-4422
▁ग्राहक	-4423
▁यथार्थ	-4424
▁समुदायको	-4425
क्षी	-4426
▁रहन	-4427
द्योग	-4428
▁राईले	-4429
▁राजस्व	-4430
मय	-4431
▁निर्मला	-4432
▁क्रमश	-4433
▁रौ	-4434
▁कोठ	-4435
▁पसल	-4436
▁चालक	-4437
▁चौधरी	-4438
▁बेर	-4439
▁उपकरण	-4440
ंगी	-4441
▁गर्दछन्	-4442
ुट्टा	-4443
लिज	-4444
▁प्रदेशका	-4445
ब्जा	-4446
▁कञ्चनपुर	-4447
सामा	-4448
प्पणी	-4449
स्तरीय	-4450
्याउन	-4451
▁बाबुराम	-4452
▁लागिएको	-4453
▁स्मार्ट	-4454
▁सृ	-4455
▁रमेश	-4456
शाला	-4457
▁माल	-4458
▁विष्णु	-4459
र्छ	-4460
▁गित	-4461
ध्यापक	-4462
▁लगानीकर्ता	-4463
▁उन्	-4464
▁सालको	-4465
▁खटि	-4466
▁कुट	-4467
▁सिक	-4468
▁व्यक्तिलाई	-4469
ing	-4470
र्चु	-4471
▁इन्टरनेट	-4472
▁द्	-4473
▁आफैँ	-4474
▁विधान	-4475
▁गृहमन्त्री	-4476
▁गराएका	-4477
स्यौ	-4478
▁सुत्	-4479
▁कसैको	-4480
लिन	-4481
राइ	-4482
जनको	-4483
▁लिइ	-4484
▁खासै	-4485
▁त्यतिबेला	-4486
▁देशभर	-4487
▁राजपा	-4488
ाउनुपर्ने	-4489
▁विभा	-4490
▁किसिमको	-4491
▁टी	-4492
▁विभागका	-4493
परी	-4494
नाका	-4495
स्ने	-4496
▁अवि	-4497
▁चाँड	-4498
▁देउवाले	-4499
▁एफ	-4500
▁डेढ	-4501
▁खोजेको	-4502
▁विधा	-4503
▁ब्याज	-4504
रोधी	-4505
▁केश	-4506
▁मद्द	-4507
▁गीतको	-4508
▁सर्वा	-4509
▁संक्रमण	-4510
▁संस्थाका	-4511
▁आगो	-4512
▁पर्ख	-4513
म्बिनी	-4514
गण	-4515
▁डुब	-4516
▁साउदी	-4517
▁भाषामा	-4518
गल	-4519
▁रुपियाँ	-4520
यनको	-4521
श्रो	-4522
▁भ्या	-4523
▁पराम	-4524
ेमी	-4525
कालमा	-4526
▁कपडा	-4527
▁एमालेका	-4528
▁पेट्रोल	-4529
▁विद्युत	-4530
गन्ज	-4531
▁चिकित्सा	-4532
ँस	-4533
▁परम	-4534
▁नाफा	-4535
▁कार्यालयको	-4536
▁संस्थागत	-4537
्लो	-4538
▁निःशुल्क	-4539
▁उभि	-4540
▁हेट	-4541
▁छोटो	-4542
▁विजेता	-4543
▁मैदानमा	-4544
▁सहयोगी	-4545
▁टिकट	-4546
▁नुवा	-4547
le	-4548
▁मारि	-4549
▁साथमा	-4550
▁बालुवा	-4551
▁हेर्नु	-4552
▁गाउँपालिकाको	-4553
ौल	-4554
प्ले	-4555
▁दुर्गा	-4556
▁छौ	-4557
▁दिल्ली	-4558
▁आधारभूत	-4559
▁अल्	-4560
जत	-4561
▁मन्त्रालयको	-4562
उड	-4563
▁नगरेको	-4564
▁लगाएका	-4565
▁गतेदेखि	-4566
▁ओलीको	-4567
▁निवास	-4568
▁सम्मा	-4569
पात	-4570
िको	-4571
▁३६	-4572
▁मेट	-4573
▁हावा	-4574
▁विक्र	-4575
▁बनाउनु	-4576
पत्रमा	-4577
▁प्रचण्डले	-4578
▁मनोर	-4579
▁नदिने	-4580
▁मतदाता	-4581
▁संस्	-4582
▁निर्यात	-4583
▁लुम्बिनी	-4584
▁घटनामा	-4585
न्नु	-4586
▁वेब	-4587
संस्था	-4588
▁छाप	-4589
▁उम्मेदवारी	-4590
रहने	-4591
▁ठीक	-4592
ब्र	-4593
ेवार	-4594
▁ग्या	-4595
▁चन्द	-4596
▁चेता	-4597
प्टर	-4598
लाग्	-4599
नैतिक	-4600
▁फोहोर	-4601
▁दायित्व	-4602
▁नरेन्द्र	-4603
▁नृत्य	-4604
▁पढ्नु	-4605
▁सापको	-4606
▁प्रकारका	-4607
▁आयोगको	-4608
▁पठाउने	-4609
मीको	-4610
▁लागु	-4611
▁खारेज	-4612
▁वर्षका	-4613
वादको	-4614
▁मस्यौ	-4615
ha	-4616
▁नरहेको	-4617
▁वृद्ध	-4618
▁परामर्श	-4619
▁विश्लेषण	-4620
▁नराम	-4621
▁भागमा	-4622
▁मिश्र	-4623
▁पुष्टि	-4624
▁एनआरएन	-4625
▁समितिमा	-4626
▁बैं	-4627
▁स्कु	-4628
▁सापकोटा	-4629
▁मी	-4630
▁कुर	-4631
▁पहाडी	-4632
▁सुनिश्चित	-4633
▁सधैं	-4634
▁टेलिभिजन	-4635
▁उपमहानगरपालिका	-4636
▁दर्शन	-4637
▁दिनुपर्ने	-4638
औं	-4639
▁भट्टराईले	-4640
▁हल	-4641
नुपा	-4642
ड्ने	-4643
▁एण्ड	-4644
▁त्या	-4645
▁विनियोजन	-4646
▁पुनर्निर्माण	-4647
हरी	-4648
▁मधेशी	-4649
▁एजेन्सी	-4650
▁तरिकाले	-4651
ग्राही	-4652
▁मजदुर	-4653
▁औद्योग	-4654
▁रेक	-4655
▁पढाइ	-4656
रेको	-4657
▁चिसो	-4658
▁लगभग	-4659
▁बाहिरि	-4660
▁आपूर्ति	-4661
ंख	-4662
प्रा	-4663
▁नाय	-4664
▁बेल	-4665
▁विव	-4666
▁सिक्	-4667
▁बेलु	-4668
▁कान्ति	-4669
▁मस्यौदा	-4670
▁निष्कर्ष	-4671
▁Ne	-4672
मल	-4673
▁खोला	-4674
▁तारि	-4675
भक्त	-4676
▁अलग	-4677
▁बनाए	-4678
▁समाजका	-4679
▁इन्जिनि	-4680
▁बासिन्दा	-4681
▁साध	-4682
▁घटनाको	-4683
▁काठमाडौंको	-4684
▁क्षेत्रलाई	-4685
▁स्वर	-4686
▁खालको	-4687
▁दुइ	-4688
▁हैसिय	-4689
▁नसक्दा	-4690
▁प्रतिवेद	-4691
फोन	-4692
▁तनाव	-4693
▁समानुपा	-4694
चाइ	-4695
▁बाटोमा	-4696
ईमा	-4697
धारणा	-4698
▁प्ले	-4699
▁नभएका	-4700
▁यहाँको	-4701
िए	-4702
▁यहि	-4703
▁जसलाई	-4704
▁रह्यो	-4705
▁जस	-4706
▁थाल्यो	-4707
▁उपलब्धि	-4708
यान	-4709
▁प्रेर	-4710
▁मल	-4711
▁खेल्न	-4712
▁प्रकृति	-4713
▁पाई	-4714
▁आकाश	-4715
▁ढोका	-4716
▁जोडिएको	-4717
▁सेमिफाइ	-4718
▁आउँदा	-4719
▁शाक्य	-4720
▁मनाउने	-4721
▁रमाइलो	-4722
▁सत्	-4723
▁बुबा	-4724
▁राजीनामा	-4725
▁काठमाण्डौ	-4726
▁ग्रहण	-4727
▁लामिछाने	-4728
▁हतियार	-4729
▁भित्र्या	-4730
▁महिलालाई	-4731
ाइन	-4732
st	-4733
▁सके	-4734
▁आवेदन	-4735
▁काठमाडौ	-4736
▁समृद्धिको	-4737
▁सल	-4738
▁त्र	-4739
रिक्त	-4740
ंकर	-4741
▁हजुर	-4742
स्ति	-4743
▁भुट	-4744
▁मामिला	-4745
▁वृ	-4746
▁ठेक	-4747
▁कुराको	-4748
▁ठो	-4749
▁एन्	-4750
▁एमालेले	-4751
बाद	-4752
▁जहाज	-4753
नेन्द्र	-4754
▁प्रष्ट	-4755
▁लागेर	-4756
▁टिप्पणी	-4757
▁धन्यवाद	-4758
न्देही	-4759
▁बिस्तार	-4760
▁अन्तराष्ट्रिय	-4761
्वान	-4762
▁वर्षे	-4763
▁स्वयं	-4764
सेव	-4765
▁क्रो	-4766
▁बढाएको	-4767
▁समानुपातिक	-4768
▁प्रधानमन्त्रीको	-4769
बाबु	-4770
▁पुग्यो	-4771
न्यास	-4772
▁कार्ड	-4773
▁भगवान	-4774
▁खुल्ला	-4775
▁न्यौपाने	-4776
▁अभिव्यक्ति	-4777
▁चाम	-4778
▁धनी	-4779
▁जोड्ने	-4780
▁सन	-4781
▁निवेदन	-4782
▁बुद्धि	-4783
▁सभामुख	-4784
▁देखी	-4785
▁गोपाल	-4786
▁चलाउन	-4787
▁नागरिकको	-4788
▁प्रशास	-4789
▁प्रबन्ध	-4790
▁परिवारको	-4791
सल	-4792
वद्ध	-4793
▁दूतावास	-4794
▁दुरुपयोग	-4795
▁सहि	-4796
▁फ्रान्स	-4797
▁समझदारी	-4798
▁राजेन्द्र	-4799
▁फेरी	-4800
▁गर्यो	-4801
▁देखेर	-4802
▁बसोबास	-4803
▁हिन्दू	-4804
▁तपाईंले	-4805
दिएको	-4806
कुरा	-4807
▁चेतावनी	-4808
▁उनीहरूलाई	-4809
ent	-4810
▁कन्	-4811
▁चलेको	-4812
▁अतिरिक्त	-4813
र्मी	-4814
▁जनजाति	-4815
ियत	-4816
▁प्रक्रियामा	-4817
▁वर्षपछि	-4818
▁मोदी	-4819
▁शुरू	-4820
▁तयारीमा	-4821
▁ग्रामी	-4822
▁विश्वका	-4823
उमा	-4824
सीमा	-4825
▁शंका	-4826
▁बहुमत	-4827
माओवादी	-4828
▁कार्यान्वयनमा	-4829
िनो	-4830
▁गतेसम्म	-4831
▁परम्परागत	-4832
▁सल्लाहकार	-4833
न्डै	-4834
ेलले	-4835
▁दीर्घ	-4836
▁ललितपुर	-4837
▁प्रधानन्या	-4838
तक	-4839
ौट	-4840
▁मोह	-4841
▁दावी	-4842
▁कमजो	-4843
▁पञ्चा	-4844
▁डिभिजन	-4845
▁प्रोत्	-4846
▁उदय	-4847
▁रुकु	-4848
▁पृष्ठ	-4849
यौँ	-4850
▁ग्रामीण	-4851
▁कर्मचारीको	-4852
▁तीज	-4853
एक	-4854
▁जलविद्युत्	-4855
▁प्रारम्भिक	-4856
▁लाइन	-4857
▁आन्दोलनमा	-4858
मुखी	-4859
▁कित्	-4860
▁दृश्य	-4861
▁विकसित	-4862
ालीको	-4863
एसपी	-4864
▁शारी	-4865
▁सक्षम	-4866
▁राना	-4867
▁यसपटक	-4868
▁आरोपमा	-4869
▁विषयलाई	-4870
▁अस्ति	-4871
▁हुँदैछ	-4872
▁रोप	-4873
▁हवाई	-4874
रिङ	-4875
न्थी	-4876
काउने	-4877
▁बनाई	-4878
▁किताब	-4879
▁प्रोत्सा	-4880
▁खनाल	-4881
▁गर्भ	-4882
▁विज्ञा	-4883
▁लिए	-4884
▁पूर्वी	-4885
▁अवधारणा	-4886
थ्य	-4887
▁दीपक	-4888
▁साहित्यकार	-4889
हिता	-4890
▁चल्	-4891
▁प्रतिशतले	-4892
वडा	-4893
▁बोल्	-4894
▁प्रिय	-4895
▁खुट्टा	-4896
▁सम्वन्ध	-4897
▁संघले	-4898
▁छात्र	-4899
▁पशुपति	-4900
▁६५	-4901
▁कठिन	-4902
▁बेल्ज	-4903
व्	-4904
पुग्	-4905
▁जागिर	-4906
ात	-4907
पल्ट	-4908
▁केटा	-4909
▁झन्डै	-4910
न्टा	-4911
▁पुर्व	-4912
क्सन	-4913
जनमा	-4914
▁२०१७	-4915
▁बैशाख	-4916
▁अर्जुन	-4917
▁आकर्षण	-4918
शै	-4919
पोख	-4920
कका	-4921
▁ठहर	-4922
▁विशि	-4923
▁मद्दत	-4924
ण्ट	-4925
▁चेक	-4926
▁पोखरेलले	-4927
▁मुद्दामा	-4928
▁इन	-4929
त्मा	-4930
▁आकार	-4931
▁खोटा	-4932
▁कप्ता	-4933
▁च्याम्पियन	-4934
▁ध्य	-4935
गि	-4936
दीप	-4937
▁चलचित्रमा	-4938
▁शारीरिक	-4939
▁औद्योगिक	-4940
ब्बा	-4941
▁जनाइएको	-4942
▁भइरहेका	-4943
डको	-4944
हरूसँग	-4945
▁जीवनको	-4946
भूमि	-4947
▁मासिक	-4948
....	-4949
▁अनौ	-4950
▁अगुवा	-4951
▁प्रतिभा	-4952
▁सम्पादन	-4953
▁खण्डमा	-4954
▁सन्तोष	-4955
▁सञ्चालित	-4956
▁कदम	-4957
▁सायद	-4958
▁नवलपरा	-4959
▁सघ	-4960
▁जडान	-4961
▁पुग्	-4962
▁भाडा	-4963
▁बर्दि	-4964
▁भत्ता	-4965
▁ठेक्का	-4966
▁दोश्रो	-4967
▁गहि	-4968
▁चोरी	-4969
▁तै	-4970
▁आह्वान	-4971
▁नायिका	-4972
▁पठाएको	-4973
यले	-4974
गरमाथा	-4975
रिव	-4976
नीले	-4977
▁इलाका	-4978
▁निर्माता	-4979
▁नोट	-4980
▁रहन्छ	-4981
▁कल्पना	-4982
▁नेपालीले	-4983
▁नगरपालिकामा	-4984
नुपर्दछ	-4985
▁थालिएको	-4986
▁शक्तिशाली	-4987
▁दिनसम्म	-4988
▁प्रती	-4989
▁तस्बिर	-4990
▁माथिल्लो	-4991
▁देखियो	-4992
▁जटिल	-4993
क्सा	-4994
▁अफि	-4995
▁हुनेछन्	-4996
▁नया	-4997
▁देवी	-4998
▁अवैध	-4999
▁त्यसरी	-5000
▁केन्द्रले	-5001
दैनन्	-5002
▁ल्याइ	-5003
▁माध	-5004
ारण	-5005
▁लुट	-5006
७५	-5007
▁चीनले	-5008
▁विभेद	-5009
ुङ	-5010
▁दीप	-5011
▁बरा	-5012
▁चरित्र	-5013
▁गठबन्धन	-5014
▁सिम	-5015
▁सन्तुल	-5016
▁सगरमाथा	-5017
▁काभ	-5018
▁मोहन	-5019
▁स्मरण	-5020
▁उपरीक्षक	-5021
▁सक्नु	-5022
▁आकर्षक	-5023
▁ठेकेदार	-5024
▁केन्द्रको	-5025
▁तब	-5026
▁जिम्मेवार	-5027
चाहि	-5028
स्वा	-5029
▁क्रि	-5030
▁पद्ध	-5031
▁समी	-5032
▁विहान	-5033
▁कुरालाई	-5034
प्रपा	-5035
▁गरिन्	-5036
▁हल्ला	-5037
▁मिल्ने	-5038
▁कार्यसमिति	-5039
प्ने	-5040
▁आयु	-5041
▁रेख	-5042
प्रधानमन्त्री	-5043
टार	-5044
▁खेल्	-5045
▁बिराम	-5046
▁सकिनेछ	-5047
▁बाध्यता	-5048
गन	-5049
▁अश	-5050
▁टोल	-5051
▁हाउ	-5052
▁खुवा	-5053
▁खति	-5054
▁इन्ड	-5055
▁कृति	-5056
▁टिका	-5057
▁अवरोध	-5058
▁परिषद	-5059
▁३४	-5060
▁तिम्रो	-5061
▁राख्दै	-5062
▁संख्यामा	-5063
मुना	-5064
याली	-5065
धै	-5066
दूर	-5067
▁समयको	-5068
▁बचत	-5069
▁मल्	-5070
ेदारी	-5071
▁घिमिरे	-5072
▁नेताहरु	-5073
▁चलाउने	-5074
▁सिन्धु	-5075
▁रहेकाले	-5076
▁अभियानमा	-5077
▁201	-5078
ग्राम	-5079
▁पाण्डे	-5080
▁बस्नेत	-5081
▁समूहले	-5082
▁प्रवद्र्धन	-5083
▁गल्ती	-5084
ed	-5085
बुझ	-5086
▁मदन	-5087
▁ह्या	-5088
▁हृ	-5089
▁बाढ	-5090
बहिनी	-5091
▁रोकि	-5092
▁सामना	-5093
▁एकीकरण	-5094
▁गर्नुहोस्	-5095
▁चर	-5096
▁मक	-5097
▁नुवाकोट	-5098
▁सदस्यीय	-5099
स्टेक	-5100
▁हेरेर	-5101
हिक	-5102
▁पाउनु	-5103
▁सेनाको	-5104
▁पोखरामा	-5105
ँदैछ	-5106
▁उत्साह	-5107
▁जितेको	-5108
दृ	-5109
जाल	-5110
▁चोक	-5111
▁शता	-5112
▁चल्ने	-5113
▁बहिनी	-5114
▁खतिवडा	-5115
▁संस्थान	-5116
▁परिवारका	-5117
ँु	-5118
▁प्रकट	-5119
▁ज्ञानेन्द्र	-5120
▁खाली	-5121
सिद्ध	-5122
▁ल्याएर	-5123
▁सहभागि	-5124
मूलक	-5125
▁श्रो	-5126
व्यापी	-5127
▁उत्तिकै	-5128
टीको	-5129
▁धनु	-5130
▁खर्ब	-5131
▁राप्रपा	-5132
▁अन्नपूर्ण	-5133
▁प्य	-5134
▁स्वस्थ	-5135
▁प्राधिकरणले	-5136
भाष	-5137
क्ष्	-5138
▁यतिबेला	-5139
▁क्रियाकलाप	-5140
▁कपि	-5141
▁चालु	-5142
▁सडकको	-5143
▁विद्रो	-5144
▁मदि	-5145
▁अप्ठ	-5146
▁नपाउने	-5147
ङ्गो	-5148
▁काँ	-5149
▁धरान	-5150
▁छोराछ	-5151
▁टेलिक	-5152
▁कांग्रेसको	-5153
▁दाइ	-5154
▁सुरुवात	-5155
▁नकारात्मक	-5156
▁सूची	-5157
▁व्यक्तित्व	-5158
चोक	-5159
▁गरिसकेका	-5160
▁रेकर्ड	-5161
▁मर्मत	-5162
नेका	-5163
▁जमा	-5164
▁अबको	-5165
▁फिल्ममा	-5166
▁विशेषज्ञ	-5167
▁प्रधानमन्त्रीले	-5168
शल	-5169
्रिक	-5170
▁चौकी	-5171
▁छाया	-5172
्रेजी	-5173
▁परिवारलाई	-5174
▁शू	-5175
शास्त्र	-5176
▁महानगर	-5177
▁सेवामा	-5178
▁w	-5179
▁असह	-5180
▁रहनु	-5181
▁संवाद	-5182
▁स्वीकृत	-5183
▁३७	-5184
▁माझ	-5185
▁सद्	-5186
▁तारा	-5187
पान्तरण	-5188
ढु	-5189
दीले	-5190
▁भरतपुर	-5191
▁अत्यधिक	-5192
▁टेक	-5193
▁पेस	-5194
▁बिजुली	-5195
ंदा	-5196
▁जंग	-5197
▁कर्त	-5198
िरहेको	-5199
▁योग्य	-5200
नुभन्दा	-5201
▁विशिष्ट	-5202
लास	-5203
▁बिज	-5204
▁बिग्र	-5205
▁प्रधानन्यायाधीश	-5206
▁नवी	-5207
▁सेन्टर	-5208
ह्	-5209
▁आएकी	-5210
▁कार्कीले	-5211
▁३८	-5212
▁जात	-5213
▁क्यान	-5214
▁मुद्रा	-5215
▁सिनेमा	-5216
▁प्रमाणित	-5217
एमा	-5218
काइ	-5219
▁केन्द्रिय	-5220
ौली	-5221
▁दफा	-5222
▁सीप	-5223
▁गोर्खा	-5224
▁नाइ	-5225
▁आयोगका	-5226
▁स्वतन्त्रता	-5227
▁युवती	-5228
▁पुग्छ	-5229
▁धर	-5230
▁यम	-5231
उँछन्	-5232
▁पाल्	-5233
▁बाँड	-5234
ङ्गल	-5235
▁लागे	-5236
▁श्रीमा	-5237
नेपाल	-5238
▁चक्र	-5239
▁दियो	-5240
ोषण	-5241
बन्द	-5242
▁अस्था	-5243
▁ब्यक्ति	-5244
▁शिक्षाको	-5245
▁तल्लो	-5246
▁सस्तो	-5247
प्रतिको	-5248
याम	-5249
ुरे	-5250
गाउँ	-5251
▁आमाको	-5252
▁इन्द्र	-5253
▁कार्यविधि	-5254
यती	-5255
सिए	-5256
▁५१	-5257
▁गराउ	-5258
▁तिनै	-5259
▁याउन	-5260
▁लिखित	-5261
▁संस्करण	-5262
▁अंश	-5263
▁कैद	-5264
नीतिक	-5265
▁शिक्षण	-5266
सिना	-5267
▁सहितको	-5268
▁आकर्षित	-5269
▁केसीको	-5270
पिट	-5271
हीँ	-5272
ञ्जन	-5273
▁शैली	-5274
▁तारिख	-5275
▁कम्प्युट	-5276
लिम	-5277
ुक्त	-5278
कर्षण	-5279
वृद्धि	-5280
▁मात्रा	-5281
▁दलले	-5282
िरहेका	-5283
▁उपभोग	-5284
▁उपहार	-5285
▁पक्कै	-5286
▁स्थिर	-5287
▁खनालले	-5288
स्फ	-5289
▁रुख	-5290
▁सम्पदा	-5291
टाएर	-5292
मण्ड	-5293
▁माध्य	-5294
गाई	-5295
▁गोप	-5296
▁कोठा	-5297
▁खडा	-5298
सक्यो	-5299
▁थारु	-5300
▁किनकि	-5301
▁चर्चामा	-5302
▁पहिलोपटक	-5303
रल	-5304
राव	-5305
▁संयन्त्र	-5306
▁थिएनन्	-5307
▁संसदमा	-5308
▁श्रील	-5309
ालु	-5310
▁मोटरसाइकल	-5311
जात	-5312
▁थान	-5313
▁कसले	-5314
▁छनौट	-5315
▁सेनाले	-5316
▁राजनैतिक	-5317
ल्स	-5318
▁चाँ	-5319
▁उमेरमा	-5320
▁अभिभावक	-5321
▁नेपालबाट	-5322
षि	-5323
▁थपि	-5324
योग्य	-5325
▁नलाग	-5326
▁रिलिज	-5327
▁विद्यालयको	-5328
▁दशैँ	-5329
▁महत्त्वपूर्ण	-5330
क्सि	-5331
▁धादि	-5332
▁पेशा	-5333
▁ब्रि	-5334
▁बाँध	-5335
▁संविधानले	-5336
▁युए	-5337
दरबार	-5338
▁जन्मा	-5339
▁बन्यो	-5340
खन	-5341
हाले	-5342
▁घाटा	-5343
▁बस्दै	-5344
▁सन्तान	-5345
याको	-5346
▁ल्याइएको	-5347
▁क्षेत्रबाट	-5348
▁अलिक	-5349
▁माधव	-5350
▁खोज्ने	-5351
खेर	-5352
▁मातृ	-5353
▁दिनुभएको	-5354
▁प्रय	-5355
▁म्याद	-5356
▁स्टार	-5357
र्प	-5358
▁जोश	-5359
▁स्क	-5360
▁दिगो	-5361
▁दिनदेखि	-5362
काउन	-5363
स्वर	-5364
▁रहेछन्	-5365
▁बढेर	-5366
▁रहि	-5367
▁सिरि	-5368
▁ओभ	-5369
▁बसि	-5370
▁स्ना	-5371
▁भिन्न	-5372
▁आधिका	-5373
▁जानुप	-5374
▁मकवान	-5375
▁न्यूनतम	-5376
▁शरीरमा	-5377
▁तथ्याङ्क	-5378
वत्	-5379
शिल	-5380
▁काठ	-5381
▁मिल	-5382
▁जोडी	-5383
▁मोडल	-5384
▁नक्क	-5385
▁हेरि	-5386
▁अन्तरि	-5387
▁स्वरुप	-5388
▁जुनसुकै	-5389
▁भिडियोमा	-5390
▁राखी	-5391
▁युनियन	-5392
▁श्रमिक	-5393
▁सम्बन्धि	-5394
दायी	-5395
ण्डित	-5396
▁नेप्	-5397
▁भेटघाट	-5398
▁लागत	-5399
श्रमिक	-5400
▁समूहको	-5401
▁अदालतको	-5402
▁अंग्रेजी	-5403
▁४२	-5404
▁घटेको	-5405
▁अभिनेत्री	-5406
▁शरण	-5407
▁बनेर	-5408
आफ	-5409
वान्	-5410
रहँदा	-5411
▁निकु	-5412
▁अवलोकन	-5413
▁श्रे	-5414
▁कृषक	-5415
▁पछ	-5416
धारा	-5417
▁आन्दोलनको	-5418
▁माओवादीले	-5419
नोद	-5420
▁४८	-5421
▁ज्यो	-5422
▁नायक	-5423
▁सवाल	-5424
ैमा	-5425
ेलको	-5426
▁काली	-5427
▁पूँजी	-5428
कुमारी	-5429
▁दुर्ग	-5430
ानामा	-5431
▁अस्वी	-5432
▁नक्कली	-5433
▁एच	-5434
▁संचार	-5435
▁देशलाई	-5436
▁वास्तवमा	-5437
▁ब्राजि	-5438
▁श्रेष्ठको	-5439
सत	-5440
िकरण	-5441
▁बेप	-5442
▁गिरी	-5443
▁संस्थापक	-5444
▁चलचित्रको	-5445
छन	-5446
▁लघु	-5447
▁शुक्	-5448
▁सेवाको	-5449
ित्तिकै	-5450
ेसँग	-5451
▁नियमावली	-5452
▁सजिलै	-5453
▁प्रतिबन्ध	-5454
▁घट्	-5455
▁स्तर	-5456
रूपमा	-5457
▁तपाइँ	-5458
▁म्याग्दी	-5459
▁आख	-5460
▁पक्षले	-5461
मला	-5462
▁सँ	-5463
▁मधु	-5464
▁धितो	-5465
पीडित	-5466
▁कोइरालाले	-5467
▁कर्मचारीलाई	-5468
▁जरिव	-5469
▁पोष्ट	-5470
▁गाउँपालिकाका	-5471
▁जनयुद्ध	-5472
▁प्रविधिको	-5473
वती	-5474
▁खाता	-5475
▁भाषण	-5476
डीले	-5477
▁लडा	-5478
▁अवरुद्ध	-5479
उदै	-5480
▁१००	-5481
▁नष्ट	-5482
▁साझेदारी	-5483
ोस्	-5484
▁एकद	-5485
▁लैजाने	-5486
▁सर्वाधिक	-5487
▁वी	-5488
▁लैजान	-5489
▁सरोकारवाला	-5490
प्ट	-5491
विहीन	-5492
▁नपर्ने	-5493
▁गजल	-5494
▁फलफ	-5495
▁भाउ	-5496
▁छाडेर	-5497
▁प्राप्	-5498
▁होम	-5499
▁रहनेछ	-5500
▁नेताले	-5501
कल्प	-5502
पर्छ	-5503
▁किम	-5504
▁बिदेश	-5505
▁उहाँलाई	-5506
ag	-5507
▁बिशेष	-5508
▁परिवारले	-5509
ंग्	-5510
▁जै	-5511
▁विसं	-5512
▁समस्याको	-5513
▁प्रयोगकर्ता	-5514
▁बन	-5515
थर	-5516
धीन	-5517
वानी	-5518
संगै	-5519
▁हिँ	-5520
▁नागरिकलाई	-5521
▁अफग	-5522
▁सरुवा	-5523
▁कमजोरी	-5524
▁ध्याना	-5525
▁हौ	-5526
्यमा	-5527
वारिक	-5528
▁गरौं	-5529
▁कान्छ	-5530
▁अस्थायी	-5531
▁पछिल्ला	-5532
▁विच	-5533
पेक्ष	-5534
ेसी	-5535
▁एल	-5536
▁सेट	-5537
▁जरिवाना	-5538
▁पदक	-5539
▁रनको	-5540
▁२०१६	-5541
▁प्रिम	-5542
▁मानवीय	-5543
▁सुरुमा	-5544
▁चलिरहेको	-5545
फे	-5546
दिए	-5547
▁बिकास	-5548
▁जनताका	-5549
▁लेखिएको	-5550
▁खिच	-5551
▁विद्युतीय	-5552
▁निजाम	-5553
▁बेपत्ता	-5554
ह्र	-5555
न्ता	-5556
हत्या	-5557
▁शिखर	-5558
▁काउन्	-5559
▁संवेदन	-5560
भल	-5561
मका	-5562
▁थाइ	-5563
लागी	-5564
िल्ली	-5565
▁राजधानीमा	-5566
जीको	-5567
▁ध्व	-5568
▁गौरव	-5569
▁यिनी	-5570
▁अरब	-5571
क्रममा	-5572
▁आफुले	-5573
▁हटाउन	-5574
ट्टै	-5575
▁पढ्ने	-5576
▁बागलुङ	-5577
▁माध्यमिक	-5578
▁ग्राम	-5579
▁कानूनी	-5580
▁राम्रा	-5581
▁अधिकारको	-5582
▁हुनसक्ने	-5583
▁भारतबाट	-5584
▁रुपन्देही	-5585
▁विद्यार्थीको	-5586
▁अनुभूति	-5587
▁क्रान्तिकारी	-5588
▁वर	-5589
▁प्रकरण	-5590
▁सूचीमा	-5591
▁स्वर्ग	-5592
कां	-5593
▁गर्थे	-5594
▁तुलसी	-5595
▁लगाइएको	-5596
▁तोकेको	-5597
सङ्घ	-5598
▁मावि	-5599
▁शासक	-5600
▁अस्ट्र	-5601
▁कित्ता	-5602
▁साहित्यिक	-5603
बासी	-5604
▁किरण	-5605
▁रसुवा	-5606
▁क्रमशः	-5607
▁बैंकका	-5608
▁दान	-5609
▁ब्यवस्था	-5610
त्तर	-5611
▁जोशी	-5612
सम्मका	-5613
▁चित्त	-5614
▁अभियोग	-5615
▁चितव	-5616
▁भर्खरै	-5617
▁नराम्रो	-5618
ेँ	-5619
र्ना	-5620
▁कोठामा	-5621
▁स्वच्छ	-5622
▁पूरै	-5623
▁लिनु	-5624
▁हुन्न	-5625
▁मुलुकका	-5626
as	-5627
▁हल्	-5628
▁बिहे	-5629
▁एकपटक	-5630
▁संघीयता	-5631
ब्ब	-5632
ूहिक	-5633
पन्थी	-5634
निर्भर	-5635
▁खुलेको	-5636
▁अत्यन्तै	-5637
▁स्वर्ण	-5638
षाध्यक्ष	-5639
▁पाकिस्तान	-5640
▁हस्तक्षेप	-5641
▁युग	-5642
▁कर्मचारीले	-5643
▁विज्ञापन	-5644
भरी	-5645
▁लम	-5646
▁युट	-5647
▁डिजाइन	-5648
▁बजेसम्म	-5649
▁बुवा	-5650
▁देखाउन	-5651
▁साँच्च	-5652
▁महाधिवेशन	-5653
▁संविधानमा	-5654
ख्य	-5655
▁तन	-5656
▁नमा	-5657
▁एकदमै	-5658
▁देखिन	-5659
▁समाप्त	-5660
▁मन्दिरमा	-5661
▁गुणस्तरीय	-5662
आमा	-5663
▁सिद्ध	-5664
▁समयसम्म	-5665
ur	-5666
घरमा	-5667
▁फुटब	-5668
▁बारा	-5669
▁तपाईको	-5670
▁पार्टीमा	-5671
▁स्वीकृति	-5672
▁पारिवारिक	-5673
ङ्ग्रेस	-5674
धर	-5675
टका	-5676
▁re	-5677
डाको	-5678
र्की	-5679
र्पण	-5680
▁खालका	-5681
▁संग्रह	-5682
▁पारिश्रमिक	-5683
▁हकमा	-5684
▁सामूहिक	-5685
३०	-5686
जुङ	-5687
▁पला	-5688
▁वायु	-5689
कता	-5690
वरी	-5691
तन	-5692
वित	-5693
च्या	-5694
▁कालि	-5695
▁महँग	-5696
▁गुल्मी	-5697
▁समारोहमा	-5698
पर्व	-5699
▁गुट	-5700
▁पति	-5701
▁फाउ	-5702
▁जिन्द	-5703
▁कारा	-5704
गरीय	-5705
▁बाम	-5706
▁नपुग	-5707
▁ठाकुर	-5708
▁विवेक	-5709
▁सभामा	-5710
▁त्यसकारण	-5711
▁अपहरण	-5712
▁देखिए	-5713
▁मही	-5714
▁पुग्दा	-5715
धारित	-5716
र्दिक	-5717
▁हङकङ	-5718
पालिकाको	-5719
▁निकुञ्ज	-5720
पले	-5721
▁कूट	-5722
▁कप्तान	-5723
▁मुस्ता	-5724
▁कौ	-5725
यरको	-5726
वस्तु	-5727
माध्यम	-5728
▁उन्न	-5729
▁बिद्य	-5730
लिस	-5731
▁धनगढी	-5732
▁दुईवटा	-5733
गित	-5734
▁नु	-5735
▁दिई	-5736
▁गिरि	-5737
▁रानी	-5738
▁सत्त	-5739
▁तोड	-5740
▁रवि	-5741
स्सा	-5742
पार्क	-5743
▁गंगा	-5744
▁ध्यानाकर्षण	-5745
क्की	-5746
▁दरले	-5747
▁चाहन्छु	-5748
▁विश्वमा	-5749
▁कुरो	-5750
▁छोराछोरी	-5751
▁कार्यक्रमलाई	-5752
▁बृह	-5753
▁पोस्ट	-5754
▁भन्यो	-5755
▁किसिमका	-5756
▁समीक्षा	-5757
▁सरकारसँग	-5758
▁प्राथमिकतामा	-5759
▁जगत	-5760
योर्क	-5761
▁महतो	-5762
▁तपाईँ	-5763
▁सद्भाव	-5764
▁कहिलेका	-5765
▁हार्दिक	-5766
▁पत्रकारिता	-5767
▁सक्नुहुन्छ	-5768
and	-5769
▁सेतो	-5770
▁खड्काले	-5771
▁स्कूल	-5772
▁चाहेको	-5773
▁सहायता	-5774
▁भइसकेका	-5775
म्की	-5776
▁रिस	-5777
▁चाहने	-5778
▁पाठ्य	-5779
उनुपर्ने	-5780
▁आइरहेको	-5781
▁महानगरीय	-5782
▁नेताहरुले	-5783
▁पं	-5784
▁तपाईंलाई	-5785
▁स्थानीयले	-5786
नायक	-5787
▁करिव	-5788
▁मानिसले	-5789
▁एन्ड	-5790
▁वेला	-5791
▁सुदूर	-5792
▁उहाँका	-5793
▁विद्यार्थीलाई	-5794
,,	-5795
ंस	-5796
▁पराजुली	-5797
▁चाहन्छ	-5798
औँ	-5799
▁कन्स	-5800
▁तत्व	-5801
▁हिउँ	-5802
▁कामना	-5803
▁प्रायः	-5804
▁लेखेको	-5805
▁फिल्मको	-5806
▁काङ्ग्रेस	-5807
▁काँग्रेसका	-5808
▁४४	-5809
▁ड्र	-5810
▁रोल्पा	-5811
भो	-5812
▁४१	-5813
माया	-5814
लम्बन	-5815
▁आदान	-5816
▁खराब	-5817
▁निरीक्षक	-5818
भ्	-5819
▁थापाको	-5820
▁प्रशंसा	-5821
▁प्रब	-5822
▁रत्न	-5823
कर्ताको	-5824
▁सेवाग्राही	-5825
काको	-5826
▁सकेनन्	-5827
▁भैरहेको	-5828
क्वा	-5829
▁अवस्थित	-5830
▁आधिकारिक	-5831
काएर	-5832
▁क्वा	-5833
▁गौतमले	-5834
▁ष	-5835
पार	-5836
फाई	-5837
▁शून्य	-5838
▁सभाको	-5839
▁रणनीति	-5840
▁गाउँपालिकामा	-5841
एनन्	-5842
▁गुप्	-5843
▁पत्नी	-5844
▁मदिरा	-5845
▁नसकिने	-5846
▁सिंहले	-5847
▁भिड	-5848
▁डिजि	-5849
▁गरेमा	-5850
▁लेख्न	-5851
स्थापित	-5852
▁नम्बरको	-5853
▁कम्पनीका	-5854
▁कार्यकाल	-5855
et	-5856
फर	-5857
▁राती	-5858
▁छोडेर	-5859
▁निम्न	-5860
▁चाहिन्छ	-5861
▁प्रहरीका	-5862
▁अर्थमन्त्री	-5863
जाको	-5864
▁जनाए	-5865
▁०६	-5866
वक्ता	-5867
▁भेटिएको	-5868
▁गर्नेछन्	-5869
ानको	-5870
हरूबाट	-5871
▁आशंका	-5872
▁मान्ने	-5873
▁लिम्बु	-5874
दत्त	-5875
▁दोल	-5876
▁पवि	-5877
▁प्रशस्त	-5878
▁कान्तिपुर	-5879
माल	-5880
▁अपराधी	-5881
यौ	-5882
▁खै	-5883
▁भेट्न	-5884
pal	-5885
ँदे	-5886
▁आद	-5887
▁असल	-5888
▁कल्या	-5889
▁सशक्त	-5890
▁गराउनु	-5891
▁धेरैले	-5892
▁कर्तव्य	-5893
▁संगै	-5894
▁शुद्ध	-5895
▁गर्दैन	-5896
▁बाली	-5897
▁निम	-5898
▁गरिए	-5899
▁चालू	-5900
▁व्याख्या	-5901
प्टे	-5902
▁बताइ	-5903
▁ग्यास	-5904
▁श्रीमान	-5905
▁सम्मानित	-5906
▁हिरा	-5907
▁उत्तरी	-5908
▁मसा	-5909
▁अस्पतालको	-5910
▁वडाध्यक्ष	-5911
▁सिंहदरबार	-5912
▁५२	-5913
▁तातो	-5914
▁चर्को	-5915
धाम	-5916
ुकी	-5917
▁बोलको	-5918
▁बस्नेतले	-5919
ेन्टि	-5920
▁हृदय	-5921
▁किशोर	-5922
मीले	-5923
▁गएपछि	-5924
▁नैतिक	-5925
▁आफुलाई	-5926
▁द्वारा	-5927
ेन्ड	-5928
▁बोल्न	-5929
▁प्रयत्न	-5930
▁प्रस्तुति	-5931
टले	-5932
▁छठ	-5933
▁वस	-5934
▁सुन्न	-5935
▁खासगरी	-5936
▁रुपैया	-5937
▁मूल्यमा	-5938
▁तस	-5939
हिने	-5940
ेकाले	-5941
▁टुंगो	-5942
▁उस्तै	-5943
▁अग्रता	-5944
▁छिट्टै	-5945
काई	-5946
▁बू	-5947
विका	-5948
▁सरल	-5949
▁पालना	-5950
▁सुशासन	-5951
▁दिदीबहिनी	-5952
तया	-5953
▁अह	-5954
स्टि	-5955
▁वार	-5956
▁गतिमा	-5957
▁चिन्त	-5958
ेरा	-5959
▁प्रतिवद्ध	-5960
▁प्रहरीलाई	-5961
रस	-5962
खोला	-5963
्चोक	-5964
्वाइ	-5965
▁सिल	-5966
▁अस्तित्व	-5967
ण्डको	-5968
▁विपक्षी	-5969
यमित	-5970
▁घाम	-5971
▁तिहा	-5972
▁इन्टरने	-5973
▁स्वाभाविक	-5974
०७	-5975
रासस	-5976
▁व्र	-5977
▁लाग्दैन	-5978
▁त्यहाँको	-5979
केको	-5980
▁चोट	-5981
▁ठिक	-5982
▁रेड	-5983
▁सहसचिव	-5984
▁शास्त्र	-5985
▁राष्ट्रको	-5986
चाह	-5987
▁३९	-5988
▁उत्तम	-5989
▁निर्वाचनका	-5990
▁दोषी	-5991
▁रुकुम	-5992
▁मानिसहरु	-5993
हिर	-5994
▁निजामती	-5995
▁दिनुपर्छ	-5996
▁सत	-5997
▁सधैँ	-5998
▁कमिटी	-5999
▁ढकालले	-6000
▁दिएपछि	-6001
चाहिँ	-6002
▁अल्प	-6003
▁भव्य	-6004
▁४३	-6005
▁हिमाली	-6006
▁इलाम	-6007
▁भद्र	-6008
▁आसपा	-6009
परिवार	-6010
▁देखाउने	-6011
▁बढिरहेको	-6012
गं	-6013
▁जला	-6014
▁निर्णा	-6015
▁स्थगित	-6016
▁प्रोत्साहन	-6017
▁देउसी	-6018
▁चौधरीले	-6019
▁पह	-6020
▁५६	-6021
▁तुरु	-6022
▁रोगको	-6023
▁पण्डित	-6024
▁तिब्ब	-6025
▁निवासी	-6026
▁मन्त्रालयमा	-6027
ें	-6028
▁र्	-6029
▁कूल	-6030
▁नगर्न	-6031
▁कल्याण	-6032
▁पाल्पा	-6033
▁प्रदीप	-6034
▁अभिनेता	-6035
▁एल्	-6036
▁क्षण	-6037
▁दोलखा	-6038
▁रोनाल्	-6039
▁अधिकारीको	-6040
काउ	-6041
स्न	-6042
ेती	-6043
ाराम	-6044
▁करा	-6045
▁प्रस	-6046
▁कामका	-6047
▁सिमेन्ट	-6048
▁रामबहादुर	-6049
▁भीड	-6050
▁मल्ल	-6051
▁रामचन्द्र	-6052
स्पद	-6053
▁दसैं	-6054
▁सैन्य	-6055
▁संस्थामा	-6056
▁ओम	-6057
▁भानु	-6058
▁रोमा	-6059
वृत्ति	-6060
--	-6061
ँचो	-6062
▁फ्र	-6063
पाल्चोक	-6064
▁बनाउँछ	-6065
▁समाजले	-6066
जीवन	-6067
▁ढुंग	-6068
▁भारी	-6069
▁चेतना	-6070
▁कुराहरु	-6071
▁फ्	-6072
▁भरमा	-6073
▁तुरुन्त	-6074
▁कोषाध्यक्ष	-6075
▁विमानस्थलमा	-6076
▁बाइ	-6077
▁एकताको	-6078
▁उपेन्द्र	-6079
▁समुदायका	-6080
▁वर्षभित्र	-6081
▁हद	-6082
▁गराए	-6083
खत	-6084
▁तसर्थ	-6085
▁बिषयमा	-6086
▁लाग्दा	-6087
ह्न	-6088
▁बोकेको	-6089
▁संवेदनशील	-6090
शेर	-6091
▁दाङ	-6092
▁इन्ध	-6093
▁आचार्यले	-6094
▁निर्णायक	-6095
▁परिक	-6096
लाग्दो	-6097
▁दैलेख	-6098
▁पर्वत	-6099
▁एसियाली	-6100
▁लोड	-6101
▁वटै	-6102
हुँदै	-6103
▁गराई	-6104
▁दाजुभाइ	-6105
▁क्रोए	-6106
▁उठाउने	-6107
▁बोल्ने	-6108
▁लेखेका	-6109
▁सामाग्री	-6110
▁उद	-6111
ड्नु	-6112
▁बाहु	-6113
▁गण्डकी	-6114
▁ज्ञापन	-6115
खाना	-6116
▁राखि	-6117
▁आस्था	-6118
▁जाँदै	-6119
▁४६	-6120
्ररी	-6121
▁स्रोतले	-6122
राय	-6123
▁५८	-6124
▁मार्	-6125
पट	-6126
▁थियौं	-6127
▁आत्महत्या	-6128
अधिकार	-6129
पक्षीय	-6130
▁कैलाली	-6131
▁स्वास्थ्यमा	-6132
▁भोक	-6133
▁हौं	-6134
▁अचम्म	-6135
▁वेबसाइ	-6136
▁स्तरमा	-6137
ड्दै	-6138
▁लिई	-6139
किएका	-6140
▁त्याग	-6141
▁छलफलमा	-6142
▁सिर	-6143
▁बर्षको	-6144
▁भन्नेमा	-6145
▁सुरक्षाको	-6146
▁गाँउ	-6147
▁तुलना	-6148
▁दिनेश	-6149
▁ज्योति	-6150
▁बनाउँदै	-6151
▁मानिसलाई	-6152
र्जी	-6153
▁डाटा	-6154
▁किशोरी	-6155
जिङ	-6156
वेदी	-6157
▁बिमा	-6158
▁अनुरुप	-6159
▁साम्रा	-6160
ङ्कन	-6161
त्तिकै	-6162
▁नमुना	-6163
▁समायोजन	-6164
ch	-6165
▁विशाल	-6166
▁फ्रान्	-6167
▁प्रशासक	-6168
▁श्रीमान्	-6169
▁विद्यालयका	-6170
▁सिन्धुपाल्चोक	-6171
el	-6172
हको	-6173
▁नेट	-6174
▁विष	-6175
▁याएको	-6176
▁रोकिएको	-6177
विद्	-6178
साधन	-6179
▁ब्यब	-6180
▁लाभा	-6181
▁मनाउन	-6182
▁मुलुकी	-6183
▁साब	-6184
▁उठाउन	-6185
▁सुवेद	-6186
▁सेन्ट	-6187
यू	-6188
▁कुखु	-6189
▁सिँच	-6190
▁हुदा	-6191
▁नदीमा	-6192
▁युवराज	-6193
▁राष्ट्रसंघ	-6194
▁पुनःनिर्माण	-6195
जले	-6196
चार्ज	-6197
हुनेछ	-6198
इने	-6199
ीता	-6200
▁जसका	-6201
▁हारा	-6202
▁अभावमा	-6203
▁प्रान्त	-6204
किल	-6205
सेन	-6206
▁स्टो	-6207
▁गर्नै	-6208
▁दाँ	-6209
▁बलिउड	-6210
▁साविक	-6211
▁२०२	-6212
▁दिवसको	-6213
▁भविष्यमा	-6214
▁क्षेत्रफल	-6215
षे	-6216
▁रहर	-6217
र्फत्	-6218
▁गैरआ	-6219
▁दिदै	-6220
▁सुपर	-6221
▁सृजना	-6222
▁खेलेको	-6223
▁त्यसबेला	-6224
▁फौ	-6225
ेलमा	-6226
▁फाइनल	-6227
▁राम्रै	-6228
ाए	-6229
शनल	-6230
च्छेद	-6231
▁बानी	-6232
ज्यालो	-6233
▁पठाउन	-6234
▁शाहले	-6235
▁सर्वे	-6236
▁त्यहाँका	-6237
पालन	-6238
▁बेइ	-6239
▁सुनसरी	-6240
दायक	-6241
सनको	-6242
▁धनुषा	-6243
▁चाहिने	-6244
▁तत्कालिन	-6245
▁यात्रामा	-6246
मुनि	-6247
▁जित्न	-6248
▁मर्या	-6249
ानिस्ता	-6250
▁प्रचलन	-6251
▁ट्रम्पले	-6252
पल	-6253
▁आर्जन	-6254
▁सेप्टे	-6255
▁गई	-6256
यामा	-6257
▁बरि	-6258
भित्रको	-6259
▁हिम	-6260
▁राखे	-6261
▁संशोध	-6262
▁प्रसिद्ध	-6263
▁संयोजकत्वमा	-6264
▁बालबालिकालाई	-6265
▁हुनुहुन्थ्यो	-6266
!!	-6267
▁फरा	-6268
▁बङ्ग	-6269
▁परिमा	-6270
दको	-6271
ेटिङ	-6272
▁भोग्	-6273
यात्रा	-6274
शालामा	-6275
▁प्रभु	-6276
▁आयुक्त	-6277
▁क्याम्पस	-6278
▁खोज्न	-6279
▁घन्टा	-6280
▁उपप्रमुख	-6281
▁पात	-6282
▁मङ्	-6283
मित्व	-6284
▁कब्जा	-6285
▁मेसिन	-6286
▁रहँदा	-6287
▁सुनको	-6288
▁होइनन्	-6289
▁फाइनलमा	-6290
निङ	-6291
▁लगानीमा	-6292
घात	-6293
▁पल्	-6294
्र्यो	-6295
स्थापन	-6296
▁त्यसबाट	-6297
▁निकायले	-6298
िती	-6299
▁भन	-6300
▁काय	-6301
▁किरात	-6302
▁बिरुवा	-6303
▁नागरिकले	-6304
▁व्यवसायीले	-6305
▁विद्यार्थीले	-6306
▁उचाइ	-6307
▁खाएर	-6308
ग्रस्त	-6309
▁अक्टो	-6310
▁लगत्तै	-6311
निस	-6312
▁झो	-6313
टामा	-6314
ब्दी	-6315
▁चाँडै	-6316
्यौं	-6317
▁गुणा	-6318
▁बस्त	-6319
▁८५	-6320
डीमा	-6321
▁अनशन	-6322
नारायण	-6323
▁महर्जन	-6324
▁तिहारको	-6325
▁बौद्धिक	-6326
▁बिस्तारै	-6327
▁रोनाल्डो	-6328
▁व्यवस्थापिका	-6329
यरमा	-6330
▁विर	-6331
गोलिक	-6332
▁निषे	-6333
▁निर्धारित	-6334
ण्डर	-6335
▁सुन्त	-6336
▁अनुकूल	-6337
▁नेपालीलाई	-6338
▁घि	-6339
क्कर	-6340
भाषा	-6341
लोमा	-6342
शैली	-6343
मुक्त	-6344
र्देश	-6345
▁भएकै	-6346
▁बुझाइ	-6347
▁निकायको	-6348
▁परेर	-6349
▁बालक	-6350
▁छुट्या	-6351
▁श्रद्धा	-6352
चीन	-6353
▁शौ	-6354
▁आतंक	-6355
▁पार्दै	-6356
▁महोत्त	-6357
▁सङ्कलन	-6358
▁हाराहारी	-6359
▁इन्जिनियर	-6360
▁अभ्या	-6361
▁एकातिर	-6362
▁रुपैयाँको	-6363
म्बू	-6364
ाउँछन्	-6365
खे	-6366
▁गइ	-6367
▁कक्ष	-6368
▁विश्वको	-6369
▁अन्तरक्रिया	-6370
हुने	-6371
▁वर्ण	-6372
▁फलफूल	-6373
▁परियार	-6374
▁सुवेदी	-6375
थु	-6376
▁५३	-6377
▁६३	-6378
▁गोक	-6379
म्बार	-6380
▁आदर्श	-6381
▁पश्चात	-6382
▁बृद्धि	-6383
▁किसानले	-6384
▁अन्ध	-6385
▁सागर	-6386
▁सञ्चारमाध्यम	-6387
राले	-6388
▁तिनको	-6389
▁ल्याएका	-6390
▁बहि	-6391
▁भिसा	-6392
बमोजिम	-6393
▁सट्टा	-6394
▁यसबारे	-6395
▁उज्यालो	-6396
▁क्रियाशील	-6397
फु	-6398
▁कथ	-6399
ज्यू	-6400
▁अनाव	-6401
▁पठाइ	-6402
▁फ्या	-6403
▁सुब्बा	-6404
▁पारदर्श	-6405
▁भौगोलिक	-6406
▁ल्	-6407
रहेकी	-6408
▁मोरङ	-6409
▁उपाध्या	-6410
▁पश्चिमा	-6411
▁प्रिमियर	-6412
▁बिरामीको	-6413
्युब	-6414
▁हतार	-6415
▁लामाले	-6416
ृतमा	-6417
▁शिशु	-6418
▁आक्रो	-6419
▁समूहका	-6420
स्वास्थ्य	-6421
▁इतिहासमा	-6422
नुको	-6423
वासीय	-6424
▁अडान	-6425
▁अस्थ	-6426
▁विदा	-6427
▁सुचना	-6428
गडा	-6429
▁ः	-6430
▁गे	-6431
खास्त	-6432
▁अफ्र	-6433
▁आफैले	-6434
▁पारेका	-6435
▁हराएको	-6436
▁अफगानिस्ता	-6437
▁कता	-6438
▁आबद्ध	-6439
▁सम्मको	-6440
▁नेकपाका	-6441
▁७२	-6442
▁राइ	-6443
विश्वास	-6444
▁अस्ट्रेलिया	-6445
छौं	-6446
ालमा	-6447
▁रहेन	-6448
▁सहमत	-6449
▁परिचित	-6450
▁नेताहरू	-6451
▁विश्वभर	-6452
▁अस्पतालका	-6453
▁स्वामित्व	-6454
बापत	-6455
लिने	-6456
स्मा	-6457
▁सतह	-6458
मैत्री	-6459
▁अन्तरिम	-6460
▁विज्ञप्तिमा	-6461
ड्ड	-6462
▁घाँ	-6463
▁ताप	-6464
▁चामल	-6465
मात्रै	-6466
१०	-6467
▁केशव	-6468
▁दिइने	-6469
▁मस्ति	-6470
▁जित्ने	-6471
▁समाजवाद	-6472
गरि	-6473
▁टन	-6474
स्कृत	-6475
▁पारी	-6476
▁शान्त	-6477
▁मानिएको	-6478
▁उपत्यकामा	-6479
▁नाकाबन्दी	-6480
▁गफ	-6481
ट्टी	-6482
▁डाइ	-6483
▁इन्स	-6484
▁उप्र	-6485
▁भेटि	-6486
▁२०१५	-6487
▁बराबर	-6488
▁स्वभाव	-6489
मणि	-6490
▁ट्	-6491
▁थो	-6492
▁रै	-6493
▁हिं	-6494
▁पुगि	-6495
स्तरमा	-6496
▁विक्रम	-6497
▁प्रणालीमा	-6498
▁वीरेन्द्र	-6499
अप	-6500
▁श्याम	-6501
▁सदा	-6502
ेसँगै	-6503
▁लगेर	-6504
▁श्रा	-6505
▁हुनुभएको	-6506
▁जनतामा	-6507
▁स्मृति	-6508
▁कम्प्युटर	-6509
सिस	-6510
▁चरम	-6511
डिएको	-6512
▁इंग्	-6513
▁रियल	-6514
▁परिणत	-6515
▁डिजिटल	-6516
▁तस्करी	-6517
▁पवित्र	-6518
खल	-6519
ण्ठ	-6520
▁in	-6521
▁४७	-6522
▁मौन	-6523
▁अनुप	-6524
▁नायब	-6525
▁परिसर	-6526
▁रुपैयाँमा	-6527
▁असन्तुष्टि	-6528
वण	-6529
▁७४	-6530
▁तर्	-6531
▁बाबा	-6532
▁आमाले	-6533
▁अनियमित	-6534
▁मिल्दैन	-6535
▁प्राध्यापक	-6536
गणना	-6537
▁झनै	-6538
▁गाली	-6539
▁निको	-6540
▁राजु	-6541
▁महारा	-6542
▁होलान्	-6543
ण्डमा	-6544
▁मालिक	-6545
▁प्रत्या	-6546
▁भन्छिन्	-6547
लोड	-6548
्नो	-6549
प्रकाश	-6550
▁ओभरमा	-6551
▁सुशील	-6552
▁हुदैन	-6553
▁गइरहेको	-6554
▁क्षतिपूर्ति	-6555
▁बलमा	-6556
▁भाद्र	-6557
▁तपाईले	-6558
बादी	-6559
▁२०३	-6560
▁छैन्	-6561
▁मुना	-6562
▁मङ्गल	-6563
▁गर्छौं	-6564
▁बन्ध	-6565
▁विपरी	-6566
▁प्रतिवेदनमा	-6567
▁गाउँपालिकाले	-6568
लेट	-6569
ङ्गले	-6570
▁देशले	-6571
▁पद्धति	-6572
▁बजारको	-6573
▁लेख्ने	-6574
▁४९	-6575
▁केटी	-6576
▁नगरि	-6577
▁मैत्री	-6578
▁गराइएको	-6579
▁संसद्मा	-6580
▁आजै	-6581
▁प्रि	-6582
▁करण	-6583
▁आत्मा	-6584
▁एशिया	-6585
▁नेपालगञ्ज	-6586
il	-6587
कीय	-6588
रात	-6589
▁वाइ	-6590
▁बयान	-6591
▁अन्यो	-6592
▁प्याक	-6593
▁क्षमताको	-6594
▁बढ्छ	-6595
▁श्रृ	-6596
काले	-6597
निकी	-6598
ञ्चित	-6599
▁पर्नेछ	-6600
▁मसान्त	-6601
▁संसारमा	-6602
ट्स	-6603
सक्दा	-6604
▁चिनी	-6605
▁निमा	-6606
▁किन्न	-6607
▁च्यान	-6608
▁भ्रमणका	-6609
▁अमर	-6610
▁रुचि	-6611
▁बाह्य	-6612
▁निमित्त	-6613
▁गरेकाले	-6614
▁उम	-6615
▁पट	-6616
▁बराम	-6617
▁लियो	-6618
▁विरोधी	-6619
▁बेल्जियम	-6620
कियो	-6621
स्तर	-6622
्यारो	-6623
▁कपाल	-6624
▁खरेल	-6625
द्धारा	-6626
ालगायत	-6627
▁अञ्चल	-6628
▁बास	-6629
▁बजेदेखि	-6630
▁राष्ट्रियसभा	-6631
▁खरी	-6632
टाएको	-6633
▁एक्लै	-6634
▁सेक्स	-6635
▁विकृति	-6636
भौ	-6637
बाह	-6638
ुरि	-6639
▁नबुझ	-6640
▁फरार	-6641
▁बिहि	-6642
▁प्रको	-6643
र्नुपर्ने	-6644
▁गैरआवासीय	-6645
▁प्रजातान्त्रिक	-6646
▁आफनो	-6647
▁हत्य	-6648
▁भाषाको	-6649
▁हजारौं	-6650
▁निक्षेप	-6651
▁रोजगारीको	-6652
एमाले	-6653
▁उर्जा	-6654
▁समूहमा	-6655
▁मकवानपुर	-6656
▁सधै	-6657
▁घरबाट	-6658
▁अनावश्यक	-6659
▁प्रशासनिक	-6660
▁पर्सा	-6661
▁सन्तु	-6662
▁देख्दा	-6663
▁बिहानै	-6664
▁फिट	-6665
▁फुल	-6666
ानीले	-6667
▁सफ्ट	-6668
▁उत्पादनमा	-6669
▁व्यापारिक	-6670
सनल	-6671
▁अरुण	-6672
▁क्लव	-6673
▁स्टा	-6674
कल्पिक	-6675
जन्तु	-6676
सेन्स	-6677
▁शनिवार	-6678
सरकारी	-6679
▁गहिरो	-6680
▁बालबालिकाको	-6681
▁प्रालि	-6682
▁मनि	-6683
▁अशोक	-6684
▁सकिन	-6685
▁कुराले	-6686
▁महाकाली	-6687
▁घिमिरेले	-6688
किए	-6689
▁५७	-6690
▁चम्	-6691
▁चाप	-6692
▁डाँडा	-6693
▁आइपुग्	-6694
▁आगलागी	-6695
▁दोहोरो	-6696
▁विशेषता	-6697
▁आपसी	-6698
▁विनोद	-6699
▁उत्पादक	-6700
▁एमालेको	-6701
▁नेपालीहरुको	-6702
▁वता	-6703
▁सोझ	-6704
▁रेमि	-6705
▁रौतह	-6706
▁सिँचाइ	-6707
टाम	-6708
▁निगर	-6709
▁बच्च	-6710
▁राज्यका	-6711
▁हेम	-6712
▁नोभे	-6713
▁उपचारको	-6714
▁अमेरिकाले	-6715
▁पथ	-6716
ङ्गी	-6717
▁मनोज	-6718
▁यसपाल	-6719
▁सार्क	-6720
▁स्वदेशी	-6721
ँट	-6722
लट	-6723
▁राय	-6724
▁लोभ	-6725
▁सिलसि	-6726
▁लिम्बू	-6727
▁ज्व	-6728
पोखरी	-6729
▁एकेड	-6730
▁प्रस्ट	-6731
▁महासंघका	-6732
▁धेरैजसो	-6733
▁५४	-6734
नेकपा	-6735
▁एसपी	-6736
▁औषधी	-6737
गण्डकी	-6738
▁पृथ्वी	-6739
▁हत्यारा	-6740
▁प्रतिपक्षी	-6741
bs	-6742
▁चिन	-6743
▁१९८	-6744
र्भिक	-6745
▁बैंकिङ	-6746
▁स्याङ्	-6747
▁हुनेमा	-6748
▁सदुपयोग	-6749
▁खानेकुरा	-6750
संर	-6751
▁भाई	-6752
▁जापानी	-6753
▁बिन्दु	-6754
▁राजश्व	-6755
▁देखिँदैन	-6756
▁on	-6757
▁अड्	-6758
▁अक्ष	-6759
▁कन्ट	-6760
▁सन्धि	-6761
▁कीर्ति	-6762
▁विस्तारै	-6763
▁जुम्ला	-6764
▁मङ्सिर	-6765
▁विभाजन	-6766
▁देखिन्छन्	-6767
जीवी	-6768
लीले	-6769
▁ख्याल	-6770
▁तनहुँ	-6771
▁चाडपर्व	-6772
▁पाण्डेले	-6773
▁६४	-6774
सिएको	-6775
▁आप्र	-6776
▁माल्	-6777
▁मार्क	-6778
▁राईको	-6779
▁सन्दी	-6780
▁अस्वीकार	-6781
▁विक्री	-6782
▁सुनुवाइ	-6783
▁अनिल	-6784
▁ग्लो	-6785
▁खाद्या	-6786
▁गर्नको	-6787
▁मानिसहरू	-6788
कू	-6789
लाउने	-6790
▁व्रत	-6791
▁अन्र्त	-6792
▁बार्सि	-6793
▁श्रीलंका	-6794
नस	-6795
सम्ममा	-6796
▁हाफ	-6797
▁दायर	-6798
▁गरिबी	-6799
▁नपाएको	-6800
▁अर्जेन्टि	-6801
किन	-6802
ख्रा	-6803
परित	-6804
वरले	-6805
पछिको	-6806
▁ट्रे	-6807
▁सारा	-6808
▁पाएपछि	-6809
▁सम्झना	-6810
▁विस्थापित	-6811
्वी	-6812
वर्क	-6813
ालयमा	-6814
▁पारे	-6815
▁लगाउ	-6816
▁लापर	-6817
▁महँगो	-6818
▁राजेश	-6819
▁लक्षण	-6820
▁बजेटमा	-6821
▁पार्टीलाई	-6822
▁संस्कृतिको	-6823
▁अनुसन्धानमा	-6824
▁ठग	-6825
नियाँ	-6826
▁अस्थिर	-6827
▁कार्यद	-6828
▁यसैबीच	-6829
▁रेग्मी	-6830
▁कारोवार	-6831
याे	-6832
▁बिल	-6833
▁बेस	-6834
▁अपरि	-6835
▁मिलन	-6836
▁शिविर	-6837
▁जिज्ञा	-6838
▁नेताको	-6839
▁बारम्बार	-6840
एच	-6841
▁मार	-6842
▁भैरह	-6843
▁लेखन	-6844
▁साइट	-6845
▁बुँदे	-6846
▁मुस्लिम	-6847
▁सहयोगको	-6848
▁बार्सिलो	-6849
ot	-6850
ल्नु	-6851
▁फेर	-6852
▁कागज	-6853
▁पन्तको	-6854
▁परिवेश	-6855
▁लिइएको	-6856
▁भ्रमणको	-6857
▁विश्वकपमा	-6858
न्ह	-6859
ेजी	-6860
त्रु	-6861
वास्ता	-6862
▁पारिएको	-6863
▁खाद्यान्न	-6864
▁सर्वेक्षण	-6865
पुर्ण	-6866
▁ढिलो	-6867
▁ब्लग	-6868
▁मतदा	-6869
▁प्रदर्शनमा	-6870
छो	-6871
लोक	-6872
▁संकट	-6873
▁सानै	-6874
▁दीर्घकालीन	-6875
▁पेट्रोलियम	-6876
कहाँ	-6877
▁केजी	-6878
▁दिमा	-6879
लगत्तै	-6880
▁उपचारमा	-6881
▁शताब्दी	-6882
▁आत्मनिर्भर	-6883
गान	-6884
श्री	-6885
▁हिड	-6886
▁लगाई	-6887
▁नीतिगत	-6888
▁व्यवसायिक	-6889
ात्	-6890
वाली	-6891
▁सुदृ	-6892
▁विपन्न	-6893
▁हटाउने	-6894
▁जोखिममा	-6895
▁मस्तिष्	-6896
▁तुला	-6897
▁निगरानी	-6898
▁डट	-6899
रालो	-6900
▁तीनै	-6901
▁पाइप	-6902
▁माला	-6903
▁गाउँका	-6904
▁रिज	-6905
▁२०७१	-6906
▁भएसँगै	-6907
▁अभियुक्त	-6908
▁समुदायमा	-6909
ख्	-6910
▁of	-6911
▁सिं	-6912
▁बढाइ	-6913
▁भूमिकामा	-6914
रेड	-6915
तीले	-6916
▁दीपा	-6917
▁बढुवा	-6918
▁बस्नु	-6919
्छु	-6920
▁कुँ	-6921
▁खोल्न	-6922
तिय	-6923
लम्प	-6924
▁कुव	-6925
▁पैदा	-6926
▁बल्ल	-6927
▁लुगा	-6928
▁काभ्र	-6929
▁मान्न	-6930
▁वडामा	-6931
▁लगाउनु	-6932
▁लगानीको	-6933
am	-6934
घन	-6935
▁झि	-6936
लियो	-6937
▁सकियो	-6938
इको	-6939
▁निषेध	-6940
▁काठमाडा	-6941
▁फराकिलो	-6942
▁भलि	-6943
▁उल्ल	-6944
▁सकिँदैन	-6945
▁सदस्यको	-6946
चाई	-6947
साल	-6948
▁७६	-6949
▁उका	-6950
▁२०१४	-6951
▁राजकुमार	-6952
▁वु	-6953
▁एसो	-6954
नीकरण	-6955
▁ढुंगा	-6956
▁साइकल	-6957
▁महानिरीक्षक	-6958
मू	-6959
पाटी	-6960
प्रद	-6961
▁इमा	-6962
▁खरीद	-6963
▁रेखा	-6964
▁बरामद	-6965
▁होटलमा	-6966
▁उपन्यास	-6967
▁कार्ययोजना	-6968
▁जनआ	-6969
▁राह	-6970
▁हप्	-6971
▁स्याउ	-6972
▁सञ्जालमा	-6973
▁नज	-6974
दिनु	-6975
▁बगा	-6976
▁वाल	-6977
▁निरी	-6978
▁शल्य	-6979
लवस्तु	-6980
▁चुक्ता	-6981
▁राम्ररी	-6982
▁विद्यमान	-6983
▁सुरेन्द्र	-6984
धारी	-6985
्रिड	-6986
▁चुनौ	-6987
▁माग्	-6988
▁शंकर	-6989
▁बुझ्ने	-6990
▁क्रोएसिया	-6991
रोप	-6992
्नै	-6993
प्लव	-6994
मिता	-6995
ेन्सी	-6996
▁बन्छ	-6997
▁रिहा	-6998
▁शरणा	-6999
▁सिटी	-7000
्नुपर्ने	-7001
▁शक्तिको	-7002
▁समावेशी	-7003
ँगा	-7004
▁अटो	-7005
▁तमु	-7006
▁जोगाउन	-7007
▁पुगेपछि	-7008
▁सरसफाइ	-7009
▁सरकारबाट	-7010
▁७३	-7011
▁९५	-7012
▁बाघ	-7013
▁गठित	-7014
▁राशि	-7015
▁पोर्चु	-7016
▁विपरीत	-7017
▁संघसंस्था	-7018
▁आक	-7019
▁बैत	-7020
▁सोलु	-7021
▁पञ्चायत	-7022
▁राजतन्त्र	-7023
▁परिवर्तनको	-7024
▁पाउँदा	-7025
▁आखिर	-7026
▁ढिला	-7027
▁पढाई	-7028
▁यिनै	-7029
▁गोष्ठ	-7030
▁हेटौं	-7031
▁योजनामा	-7032
▁मात	-7033
च्छुक	-7034
▁पक्का	-7035
▁छवि	-7036
▁जाडो	-7037
▁धम्की	-7038
▁सुनाए	-7039
▁बेलुका	-7040
भावना	-7041
▁नदेख	-7042
▁बनायो	-7043
▁तस्वीर	-7044
▁पर्यटकको	-7045
०००	-7046
▁मनोन	-7047
▁बैंकमा	-7048
▁लेखनाथ	-7049
▁मन्तव्य	-7050
▁विभागको	-7051
em	-7052
मर	-7053
वट	-7054
▁जनमत	-7055
▁नराख	-7056
▁महरा	-7057
▁ओलम्प	-7058
▁बिद्या	-7059
▁शैलीमा	-7060
▁तामाङले	-7061
▁अस्पतालले	-7062
▁डल	-7063
▁नाग	-7064
▁संकल	-7065
▁अन्या	-7066
▁सिस्ट	-7067
▁खोल्ने	-7068
▁मानिने	-7069
▁पोखराको	-7070
▁अनुसारको	-7071
▁समुदायले	-7072
सीसी	-7073
्रास	-7074
▁चाहे	-7075
▁पुनले	-7076
▁शिक्ष	-7077
▁प्रतिवद्धता	-7078
▁कार्यक्रमहरु	-7079
▁६२	-7080
▁हँु	-7081
▁सम्हाल	-7082
▁हिस्सा	-7083
▁फैलिएको	-7084
▁मुलुकलाई	-7085
▁हस्	-7086
भाग्य	-7087
▁पर्यो	-7088
▁रेलमार्ग	-7089
न्तिक	-7090
ष्कार	-7091
▁नर्स	-7092
▁कोरियाली	-7093
▁नवलपरासी	-7094
▁मूल्यांकन	-7095
त्रो	-7096
▁छिन	-7097
ब्लिक	-7098
▁आचार	-7099
▁ताली	-7100
▁पिता	-7101
लस	-7102
वर्ग	-7103
ाधीन	-7104
▁खाल्	-7105
▁भुमिका	-7106
▁शिक्षामा	-7107
ेषण	-7108
टरमा	-7109
▁ओटा	-7110
▁उल्लेख्य	-7111
▁झन	-7112
दियो	-7113
▁मैन	-7114
समक्ष	-7115
▁त्यहि	-7116
▁बिश्व	-7117
▁रहस्य	-7118
▁सङ्गठन	-7119
▁५९	-7120
नासाथ	-7121
▁टिमले	-7122
▁सेमिफाइनलमा	-7123
ड्दा	-7124
वारण	-7125
▁एजे	-7126
द्रिक	-7127
▁आपत्ति	-7128
▁निगमले	-7129
ङ्का	-7130
ारको	-7131
▁शौच	-7132
▁धनकु	-7133
▁हुनै	-7134
▁एक्का	-7135
▁गोप्य	-7136
न्यजन्तु	-7137
▁परिवारमा	-7138
▁आति	-7139
▁उनकी	-7140
▁पत्रमा	-7141
▁मिलाएर	-7142
▁पक्षलाई	-7143
म्वर	-7144
▁दुध	-7145
▁बल्	-7146
स्फोट	-7147
▁मिले	-7148
▁रङ्ग	-7149
प्रसार	-7150
▁गराएर	-7151
▁आक्रोश	-7152
▁भनेपछि	-7153
दित	-7154
▁मृ	-7155
▁आउट	-7156
▁नेपालमै	-7157
आउ	-7158
▁मेरी	-7159
▁शिवि	-7160
▁मुल्य	-7161
▁प्रादेशिक	-7162
▁नदिन	-7163
▁खोलामा	-7164
▁बेलायती	-7165
जुमा	-7166
▁आफ्	-7167
▁समि	-7168
▁बाधा	-7169
स्थापना	-7170
▁न्यायिक	-7171
▁कृष्णप्रसाद	-7172
ws	-7173
नियर	-7174
▁ग्य	-7175
▁रेष्ट	-7176
▁प्रेरणा	-7177
▁लगायतको	-7178
र्देशक	-7179
▁घोषित	-7180
▁भाग्य	-7181
▁हेलिक	-7182
▁चरा	-7183
▁मरि	-7184
▁तहले	-7185
▁बेनी	-7186
▁२०७०	-7187
▁बेरोज	-7188
▁मिलेको	-7189
ुटि	-7190
▁भय	-7191
▁गेट	-7192
▁ठोस	-7193
द्र्ध	-7194
न्दर्य	-7195
▁खसेको	-7196
▁परेपछि	-7197
▁मूर्ति	-7198
कान	-7199
▁झर	-7200
दिभ्	-7201
ेरिया	-7202
▁आराम	-7203
▁पैदल	-7204
▁शहरमा	-7205
सिङ	-7206
जीले	-7207
निर्वा	-7208
▁बस्तु	-7209
▁व्यहो	-7210
▁अभिलेख	-7211
▁ढुवानी	-7212
▁स्थितिमा	-7213
▁प्रशासनले	-7214
▁तिनका	-7215
▁म्याच	-7216
▁रुपले	-7217
▁प्रस्तावित	-7218
डाइ	-7219
▁गाइ	-7220
▁फला	-7221
▁गर्भव	-7222
▁बत्ती	-7223
▁मध्यम	-7224
▁अपाङ्ग	-7225
▁अधिवेशन	-7226
▁बोर्डले	-7227
▁बिगत	-7228
▁ट्रेड	-7229
▁रसिया	-7230
▁भेटवार्ता	-7231
५०	-7232
▁केर	-7233
▁समापन	-7234
▁जितेका	-7235
▁वरिपरि	-7236
▁संयोजन	-7237
▁पदार्थको	-7238
▁अध्यक्षमा	-7239
लिपि	-7240
▁दवा	-7241
▁रही	-7242
▁छक्का	-7243
▁आन्दोलनका	-7244
टिस	-7245
कालिन	-7246
▁राजन	-7247
▁आउँदो	-7248
▁अग्रसर	-7249
ir	-7250
छिन	-7251
न्डर	-7252
▁पेन	-7253
प्रदान	-7254
▁अनुगम	-7255
▁स्तरीय	-7256
▁विरोधमा	-7257
▁अन्त्यमा	-7258
▁ब्ल	-7259
▁सरस्व	-7260
▁चलाएको	-7261
▁उत्साहित	-7262
▁प्रयोगमा	-7263
▁महाधिवेश	-7264
राष्ट्रपति	-7265
रोग	-7266
लान्	-7267
▁छापा	-7268
▁द्वि	-7269
▁दिँदा	-7270
▁भुटान	-7271
ड्य	-7272
▁इजला	-7273
▁उत्सव	-7274
▁पोखरी	-7275
▁डिसे	-7276
▁पेन्	-7277
▁आउँदै	-7278
▁प्रदू	-7279
▁उच्चस्तरीय	-7280
▁च्याम्पियनसि	-7281
प्ती	-7282
▁बोट	-7283
▁अङ्क	-7284
▁रोक्	-7285
▁सिंगा	-7286
▁छात्रा	-7287
▁भएकोमा	-7288
▁संविधानसभाको	-7289
os	-7290
दलीय	-7291
लेले	-7292
▁दाउ	-7293
▁नत्र	-7294
▁चैत्र	-7295
▁नमिल्	-7296
ामन्त्री	-7297
▁योग्यता	-7298
▁स्रोतको	-7299
▁पढ्नुहोस्	-7300
▁ओभर	-7301
▁स्र	-7302
▁दलाल	-7303
▁हिरो	-7304
▁जुलाई	-7305
▁मार्च	-7306
▁रूपले	-7307
▁खेल्दै	-7308
▁मर	-7309
▁६६	-7310
▁बिम	-7311
▁नियमन	-7312
▁जर्मनी	-7313
▁देखाएर	-7314
▁नेप्से	-7315
▁स्वीका	-7316
▁परमेश्व	-7317
▁भैसकेको	-7318
▁महिलाहरु	-7319
▁बिस्तृतमा	-7320
हिन	-7321
टीले	-7322
थोकी	-7323
▁होस	-7324
र्द्ध	-7325
▁ग्रुप	-7326
▁चम	-7327
ेनन्	-7328
▁दौड	-7329
▁सुत्के	-7330
▁गराउँदै	-7331
▁सार्वभौ	-7332
कवि	-7333
ण्डी	-7334
▁मकै	-7335
▁पावर	-7336
▁नेत्र	-7337
▁बिरोध	-7338
▁शुक्ल	-7339
▁खोज्दै	-7340
▁नभएपछि	-7341
▁निकायमा	-7342
▁साई	-7343
▁सभ्य	-7344
▁निकालेको	-7345
▁माओवादीको	-7346
▁विश्वकपको	-7347
१९	-7348
पेर	-7349
▁तालमेल	-7350
▁तीनवटा	-7351
▁छायांकन	-7352
▁माइक्रो	-7353
▁लण्ड	-7354
मुक्ति	-7355
▁तिर्न	-7356
▁अलपत्र	-7357
▁सम्पादक	-7358
▁सम्बन्धलाई	-7359
न्च	-7360
िनको	-7361
संरचना	-7362
▁अनुमो	-7363
▁बचाउन	-7364
▁क्षेत्री	-7365
७४	-7366
रहेछ	-7367
▁जानकार	-7368
▁अभिवृद्धि	-7369
▁सुदूरपश्चिम	-7370
लभ	-7371
लय	-7372
▁r	-7373
ज्ज	-7374
जारी	-7375
वेयर	-7376
सेवी	-7377
▁कोट	-7378
न्जेल	-7379
▁किनकी	-7380
▁नहुनु	-7381
▁नामको	-7382
▁सांगी	-7383
▁प्रकोप	-7384
▁मोदीको	-7385
▁मान्छेले	-7386
▁वैकल्पिक	-7387
▁कपिलवस्तु	-7388
▁गर्नुहुन्छ	-7389
गाह	-7390
चाप	-7391
▁५००	-7392
▁काला	-7393
▁पार्क	-7394
▁निवारण	-7395
▁धितोपत्र	-7396
▁मान्छेको	-7397
▁परिचयपत्र	-7398
ँकी	-7399
▁दैनिकमा	-7400
▁तट	-7401
▁बडा	-7402
ढुंगा	-7403
हुन्न	-7404
▁छाला	-7405
▁लन्ड	-7406
▁कामलाई	-7407
▁पक्षको	-7408
▁कम्तिमा	-7409
▁ट्रान्स	-7410
▁बुझाएको	-7411
▁मनोरञ्जन	-7412
▁रोजगारीमा	-7413
हरि	-7414
▁बाक्	-7415
▁जोडेर	-7416
▁दिनअघि	-7417
▁मोदीले	-7418
▁भईरहेको	-7419
▁सौन्दर्य	-7420
बन	-7421
▁Nepal	-7422
▁रोपनी	-7423
▁अर्याल	-7424
▁देखेको	-7425
▁तिमीलाई	-7426
▁निकाल्न	-7427
▁अध्ययनरत	-7428
▁दृष्टिले	-7429
दश	-7430
उनुभयो	-7431
▁जापानमा	-7432
▁सकेसम्म	-7433
▁परिमार्जन	-7434
▁वन्यजन्तु	-7435
ठ्	-7436
रन	-7437
वटै	-7438
▁कँ	-7439
▁६१	-7440
लाही	-7441
▁अपर	-7442
▁वान	-7443
▁शरि	-7444
डाँडा	-7445
▁मिलाउन	-7446
▁बर्दिया	-7447
▁प्रश्नको	-7448
▁सांगीतिक	-7449
▁राम्रोसँग	-7450
थान	-7451
साम	-7452
▁बजेटको	-7453
▁खतिवडाले	-7454
▁६८	-7455
▁सकिन्न	-7456
▁रोजगारीका	-7457
▁शल्यक्रिया	-7458
ंै	-7459
जरको	-7460
▁उठेको	-7461
▁स्रोतका	-7462
जम	-7463
▁यज्ञ	-7464
▁निकास	-7465
▁विप्लव	-7466
▁गर्नुका	-7467
▁सबभन्दा	-7468
▁राजनीतिको	-7469
देन	-7470
ग्लै	-7471
▁नमू	-7472
▁कुमारी	-7473
▁बाख्रा	-7474
▁भैरहवा	-7475
▁शरीरको	-7476
धाई	-7477
▁अचान	-7478
स्त्री	-7479
स्थलमा	-7480
▁बढ्नु	-7481
▁अर्थमा	-7482
▁अलिकति	-7483
▁सक्दैनन्	-7484
प्न	-7485
▁अना	-7486
▁असा	-7487
▁दिप	-7488
▁फाल	-7489
▁बुढ	-7490
▁पुजा	-7491
▁हलमा	-7492
ेन्टमा	-7493
▁भूभाग	-7494
▁स्थाय	-7495
▁बराबरी	-7496
▁कामदारको	-7497
▁निर्देशिका	-7498
▁सेप्टेम्बर	-7499
ुले	-7500
ोने	-7501
▁ली	-7502
▁शेख	-7503
▁मिल्छ	-7504
▁प्रज्ञा	-7505
▁गह	-7506
▁सज	-7507
▁प्रभा	-7508
▁डोल्पा	-7509
▁नभएकाले	-7510
▁विष्टले	-7511
द्धान्तिक	-7512
तारी	-7513
▁बीउ	-7514
▁पुरै	-7515
तर्फको	-7516
▁छोरीको	-7517
▁ताप्ले	-7518
▁हुन्थे	-7519
▁कार्यलाई	-7520
▁कार्यान्वयनको	-7521
जका	-7522
बिया	-7523
▁उड्ड	-7524
▁ब्यक्त	-7525
▁असन्तुष्ट	-7526
▁प्रतिस्पर्धी	-7527
ारू	-7528
▁धू	-7529
▁७७	-7530
▁and	-7531
▁रुट	-7532
▁वसन्त	-7533
▁साँच्चै	-7534
सनमा	-7535
▁अखिल	-7536
▁उनकै	-7537
▁गोदा	-7538
▁स्वि	-7539
▁गोर्ख	-7540
▁व्यवसायमा	-7541
चरण	-7542
चौर	-7543
मोड	-7544
मशेर	-7545
▁उर्	-7546
▁सहजै	-7547
▁सीता	-7548
▁होईन	-7549
▁अचानक	-7550
▁सत्तामा	-7551
भिर	-7552
नालाई	-7553
▁घुम्न	-7554
ञ्जा	-7555
बिधान	-7556
▁अर्ध	-7557
▁टुंग	-7558
▁आवद्ध	-7559
▁खोटाङ	-7560
▁पहलमा	-7561
भित्रका	-7562
्नुपर्छ	-7563
▁आयोजकले	-7564
सत्ता	-7565
▁कष्ट	-7566
▁थिइन	-7567
▁पालन	-7568
▁अवकाश	-7569
▁आरोहण	-7570
▁तिनले	-7571
▁दलहरू	-7572
▁ओलीलाई	-7573
▁संसदको	-7574
▁जोडिएका	-7575
▁उत्पादित	-7576
ब्बर	-7577
▁ज्य	-7578
▁काटि	-7579
▁टेक्	-7580
▁नन्द	-7581
▁रोचक	-7582
▁ईश्वर	-7583
▁रहँदै	-7584
▁गर्दछु	-7585
▁पठाइएको	-7586
▁रुपान्तरण	-7587
जनी	-7588
▁आलु	-7589
▁तेश	-7590
▁हनु	-7591
▁क्लि	-7592
▁फर्म	-7593
▁नेवार	-7594
▁गरेपनि	-7595
▁झापाको	-7596
▁भूकम्पले	-7597
▁गैरसरकारी	-7598
ओस्	-7599
▁शृ	-7600
▁चिना	-7601
▁आश्वास	-7602
▁छानविन	-7603
▁प्रचारप्रसार	-7604
सान	-7605
▁धो	-7606
▁दमक	-7607
▁रुच	-7608
▁गतेको	-7609
▁कुटपिट	-7610
▁सैद्धान्तिक	-7611
id	-7612
स्ले	-7613
िकृत	-7614
▁दिपक	-7615
▁पोलि	-7616
▁अर्कै	-7617
▁किस्ता	-7618
▁हेक्टर	-7619
▁हैसियत	-7620
▁मुलुकले	-7621
▁विश्वकै	-7622
ंकी	-7623
ड्रो	-7624
▁भेष	-7625
वहारिक	-7626
▁माइती	-7627
▁आफैंले	-7628
▁पुरानै	-7629
▁मार्ने	-7630
▁सिलसिलामा	-7631
ंच	-7632
ग्ग	-7633
हाको	-7634
ालीले	-7635
▁नदीको	-7636
▁रहेकी	-7637
▁स्क्र	-7638
▁ज्ञवाल	-7639
▁नसक्नु	-7640
▁गुरुङको	-7641
▁सर्लाही	-7642
स्टा	-7643
▁उनै	-7644
▁औसत	-7645
लेपछि	-7646
▁घरमै	-7647
▁भोली	-7648
▁सर्त	-7649
▁अवश्य	-7650
▁लोडसे	-7651
▁नेतृत्वले	-7652
तेर	-7653
रहनु	-7654
▁तौल	-7655
▁सिजन	-7656
▁हुम्	-7657
▁प्यारा	-7658
▁ओलम्पिक	-7659
▁बुढाथोकी	-7660
▁सुवेदीले	-7661
नीति	-7662
▁गर्दैछ	-7663
▁डिल्ली	-7664
▁कानुनको	-7665
▁रिट	-7666
न्दार	-7667
▁स्तरो	-7668
▁खोज्दा	-7669
▁भित्री	-7670
▁सदस्यमा	-7671
▁प्राधिकरणका	-7672
▁लोकतन्त्रको	-7673
ञ्जु	-7674
ुर्ण	-7675
▁भएँ	-7676
▁उसका	-7677
▁गणना	-7678
▁पेसा	-7679
▁बोनस	-7680
▁अनुवाद	-7681
▁प्रसंग	-7682
▁तर्जुमा	-7683
▁भन्नुहुन्छ	-7684
पावर	-7685
▁खाइ	-7686
▁ठाउ	-7687
▁ट्रया	-7688
▁धनकुटा	-7689
▁प्रचलित	-7690
▁सुत्केरी	-7691
▁अप्ठ्यारो	-7692
ay	-7693
▁अँ	-7694
▁अङ्ग	-7695
▁तेश्रो	-7696
▁प्रतिफल	-7697
▁युएई	-7698
▁लाखौं	-7699
▁घरपरिवार	-7700
▁कम्पनीलाई	-7701
ोमा	-7702
▁nbs	-7703
▁गरेँ	-7704
▁राजनि	-7705
▁अधिकतम	-7706
▁संस्थालाई	-7707
उप	-7708
सय	-7709
सीय	-7710
▁जमी	-7711
▁तेज	-7712
कारको	-7713
टारमा	-7714
▁कुर्	-7715
▁हरियो	-7716
▁त्यहाँबाट	-7717
निज	-7718
▁धमा	-7719
▁लिटर	-7720
▁विषा	-7721
▁सुने	-7722
▁दलहरु	-7723
▁बीचको	-7724
▁गर्भवती	-7725
▁दरबन्दी	-7726
▁गर्नेलाई	-7727
षक	-7728
किम	-7729
▁ठगी	-7730
▁नसक	-7731
▁सुम	-7732
▁धादिङ	-7733
▁तिवारी	-7734
▁पुस्तकाल	-7735
▁राजधानीको	-7736
▁विद्यादेवी	-7737
ुप्र	-7738
▁उमा	-7739
▁गम्	-7740
▁बसन्त	-7741
▁कागजात	-7742
▁निम्त्या	-7743
▁प्रणालीको	-7744
रोज	-7745
▁चुर	-7746
▁भेद	-7747
रहन्छ	-7748
▁खानी	-7749
▁गच्छ	-7750
▁ध्रु	-7751
ारुढ	-7752
▁सता	-7753
▁झण्डा	-7754
▁ठक्कर	-7755
▁पार्व	-7756
▁गर्नुको	-7757
▁कूटनीतिक	-7758
▁खेलाडीले	-7759
▁विश्वव्यापी	-7760
▁९९	-7761
▁काफ	-7762
▁अस्व	-7763
▁धुलो	-7764
▁मेहन	-7765
▁कुखुरा	-7766
▁जलविद्युत	-7767
▁महानिर्देशक	-7768
▁कार्यान्वयनका	-7769
ङ्ख	-7770
नाइटेड	-7771
▁उम्मे	-7772
▁सुन्दा	-7773
▁तिहारमा	-7774
▁अर्यालले	-7775
▁व्यवहारमा	-7776
ol	-7777
▁अछ	-7778
न्डा	-7779
▁जीत	-7780
ाउँमा	-7781
▁nbsp	-7782
▁बेहो	-7783
▁क्यामे	-7784
▁साम्राज्य	-7785
▁७१	-7786
रलाई	-7787
▁हालको	-7788
▁हास्य	-7789
▁करोडको	-7790
▁बाँडफा	-7791
▁संगठनको	-7792
▁हामीसँग	-7793
▁आयोजनाले	-7794
▁समस्यामा	-7795
▁ढिलाइ	-7796
▁अर्काे	-7797
▁आउँछन्	-7798
भाई	-7799
स्टिक	-7800
▁जुवा	-7801
▁धर्मा	-7802
सम्पर्क	-7803
▁हकप्रद	-7804
▁महासङ्घ	-7805
▁संबिधान	-7806
टनको	-7807
पिटल	-7808
लेन्स	-7809
▁तीर्थ	-7810
▁सुरुङ	-7811
▁ब्यवसाय	-7812
▁सत्तारुढ	-7813
▁नेपालीहरु	-7814
▁शान्तिपूर्ण	-7815
▁खट	-7816
▁९८	-7817
▁युक	-7818
▁सवार	-7819
▁संवत्	-7820
▁बाहिरी	-7821
▁उत्पादनको	-7822
▁फस	-7823
▁निश	-7824
▁म्याने	-7825
▁स्वरूप	-7826
▁स्तरोन्न	-7827
▁व्यवस्थापनमा	-7828
बको	-7829
▁खल	-7830
▁उड्डयन	-7831
▁हुनुको	-7832
▁कम्पनीमा	-7833
▁विशेषगरी	-7834
▁शरणार्थी	-7835
▁पुर्याउने	-7836
णमा	-7837
▁घुस	-7838
▁शीत	-7839
▁आर्य	-7840
केन्द्र	-7841
▁भाडामा	-7842
▁संसद्को	-7843
▁प्रस्थान	-7844
पञ्च	-7845
▁ठाँ	-7846
▁जनचेत	-7847
▁विगतका	-7848
▁गर्नुपर्	-7849
ac	-7850
तवार	-7851
भावी	-7852
▁फाई	-7853
▁फौज	-7854
▁इटहरी	-7855
▁नवराज	-7856
▁बाढीले	-7857
▁उद्योगी	-7858
▁जापानको	-7859
▁पुरस्कृत	-7860
▁ब्रो	-7861
▁माक्	-7862
▁रामे	-7863
▁सत्र	-7864
▁स्टक	-7865
▁सिन्ड	-7866
▁लक्ष्मण	-7867
▁सदस्यले	-7868
▁प्रियंका	-7869
▁सम्पुर्ण	-7870
द्वय	-7871
▁असुर	-7872
▁करको	-7873
▁सामेल	-7874
▁ग्लोबल	-7875
▁भोजपुर	-7876
▁चितवनको	-7877
▁जनाउँदै	-7878
▁खेलाडीको	-7879
▁माल्दिभ्	-7880
ङ्गे	-7881
▁उही	-7882
▁खपत	-7883
▁सहुल	-7884
▁उदेश्य	-7885
▁रोक्ने	-7886
▁शौचालय	-7887
षध	-7888
चको	-7889
▁ग्	-7890
▁आश्च	-7891
▁चल्न	-7892
▁जोशीले	-7893
▁मतगणना	-7894
▁चुनावको	-7895
▁लाइसेन्स	-7896
▁बताउनुहुन्छ	-7897
▁आया	-7898
▁ठूल	-7899
▁बधाई	-7900
▁महेश	-7901
▁ट्रेल	-7902
▁रक्सी	-7903
▁दिशामा	-7904
▁पटकपटक	-7905
रू	-7906
▁स्पे	-7907
▁इन्धन	-7908
▁लाखको	-7909
▁शर्माको	-7910
▁स्थायित्व	-7911
▁to	-7912
▁कं	-7913
▁धौ	-7914
▁कमला	-7915
▁नेताहरूले	-7916
▁स्थानीयवासी	-7917
ie	-7918
ँची	-7919
▁दुव	-7920
▁पछी	-7921
स्पति	-7922
▁मातहत	-7923
▁वैद्य	-7924
▁अन्ततः	-7925
▁कमाउने	-7926
▁जग्गामा	-7927
▁डरा	-7928
▁दिनका	-7929
▁नक्सा	-7930
▁पसलमा	-7931
▁मौद्रिक	-7932
▁वामपन्थी	-7933
▁६७	-7934
त्रि	-7935
वरको	-7936
वाहक	-7937
▁औषध	-7938
▁चिर	-7939
▁झगडा	-7940
▁दण्ड	-7941
▁मनाङ	-7942
▁महीना	-7943
▁कार्यको	-7944
▁सूचनाको	-7945
▁फेसबुकमा	-7946
▁खानु	-7947
▁पन्छ	-7948
▁देखाइ	-7949
▁भूगोल	-7950
▁पुरुषको	-7951
▁मन्दिरको	-7952
▁सवारीसाधन	-7953
▁हाराहारीमा	-7954
▁चाइ	-7955
दर्शन	-7956
न्दैन	-7957
▁जवान	-7958
▁जनआन्दोल	-7959
▁सम्मेलनको	-7960
डल	-7961
णु	-7962
▁सुरू	-7963
▁बुझाउन	-7964
▁बनाउँदा	-7965
▁लगाउँदै	-7966
▁महामन्त्री	-7967
▁राष्ट्रियता	-7968
भेट	-7969
▁उभ	-7970
▁जसो	-7971
▁झल्	-7972
▁पठन	-7973
▁बढा	-7974
वश्यक	-7975
▁शर्त	-7976
▁२०६८	-7977
▁जैविक	-7978
▁नमूना	-7979
▁नोक्स	-7980
▁बिहिबार	-7981
बिना	-7982
वन्ध	-7983
▁कसुर	-7984
▁भनिने	-7985
▁भट्टले	-7986
▁साधारणसभा	-7987
▁निर्देशनमा	-7988
▁जनस्वास्थ्य	-7989
तर	-7990
▁बढीको	-7991
▁खातामा	-7992
▁फर्कने	-7993
▁पश्चिमी	-7994
▁वीरगञ्ज	-7995
▁८८	-7996
सतमा	-7997
▁इला	-7998
▁जथा	-7999
▁वर्	-8000
▁प्रदर्शनी	-8001
जस्ती	-8002
▁जंगल	-8003
▁जित्	-8004
▁डाउन	-8005
▁नवीन	-8006
▁नामा	-8007
▁रेस्ट	-8008
▁नगर्नु	-8009
▁बरिष्ठ	-8010
▁अन्तरगत	-8011
िकै	-8012
▁सुनार	-8013
▁अन्यत्र	-8014
▁ज्येष्ठ	-8015
▁दिनभित्र	-8016
▁सहकार्यमा	-8017
▁छात्रवृत्ति	-8018
▁प्राधिकरणको	-8019
एनए	-8020
यिक	-8021
▁यि	-8022
▁असु	-8023
▁मधुमे	-8024
▁गुमाएका	-8025
▁प्राचीन	-8026
ेग	-8027
▁७८	-8028
▁ऐनको	-8029
▁शोषण	-8030
विज्ञान	-8031
▁विषयको	-8032
▁प्रकृया	-8033
▁समाजलाई	-8034
▁कालोपत्र	-8035
▁v	-8036
पाइ	-8037
प्स	-8038
▁पोल	-8039
दिन्छ	-8040
माथिको	-8041
▁केदार	-8042
▁बलात्	-8043
▁खुलासा	-8044
▁परिक्षण	-8045
▁संस्कृत	-8046
▁एड	-8047
मध्य	-8048
▁ताम	-8049
ञ्चार	-8050
▁read	-8051
▁फोहर	-8052
▁२०६४	-8053
▁नसकेका	-8054
▁प्रेमी	-8055
▁मेलामा	-8056
▁लाग्नु	-8057
▁तत्कालै	-8058
▁दृढ	-8059
▁ढाँच	-8060
▁थालनी	-8061
▁युनिभ	-8062
▁तपाईलाई	-8063
▁वीरगन्ज	-8064
▁उद्योगमा	-8065
▁बेवास्ता	-8066
▁पद्	-8067
राज्य	-8068
स्मिक	-8069
बारेमा	-8070
▁गिरिजा	-8071
▁छोराको	-8072
▁रामेछा	-8073
ाउनुपर्छ	-8074
▁अक्टोबर	-8075
▁झैं	-8076
▁लघुव	-8077
▁सुरेश	-8078
▁मुद्धा	-8079
▁शाहीले	-8080
▁जग्गाको	-8081
▁पर्नेमा	-8082
▁काँग्रेसले	-8083
▁विश्वकर्मा	-8084
ुस	-8085
िएर	-8086
िकन	-8087
ंदैन	-8088
तेको	-8089
म्या	-8090
हानी	-8091
▁डाय	-8092
आफ्नो	-8093
▁छोरो	-8094
▁ज्वा	-8095
▁निश्च	-8096
▁सार्थ	-8097
▁आश्चर्य	-8098
▁नसकेपछि	-8099
▁निर्मित	-8100
▁भाइटीका	-8101
औषध	-8102
▁आपू	-8103
▁दिल	-8104
▁तैपनि	-8105
▁फार्म	-8106
▁हल्का	-8107
प्ताहिक	-8108
▁उद्यमी	-8109
▁कमाएको	-8110
▁विवादमा	-8111
▁कार्यपालिकाको	-8112
वाङ	-8113
▁आयल	-8114
▁यात	-8115
▁अनौठो	-8116
▁आजदेखि	-8117
▁युवालाई	-8118
▁अभियोगमा	-8119
▁हेलिकप्टर	-8120
▁गिर	-8121
अर्का	-8122
योजित	-8123
▁कुशल	-8124
▁सयौं	-8125
▁आफ्नी	-8126
▁ढुक्क	-8127
▁दुर्गम	-8128
▁प्रेरित	-8129
▁फुटबलको	-8130
▁बिमस्टेक	-8131
▁न्यूनीकरण	-8132
र्सा	-8133
बाहिर	-8134
▁आम्दान	-8135
▁हेर्दै	-8136
जिर	-8137
सामु	-8138
▁चोर	-8139
क्ष्मी	-8140
▁अग्लो	-8141
▁सार्ब	-8142
▁बैठकको	-8143
▁अफ्रिका	-8144
▁विस्फोट	-8145
▁कार्यालयबाट	-8146
▁शर	-8147
▁थिई	-8148
▁दुब	-8149
करणको	-8150
ुकम्प	-8151
▁ठुला	-8152
▁एम्बु	-8153
▁एमाओवादी	-8154
डोर	-8155
▁नच	-8156
्योर	-8157
▁औचित	-8158
▁मापन	-8159
संहिता	-8160
▁सुधारका	-8161
▁बिद्यालय	-8162
▁सुरक्षाका	-8163
▁सामान्यतया	-8164
न्दो	-8165
▁कुरै	-8166
▁उद्यम	-8167
उनुपर्छ	-8168
▁संगठित	-8169
▁संचालनमा	-8170
णको	-8171
ताप	-8172
▁८२	-8173
▁चीनका	-8174
▁प्रथा	-8175
▁बाह्र	-8176
▁चिन्ति	-8177
▁आश्वासन	-8178
▁राखिएका	-8179
▁मन्त्रिपरिषद	-8180
▁e	-8181
▁वेद	-8182
▁आरम्भ	-8183
▁खत्री	-8184
▁त्रिवि	-8185
▁राज्यमा	-8186
▁मङ्गलबार	-8187
▁साप्ताहिक	-8188
▁सञ्चारकर्मी	-8189
जिन	-8190
▁छेउ	-8191
▁दाम	-8192
▁घुमा	-8193
▁मच्च	-8194
▁जेष्ठ	-8195
▁नहोस्	-8196
▁बन्नु	-8197
▁नदिएको	-8198
▁परिकार	-8199
▁बुधवार	-8200
▁गृहमन्त्र	-8201
वु	-8202
झैं	-8203
▁खोप	-8204
▁थाह	-8205
▁लुक	-8206
विराज	-8207
सिएसन	-8208
▁पाउनेछन्	-8209
▁बनाउनुपर्ने	-8210
आउट	-8211
्यौ	-8212
मोहन	-8213
▁नलि	-8214
▁रजि	-8215
▁सरा	-8216
▁अनुमोदन	-8217
▁महिनादेखि	-8218
▁विज्ञप्ति	-8219
▁सङ्क	-8220
▁निकासी	-8221
▁मनोनयन	-8222
▁साधनको	-8223
▁हात्ती	-8224
▁सिन्डिकेट	-8225
ँै	-8226
िङ	-8227
त्सव	-8228
किङ्ग	-8229
▁२००७	-8230
▁गर्छन	-8231
▁नदेखि	-8232
कांक्षा	-8233
▁निर्भर	-8234
▁गरेकोमा	-8235
▁नोभेम्बर	-8236
वधि	-8237
▁८४	-8238
राजा	-8239
▁मर्	-8240
पर्धा	-8241
▁वाग्	-8242
▁भिटाम	-8243
▁सुनिल	-8244
▁टोलीका	-8245
▁गृहकार्य	-8246
▁समुदायलाई	-8247
▁आदानप्रदान	-8248
iv	-8249
▁एभर	-8250
लेक्ट	-8251
▁कमाइ	-8252
▁गरिनु	-8253
▁गान्ध	-8254
▁यसैले	-8255
अध्यक्ष	-8256
▁निराशा	-8257
▁सम्प्र	-8258
▁लगायतले	-8259
▁युनाइटेड	-8260
▁नेपालगन्ज	-8261
▁सञ्चालनका	-8262
आएको	-8263
तर्फी	-8264
▁मानेर	-8265
▁सहरमा	-8266
▁हितमा	-8267
▁ग्रन्थ	-8268
▁सरसफाई	-8269
▁नेटवर्क	-8270
▁मेलमिला	-8271
▁अर्कोतिर	-8272
▁प्रहरीमा	-8273
▁विमानस्थलको	-8274
▁खेर	-8275
वाहित	-8276
▁माने	-8277
▁कस्ता	-8278
▁सुवास	-8279
▁त्यहीँ	-8280
▁मनाइने	-8281
▁कारागार	-8282
▁निकाल्ने	-8283
शरण	-8284
▁फार	-8285
नान्स	-8286
▁महान्	-8287
▁गम्भिर	-8288
▁तिमीले	-8289
▁चिन्तित	-8290
▁पौडेलको	-8291
▁व्यवस्थाको	-8292
ताल	-8293
क्या	-8294
न्सको	-8295
▁पानीमा	-8296
▁सम्ममा	-8297
▁राजविराज	-8298
▁साँस्कृतिक	-8299
धनको	-8300
▁अब्	-8301
▁गुज	-8302
▁चीनमा	-8303
▁मुखमा	-8304
▁क्लबले	-8305
बुल	-8306
ारे	-8307
ment	-8308
मोचन	-8309
श्मा	-8310
▁जता	-8311
▁पारस	-8312
▁रारा	-8313
▁तापनि	-8314
▁भवनमा	-8315
▁अन्याय	-8316
▁लाग्थ्यो	-8317
पनको	-8318
पादन	-8319
▁इस्	-8320
प्रेर	-8321
▁ट्वी	-8322
▁रोका	-8323
▁अन्यथा	-8324
तापूर्वक	-8325
▁आकस्मिक	-8326
▁जिज्ञासा	-8327
▁सम्भावित	-8328
▁महेन्द्रनगर	-8329
११	-8330
ंगे	-8331
धनी	-8332
▁झड	-8333
डेल्	-8334
▁कठि	-8335
▁पाहु	-8336
स्वरुप	-8337
▁मेलम्	-8338
▁चिन्तन	-8339
▁जाजरको	-8340
▁तालिका	-8341
▁आइरहेका	-8342
▁बसपार्क	-8343
▁सुनुवार	-8344
▁हाइड्रो	-8345
▁निरीक्षण	-8346
ौटी	-8347
▁पल्ट	-8348
▁पुर्ण	-8349
पत्रिका	-8350
▁छुट्टा	-8351
▁बाँच्न	-8352
▁समर्थक	-8353
▁दायरामा	-8354
लान	-8355
▁बसाइ	-8356
▁सिधै	-8357
▁पर्वको	-8358
▁भगवान्	-8359
▁समुद्र	-8360
पछी	-8361
शिया	-8362
▁जाम	-8363
▁बजेर	-8364
▁परिसू	-8365
▁सलमान	-8366
▁औचित्य	-8367
▁महाराज	-8368
▁उद्योगको	-8369
▁मानवअधिकार	-8370
▁वढ	-8371
▁गरेन	-8372
▁धेरैको	-8373
▁विपरित	-8374
▁सल्यान	-8375
विरुद्धको	-8376
केश	-8377
सुर	-8378
▁झै	-8379
▁इमान	-8380
▁दिपा	-8381
▁बहुम	-8382
▁एकाएक	-8383
▁आयोगमा	-8384
▁उठाएको	-8385
▁गाउँको	-8386
▁पाइँदैन	-8387
▁आयोजनाका	-8388
दले	-8389
▁८३	-8390
कामा	-8391
ेजमा	-8392
▁सम्पर्	-8393
लम	-8394
ost	-8395
वाको	-8396
सिनो	-8397
चिएको	-8398
▁मान्	-8399
▁बिष्ट	-8400
▁बोलाएर	-8401
▁यतिखेर	-8402
▁समग्रमा	-8403
▁हराउँदै	-8404
▁परीक्षामा	-8405
▁पृष्ठभूमि	-8406
▁लिमिटेडले	-8407
▁साहित्यको	-8408
▁काठमाडौँमा	-8409
पाठ	-8410
बाजी	-8411
▁गौरी	-8412
▁पायो	-8413
▁फाइल	-8414
▁शिकार	-8415
▁निशुल्क	-8416
▁मान्छेलाई	-8417
रहित	-8418
▁थप्	-8419
▁ठप्प	-8420
▁नानी	-8421
▁उपयोगी	-8422
▁नपाइने	-8423
▁सामग्र	-8424
▁सरस्वती	-8425
▁माओवादीका	-8426
▁ओखल	-8427
▁गोल्	-8428
▁च्याट	-8429
▁विरामी	-8430
▁पाउँछन्	-8431
बेर	-8432
▁६९	-8433
न्मुख	-8434
▁आपसमा	-8435
▁शत्रु	-8436
▁सप्तरी	-8437
▁विद्रोह	-8438
▁किसानलाई	-8439
ोजे	-8440
ख्यक	-8441
▁सरि	-8442
▁विद्	-8443
वासीले	-8444
▁बृद्ध	-8445
▁सुदृढ	-8446
▁हजारभन्दा	-8447
▁काठमाडौंका	-8448
▁गैं	-8449
▁अछाम	-8450
▁हेलि	-8451
इरहेका	-8452
▁दिन्छन्	-8453
▁ब्राजिल	-8454
▁घोषणापत्र	-8455
▁सुरक्षाकर्मी	-8456
सकै	-8457
ितीय	-8458
ख्यात	-8459
▁दम्प	-8460
▁भैलो	-8461
▁राउत	-8462
▁अवतरण	-8463
▁छायाँ	-8464
▁सस्था	-8465
▁नेपालकै	-8466
▁सडकखण्ड	-8467
▁चाहन्छन्	-8468
▁मन्त्रिपरिषद्को	-8469
im	-8470
खी	-8471
▁g	-8472
▁माता	-8473
हुँदैन	-8474
▁कुनैपनि	-8475
▁अनौपचारिक	-8476
▁जिल्लाबाट	-8477
र्पोर	-8478
▁सुखी	-8479
▁कुवेत	-8480
▁आमालाई	-8481
▁बुझाउने	-8482
▁सहयोगका	-8483
▁फर्किएका	-8484
▁सदस्यहरु	-8485
▁महिनासम्म	-8486
▁बलात्कारपछि	-8487
ाइमा	-8488
▁अडि	-8489
▁चुप	-8490
▁हटा	-8491
ालीमा	-8492
▁पाटो	-8493
▁खाएको	-8494
▁बन्दी	-8495
▁कुराहरू	-8496
▁निकालेर	-8497
▁भीमदत्त	-8498
▁प्रकृतिको	-8499
शो	-8500
र्कि	-8501
बीचमा	-8502
▁डडेल्	-8503
▁प्रोट	-8504
▁ज्ञवालीले	-8505
▁विद्यालयले	-8506
धम	-8507
▁घन	-8508
▁भेग	-8509
▁माई	-8510
▁१९६	-8511
नाल्ड	-8512
▁ऐनमा	-8513
▁चलाइ	-8514
▁फ्रि	-8515
▁अरुको	-8516
▁कमाउन	-8517
▁टोलीको	-8518
▁स्रष्टा	-8519
▁महासंघले	-8520
▁संशोधनको	-8521
▁विषयवस्तु	-8522
लता	-8523
▁बटु	-8524
▁अराज	-8525
▁कमरेड	-8526
▁जीवित	-8527
▁तिनलाई	-8528
▁अभियानको	-8529
▁अवस्थाको	-8530
▁नाकाबन्द	-8531
▁शुक्रवार	-8532
दमा	-8533
काण्ड	-8534
▁गर्व	-8535
▁भलिबल	-8536
▁माथिको	-8537
▁सुन्ने	-8538
▁एप	-8539
▁माह	-8540
▁रेश	-8541
▁खत्र	-8542
▁अदुवा	-8543
▁चलखेल	-8544
▁बस्दा	-8545
▁अरुलाई	-8546
▁आजसम्म	-8547
▁नमिल्ने	-8548
▁निकायका	-8549
▁प्रदूषण	-8550
▁संगीतकार	-8551
▁प्रतिनिधिसभाको	-8552
▁अट	-8553
▁एनस	-8554
▁जिक	-8555
सम्मत	-8556
▁गर्मी	-8557
▁उन्मुख	-8558
▁खेलेका	-8559
▁गाउँले	-8560
▁निबन्ध	-8561
▁बनेपछि	-8562
▁खोजिएको	-8563
▁डडेल्धु	-8564
▁जानुपर्ने	-8565
सम्प	-8566
पुरका	-8567
▁नसके	-8568
▁पुनरा	-8569
▁बिचार	-8570
▁काउन्सि	-8571
▁युट्युब	-8572
▁सङ्घर्ष	-8573
▁भानुभक्त	-8574
▁विधेयकमा	-8575
▁अन्तर्वार्ता	-8576
पारी	-8577
▁खर्	-8578
▁चारै	-8579
▁नेदर	-8580
▁रावल	-8581
▁सफाइ	-8582
पानीको	-8583
▁जितेर	-8584
▁समक्ष	-8585
▁भित्रै	-8586
▁समाजसेवी	-8587
▁कोइरालाको	-8588
▁उपाध्यक्षमा	-8589
ड्रिड	-8590
▁बीपी	-8591
▁भावी	-8592
▁आवासीय	-8593
▁दिनपछि	-8594
▁लागतमा	-8595
▁स्तरको	-8596
▁जथाभावी	-8597
▁दक्षिणी	-8598
▁देखाउँछ	-8599
▁भिटामिन	-8600
▁वेबसाइट	-8601
▁समेटिएको	-8602
▁गठबन्धनको	-8603
▁उपप्रधानमन्त्री	-8604
च्	-8605
ूत	-8606
धमा	-8607
▁माउ	-8608
▁हड्	-8609
▁मसँग	-8610
▁माथी	-8611
विक्रम	-8612
▁स्नातक	-8613
▁अमेरिकाका	-8614
▁h	-8615
▁खर	-8616
▁८१	-8617
ट्टि	-8618
▁लोप	-8619
र्वेद	-8620
▁उतार	-8621
▁टेवा	-8622
▁बिरा	-8623
▁सकेर	-8624
▁सोधे	-8625
▁मुम्ब	-8626
ीनारायण	-8627
▁बेच्ने	-8628
▁अवलम्बन	-8629
op	-8630
पुल	-8631
▁खुद	-8632
▁थ्री	-8633
▁हालेर	-8634
▁भुकम्प	-8635
▁मुनाफा	-8636
▁ज्ञवाली	-8637
▁डोनाल्ड	-8638
▁दास	-8639
▁गोल्ड	-8640
▁दार्चु	-8641
▁हिमालय	-8642
▁कक्षामा	-8643
▁शिविरमा	-8644
▁हेटौंडा	-8645
▁सक्नेछन्	-8646
▁समाधानका	-8647
जीव	-8648
▁लम्	-8649
ारोपण	-8650
▁अमृत	-8651
▁नेवि	-8652
▁नौलो	-8653
▁बास्	-8654
▁जोड्न	-8655
▁ब्रह्	-8656
▁सेवाका	-8657
▁परिसरमा	-8658
▁विदेशबाट	-8659
▁परिकल्पना	-8660
▁लिनुपर्ने	-8661
▁एसि	-8662
▁कमै	-8663
▁बसे	-8664
▁गर्द	-8665
▁खाँचो	-8666
▁बाँके	-8667
▁बिर्स	-8668
▁भएकाे	-8669
▁सारेको	-8670
▁जिन्दगी	-8671
▁थाइल्याण्ड	-8672
▁साफ	-8673
▁मोटो	-8674
▁कटौती	-8675
▁चन्दा	-8676
▁निर्द	-8677
▁पटकको	-8678
▁गच्छदार	-8679
▁सुनुवाई	-8680
▁बेलायतको	-8681
साङ	-8682
मानको	-8683
▁गरिन	-8684
▁सकिए	-8685
▁संघिय	-8686
▁सतर्क	-8687
▁महादेव	-8688
▁मर्यादा	-8689
▁भण्डारीको	-8690
बमा	-8691
ेटी	-8692
खाले	-8693
▁बिति	-8694
▁दोब्बर	-8695
▁प्रयोजन	-8696
▁विभाजित	-8697
▁हत्याको	-8698
▁समृद्धिका	-8699
▁एशो	-8700
▁वक्त	-8701
▁हाउस	-8702
▁भेटमा	-8703
▁स्पेन	-8704
▁देख्ने	-8705
▁श्रीमत	-8706
▁सन्दीप	-8707
▁हुन्छन	-8708
▁सहमतिमा	-8709
▁सालदेखि	-8710
ष्टिक	-8711
▁गरौँ	-8712
▁बाग्	-8713
▁२०१२	-8714
▁चाँडो	-8715
▁बढाएर	-8716
▁विनाश	-8717
▁सहारा	-8718
▁टुक्रा	-8719
▁व्यवसायीको	-8720
सकेकी	-8721
▁एसएल	-8722
▁नगरे	-8723
▁हर्ष	-8724
्याएको	-8725
▁ट्रफी	-8726
▁भरपर्	-8727
▁मधुमेह	-8728
▁ट्याक्सी	-8729
▁सार्बजनिक	-8730
पोत	-8731
जीकरण	-8732
▁अनसन	-8733
▁इण्ड	-8734
▁गतेबाट	-8735
▁च्यानल	-8736
▁बुहारी	-8737
▁केटाकेट	-8738
▁सँगसँगै	-8739
▁बङ्गलादेश	-8740
▁व्यावहारिक	-8741
▁हुँदाहुँदै	-8742
राही	-8743
सन्ध	-8744
▁मृतक	-8745
▁२०१३	-8746
▁एन्फा	-8747
▁थाल्छ	-8748
▁बन्दर	-8749
▁सुनेर	-8750
▁ध्यानमा	-8751
▁निमार्ण	-8752
▁महासंघको	-8753
▁सफ्टवेयर	-8754
ईं	-8755
धुर	-8756
ेन्ज	-8757
▁आशि	-8758
▁नजर	-8759
▁याइ	-8760
▁लोग	-8761
▁नियत	-8762
▁परिमाण	-8763
▁सिस्टम	-8764
▁टोलीलाई	-8765
▁सहुलियत	-8766
▁बिरामीलाई	-8767
यका	-8768
बुटी	-8769
▁छिर	-8770
▁कर्पोर	-8771
▁काफ्ले	-8772
▁बताएकी	-8773
▁प्रेममा	-8774
▁मूल्याङ्कन	-8775
टेको	-8776
▁शिला	-8777
ुरेन्ट	-8778
▁अंकले	-8779
▁डलरको	-8780
▁रकमको	-8781
▁मानन्ध	-8782
▁नम्बरमा	-8783
▁नलाग्ने	-8784
जल	-8785
दिप	-8786
म्पा	-8787
▁फाल्	-8788
▁जुत्ता	-8789
▁जनचेतना	-8790
▁भोलिपल्ट	-8791
सिन	-8792
▁कफी	-8793
▁रेस	-8794
▁गरें	-8795
▁वृत्त	-8796
▁सिंगो	-8797
▁अधिनायक	-8798
▁अधिवक्ता	-8799
▁कोरियाले	-8800
▁समितिलाई	-8801
▁पृथ्वीनारायण	-8802
सुन	-8803
▁खग	-8804
न्यु	-8805
यरिङ	-8806
▁भिम	-8807
▁विन	-8808
▁खुकु	-8809
▁गीतकार	-8810
▁प्रवासी	-8811
▁वस्तुको	-8812
▁अध्ययनका	-8813
मिर	-8814
हारा	-8815
▁चिज	-8816
▁छरि	-8817
▁नाघ	-8818
▁रवी	-8819
लिएका	-8820
▁मिठा	-8821
▁वहाँ	-8822
▁हानी	-8823
▁आत्मसा	-8824
▁पेनाल्	-8825
▁सङ्गीत	-8826
▁बार्षिक	-8827
▁रेग्मीले	-8828
▁तिनीहरूले	-8829
▁राज्यमन्त्री	-8830
▁प्रतिस्पर्धामा	-8831
बिच	-8832
योजक	-8833
▁आश्र	-8834
▁उदार	-8835
▁भनिए	-8836
▁चुरोट	-8837
▁निराश	-8838
▁खोजीमा	-8839
▁हिन्दी	-8840
▁प्रधाना	-8841
▁विश्वविद्यालयका	-8842
ँदो	-8843
▁इरान	-8844
▁सहिद	-8845
▁सुमन	-8846
▁बेग्लै	-8847
▁कतिपयले	-8848
▁महिनाअघि	-8849
ut	-8850
रिय	-8851
▁गोरु	-8852
▁काटेर	-8853
▁चिन्ह	-8854
▁निक्कै	-8855
▁अनुशासन	-8856
▁कोरियाको	-8857
▁पाठ्यक्रम	-8858
▁अत्यावश्यक	-8859
▁उपराष्ट्रपति	-8860
▁गर्नुपर्नेमा	-8861
टिन	-8862
पास	-8863
▁कटु	-8864
▁कलम	-8865
▁घाई	-8866
▁लेन	-8867
▁ड्राइ	-8868
▁थपिएको	-8869
▁हदसम्म	-8870
▁भारतलाई	-8871
▁विविधता	-8872
▁सन्तुलन	-8873
▁गभ	-8874
▁गरीब	-8875
न्द्रा	-8876
▁बढेका	-8877
▁दुईजना	-8878
▁सक्छौं	-8879
▁तापक्रम	-8880
▁माक्र्स	-8881
▁संसारको	-8882
▁रूपान्तरण	-8883
▁पल	-8884
ाचार	-8885
▁जिता	-8886
▁ठूलै	-8887
▁नचाह	-8888
▁पेरि	-8889
▁कोषको	-8890
▁दिएकी	-8891
▁गाडीमा	-8892
▁एकअर्का	-8893
▁प्रशोधन	-8894
▁शुरुवात	-8895
▁त्यसमाथि	-8896
१५	-8897
ड्स	-8898
ूला	-8899
▁खोल्	-8900
▁रुपा	-8901
ेश्वरी	-8902
▁भवनको	-8903
▁मगरले	-8904
▁मध्या	-8905
▁अधिवेश	-8906
क्रान्ति	-8907
▁सदस्यता	-8908
▁अध्यादेश	-8909
▁विश्वस्त	-8910
▁गठबन्धनका	-8911
▁साहित्यमा	-8912
जू	-8913
गामी	-8914
▁उक्	-8915
▁पदको	-8916
▁अबस्था	-8917
▁सोलुखु	-8918
बित्तिकै	-8919
▁मुस्ताङ	-8920
▁कञ्चनपुरको	-8921
ऊँ	-8922
७६	-8923
क्षि	-8924
▁मुआ	-8925
▁एभरे	-8926
▁वरपर	-8927
▁धमाधम	-8928
▁कलेजमा	-8929
▁जीवनका	-8930
▁सक्नुपर्छ	-8931
▁राष्ट्रपतिको	-8932
नाक	-8933
▁In	-8934
▁९३	-8935
▁९४	-8936
न्दन	-8937
▁मोर्च	-8938
▁कामहरु	-8939
▁योजनाको	-8940
▁नारायणगढ	-8941
▁न्युयोर्क	-8942
क्व	-8943
आईजी	-8944
कानु	-8945
माको	-8946
याले	-8947
▁अप्रिल	-8948
▁किन्ने	-8949
▁खटिएका	-8950
▁पर्छन्	-8951
▁बिर्ता	-8952
▁भेदभाव	-8953
▁दर्शकले	-8954
▁दाहालको	-8955
▁ब्रान्ड	-8956
▁स्कुलमा	-8957
▁बेलायतमा	-8958
अर	-8959
गृह	-8960
▁लौ	-8961
विना	-8962
▁खाडी	-8963
▁घोडा	-8964
▁शहरी	-8965
▁अङ्ग्र	-8966
▁तराईका	-8967
▁बेलुकी	-8968
▁इन्डोने	-8969
▁भारतसँग	-8970
▁पूर्णिमा	-8971
▁निर्देशित	-8972
▁अनुसन्धानका	-8973
छे	-8974
अगा	-8975
नेस	-8976
▁इञ्	-8977
मानमा	-8978
▁आजका	-8979
▁इमेल	-8980
▁उपमे	-8981
▁बाजा	-8982
▁सुधा	-8983
▁एकदिन	-8984
▁नम्वर	-8985
▁पहिरोले	-8986
▁सापकोटाले	-8987
▁सिद्धार्थ	-8988
▁निर्माणाधीन	-8989
▁नक	-8990
▁घरका	-8991
▁महाअ	-8992
नेश्वर	-8993
ेजस्तो	-8994
▁भोग्नु	-8995
▁संचालक	-8996
▁शिक्षकको	-8997
▁सिन्धुली	-8998
▁महाशाखाले	-8999
बाटो	-9000
भएको	-9001
र्टर	-9002
▁गगन	-9003
▁रजत	-9004
वर्ती	-9005
▁उपवि	-9006
▁जिकिर	-9007
▁पिडित	-9008
▁मिर्ग	-9009
▁संजाल	-9010
▁सावित	-9011
▁बाक्लो	-9012
▁रणनीतिक	-9013
▁लामिछानेले	-9014
डका	-9015
▁घाउ	-9016
▁ठकु	-9017
▁त्रै	-9018
लेश्वर	-9019
▁डान्स	-9020
▁बुझेर	-9021
▁आँखामा	-9022
▁स्वरमा	-9023
▁प्रचण्डको	-9024
ँटा	-9025
एकै	-9026
घ्र	-9027
▁दूर	-9028
▁बुटव	-9029
▁एसएसपी	-9030
▁कालिका	-9031
▁ढुङ्गा	-9032
▁तीमध्ये	-9033
▁नामावली	-9034
धना	-9035
▁वो	-9036
वेला	-9037
▁बोली	-9038
▁लाइफ	-9039
▁खुलेर	-9040
▁जबर्ज	-9041
▁साक्षर	-9042
▁दलहरुले	-9043
▁क्षेत्रले	-9044
ुग	-9045
▁८६	-9046
कारले	-9047
▁मुग्	-9048
▁छेउमा	-9049
▁तेक्वा	-9050
▁साझेदार	-9051
▁प्रमुखको	-9052
▁अनियमितता	-9053
▁न्यौपानेले	-9054
लाउन	-9055
▁उजा	-9056
स्टार	-9057
▁गएरा	-9058
▁पिसाब	-9059
▁दुख्ने	-9060
▁एजेन्डा	-9061
▁लागेपछि	-9062
▁संरचनामा	-9063
अस	-9064
दह	-9065
वले	-9066
न्दि	-9067
▁निरु	-9068
▁लम्स	-9069
▁सहरी	-9070
▁घर्ती	-9071
▁गर्नाले	-9072
▁दलहरूले	-9073
▁बालकृष्ण	-9074
▁सेमिफाइनल	-9075
षित	-9076
▁अफर	-9077
▁आवत	-9078
▁एकदम	-9079
▁नाता	-9080
▁सेल्	-9081
▁सबैका	-9082
▁भरिएको	-9083
▁सुरुवा	-9084
▁एजेण्डा	-9085
▁परिसूचक	-9086
▁प्रस्तुती	-9087
▁राष्ट्रका	-9088
ूर	-9089
हाङ	-9090
▁पदम	-9091
▁२०६३	-9092
▁शिर्ष	-9093
▁ढङ्गले	-9094
▁भण्डारण	-9095
▁अध्यक्षता	-9096
▁बिद्यार्थी	-9097
खान	-9098
चालित	-9099
▁अफिस	-9100
न्तब्य	-9101
▁थुनामा	-9102
▁फर्केर	-9103
▁भ्रष्ट	-9104
▁धेरैलाई	-9105
▁डिसेम्बर	-9106
▁खेलाडीलाई	-9107
▁महिनाभित्र	-9108
ul	-9109
ुण	-9110
१२	-9111
लिप	-9112
▁नह	-9113
▁७९	-9114
▁शार	-9115
र्पित	-9116
▁सबैमा	-9117
▁सिमित	-9118
▁पारदर्शी	-9119
▁स्याङ्जा	-9120
▁महिनावारी	-9121
out	-9122
फर्म	-9123
▁मस्	-9124
▁फिफा	-9125
▁एल्बम	-9126
▁विपद्	-9127
▁करोडौं	-9128
▁टोलीमा	-9129
▁याताया	-9130
▁किसानको	-9131
▁स्वभाविक	-9132
एमई	-9133
▁लहर	-9134
▁सना	-9135
िमण्ड	-9136
▁सिलव	-9137
▁घोराही	-9138
▁नगर्दा	-9139
▁दुनियाँ	-9140
▁ल्याउनु	-9141
▁तुरुन्तै	-9142
सेर	-9143
▁नहर	-9144
▁कोशी	-9145
▁घटेर	-9146
▁चापा	-9147
▁ट्रक	-9148
▁रद्द	-9149
▁ह्वा	-9150
पालीका	-9151
▁जानेछ	-9152
▁तेह्र	-9153
▁हजारको	-9154
▁निष्पक्ष	-9155
▁प्रशासकीय	-9156
▁स्थानीयको	-9157
▁हान	-9158
▁थालि	-9159
▁घाईते	-9160
▁स्वतः	-9161
▁स्वाद	-9162
▁पब्लिक	-9163
▁युवाको	-9164
▁ब्याजदर	-9165
▁साथीहरु	-9166
▁मुक्तिनाथ	-9167
नजर	-9168
स्म	-9169
▁०५	-9170
▁सरह	-9171
▁प्रवि	-9172
▁भनेकै	-9173
▁लगेको	-9174
▁ज्यादै	-9175
▁राप्ती	-9176
▁विन्दु	-9177
▁अर्काको	-9178
▁अहिलेका	-9179
▁सहमतिको	-9180
▁देखाउँदै	-9181
गंगा	-9182
▁धरा	-9183
क्ताको	-9184
त्तिको	-9185
स्वरूप	-9186
▁प्राण	-9187
▁सफलताको	-9188
पाती	-9189
▁शही	-9190
खुवास	-9191
▁सरोज	-9192
▁बताउदै	-9193
▁वर्षौं	-9194
▁सवालमा	-9195
▁देखेपछि	-9196
माई	-9197
▁छर	-9198
ब्या	-9199
▁मृग	-9200
हार्य	-9201
▁उठेर	-9202
▁निधि	-9203
▁भइन्	-9204
▁सक्दछ	-9205
▁इलेक्ट	-9206
▁यसकारण	-9207
▁सेनाका	-9208
▁गाविसमा	-9209
▁संभावना	-9210
▁सत्ताको	-9211
▁जन्मिएका	-9212
▁महोत्तरी	-9213
▁युनिभर्सि	-9214
▁व्यवस्थापनका	-9215
बस	-9216
ैयाँ	-9217
▁पहे	-9218
▁चुनौति	-9219
▁टेलिफोन	-9220
▁अध्ययनले	-9221
▁उल्लेखित	-9222
▁गरिदिएको	-9223
▁डटक	-9224
भियोग	-9225
▁खाँदा	-9226
▁आउँदैन	-9227
▁पुग्नु	-9228
▁मोहम्म	-9229
▁साताको	-9230
▁कार्कीको	-9231
▁भट्टराईको	-9232
▁वातावरणमा	-9233
ीति	-9234
▁लभ	-9235
विरोध	-9236
स्रोत	-9237
▁लडाइ	-9238
▁खोलेर	-9239
▁नामले	-9240
▁पुलको	-9241
▁बागलु	-9242
सङ्ख्या	-9243
▁मध्यनजर	-9244
▁विभागमा	-9245
्ट	-9246
▁सल्	-9247
▁फूलको	-9248
▁प्रोजे	-9249
▁किनारमा	-9250
▁बस्तीमा	-9251
▁समर्पित	-9252
▁सोलुखुम्बु	-9253
▁तप	-9254
थिन्	-9255
निको	-9256
▁शोक	-9257
▁गायन	-9258
▁ताला	-9259
▁दाँत	-9260
▁वाचन	-9261
▁सेती	-9262
▁हुला	-9263
▁स्वाय	-9264
▁डाउनलोड	-9265
▁देशभरका	-9266
▁निवासमा	-9267
▁राहदानी	-9268
▁संसारका	-9269
▁अतिक्रमण	-9270
▁निमन्त्र	-9271
▁बर्खास्त	-9272
▁सार्वभौम	-9273
दण्ड	-9274
बुद्ध	-9275
ेन्टी	-9276
ौलाले	-9277
▁घरधु	-9278
▁मेस्	-9279
▁उल्लं	-9280
▁खोज्नु	-9281
▁गिरीले	-9282
▁बढाइएको	-9283
▁कलाकारको	-9284
▁पीडितलाई	-9285
▁प्रतिशतभन्दा	-9286
टिभ	-9287
हीं	-9288
▁९२	-9289
नुभएन	-9290
▁पढेर	-9291
▁पाएँ	-9292
▁मजबु	-9293
▁किनेर	-9294
▁त्रैमा	-9295
▁संहिता	-9296
▁बिरुद्ध	-9297
▁महोत्सवमा	-9298
पछ	-9299
गारी	-9300
ष्ठा	-9301
▁छैट	-9302
▁निव	-9303
▁थारू	-9304
▁दिक्त	-9305
पश्चात्	-9306
▁काट्ने	-9307
▁फाउण्ड	-9308
▁सोमवार	-9309
▁हालतमा	-9310
▁आयुर्वेद	-9311
ंखला	-9312
पीको	-9313
▁येश	-9314
▁डेभल	-9315
▁साटो	-9316
▁कायमै	-9317
▁दोहोरी	-9318
▁लगिएको	-9319
▁मुआब्जा	-9320
▁सामुहिक	-9321
▁अन्र्तगत	-9322
▁बित्तिकै	-9323
▁अपरिहार्य	-9324
▁गठबन्धनले	-9325
▁अधिकारीहरुले	-9326
▁ओझ	-9327
▁उति	-9328
▁2018	-9329
▁तथापि	-9330
▁तीजको	-9331
▁पढ्दा	-9332
▁नाराका	-9333
▁पालिका	-9334
▁कारखाना	-9335
▁विद्रोही	-9336
▁सम्झौतामा	-9337
ter	-9338
नुका	-9339
र्नर	-9340
▁कदर	-9341
▁यहा	-9342
▁हाे	-9343
▁खड्ग	-9344
▁२०१०	-9345
▁युगमा	-9346
▁वर्गको	-9347
▁मिडियामा	-9348
▁मोर्चाले	-9349
▁सन्तुष्ट	-9350
▁जनसङ्ख्या	-9351
▁मलेसियामा	-9352
ुको	-9353
केका	-9354
देखी	-9355
म्भव	-9356
▁उम्	-9357
▁जाय	-9358
विपरी	-9359
▁पोषण	-9360
▁सिकाइ	-9361
▁स्ट्र	-9362
खुवासभा	-9363
▁बनाउनका	-9364
▁वैचारिक	-9365
▁नेताहरुको	-9366
चिब	-9367
▁हौँ	-9368
▁२०२०	-9369
▁उठाएर	-9370
▁जेलमा	-9371
▁पर्खाल	-9372
▁समयपछि	-9373
▁किसिमले	-9374
▁अत्याधिक	-9375
▁रेमिट्या	-9376
▁संरक्षणमा	-9377
▁समस्यालाई	-9378
▁प्रतिष्ठानका	-9379
▁सर्वसाधारणको	-9380
▁जनस	-9381
▁स्तन	-9382
▁हेल्	-9383
▁बुँदा	-9384
▁सम्बद्ध	-9385
मीमा	-9386
▁आरा	-9387
ग्रेस	-9388
फ्तार	-9389
▁सांग	-9390
कुलपति	-9391
▁फर्का	-9392
▁जातिको	-9393
▁हाम्रै	-9394
▁हाल्ने	-9395
▁थापालाई	-9396
▁कहिलेकाहीँ	-9397
झैँ	-9398
िला	-9399
जाले	-9400
▁अजय	-9401
▁उहा	-9402
ञ्जली	-9403
▁बादल	-9404
▁रक्स	-9405
समध्ये	-9406
स्तरको	-9407
▁जानकी	-9408
▁श्रोत	-9409
▁घटनाले	-9410
▁पैसाको	-9411
▁प्रर्द	-9412
न्दर्भिक	-9413
▁महिनापछि	-9414
▁प्रवद्र्ध	-9415
छुट्	-9416
▁जबर	-9417
▁वंश	-9418
▁जलवा	-9419
▁राधा	-9420
▁मेहनत	-9421
▁ल्याई	-9422
▁प्रतिकूल	-9423
▁समाचारमा	-9424
पदा	-9425
किएर	-9426
फिया	-9427
सूची	-9428
▁घले	-9429
▁वना	-9430
ालिटी	-9431
▁लेखि	-9432
वासीको	-9433
▁नर्सि	-9434
▁निजगढ	-9435
▁भाइरल	-9436
▁प्राज्ञ	-9437
▁सकिएपछि	-9438
▁९१	-9439
▁अरे	-9440
▁खसी	-9441
▁पचा	-9442
▁पनी	-9443
न्सले	-9444
▁नायव	-9445
▁जनावर	-9446
▁ज्वरो	-9447
▁निवेद	-9448
▁पाइयो	-9449
▁यातना	-9450
▁आफूहरु	-9451
▁बन्दुक	-9452
▁समानता	-9453
▁स्तम्भ	-9454
▁अन्तरले	-9455
▁उपसमिति	-9456
▁परिक्षा	-9457
▁वर्षभन्दा	-9458
▁पाटन	-9459
सहितका	-9460
▁बढीमा	-9461
▁हुर्क	-9462
▁उठाएका	-9463
▁समेटेर	-9464
▁छोरीलाई	-9465
▁वक्तव्य	-9466
▁हत्यामा	-9467
▁आवको	-9468
▁गुफा	-9469
▁तपाइ	-9470
▁हर्क	-9471
▁बोहरा	-9472
▁बढ्नेछ	-9473
▁सुमधुर	-9474
▁देउवाको	-9475
▁प्याकेज	-9476
▁बताइन्छ	-9477
▁आइपुग्दा	-9478
▁मुद्दाको	-9479
▁कार्यक्षेत्र	-9480
ठान	-9481
▁इम	-9482
▁सव	-9483
▁९७	-9484
पुरा	-9485
▁जुल	-9486
▁यौं	-9487
ङ्गको	-9488
▁नहुन	-9489
▁बाजु	-9490
▁लन्डन	-9491
▁सिक्न	-9492
▁आइतवार	-9493
▁उपसचिव	-9494
▁दिनहुँ	-9495
▁स्थलगत	-9496
▁स्थलमा	-9497
▁देखाएका	-9498
▁स्वायत्त	-9499
▁अवस्थालाई	-9500
▁क्रान्तिको	-9501
▁व्यक्तिहरु	-9502
▁अला	-9503
व्र्य	-9504
▁खाले	-9505
▁२०६९	-9506
▁अपांग	-9507
▁दिइन्	-9508
▁लिँदै	-9509
▁उदयपुर	-9510
▁अदालतका	-9511
▁पर्यटकलाई	-9512
ंले	-9513
▁तँ	-9514
▁वज	-9515
डम्ब	-9516
▁विघ	-9517
▁कठोर	-9518
▁महशु	-9519
▁रोपा	-9520
▁कथामा	-9521
▁प्यान	-9522
▁प्रमो	-9523
▁राख्दा	-9524
▁शब्दमा	-9525
▁शाखाका	-9526
▁सिफारिश	-9527
▁रहनुभएका	-9528
म्बी	-9529
लाईन	-9530
▁बक्स	-9531
▁मिथि	-9532
▁अपमान	-9533
▁चाहिं	-9534
▁टिमको	-9535
▁तहलाई	-9536
▁शाहको	-9537
▁किनारा	-9538
▁टेलिभि	-9539
▁शब्दको	-9540
▁एकेडेमी	-9541
▁बच्चाको	-9542
▁अभियानका	-9543
▁घटनास्थल	-9544
▁पुर्याउन	-9545
▁सन्तुलित	-9546
▁व्यवस्थामा	-9547
▁प्रक्रियालाई	-9548
▁अठ	-9549
पनमा	-9550
र्सन	-9551
कोटमा	-9552
▁खाजा	-9553
▁पाएर	-9554
▁पारा	-9555
▁पुलि	-9556
▁लेखेर	-9557
▁बढेपछि	-9558
▁हेलिको	-9559
▁तिनीहरू	-9560
▁९६	-9561
▁म्य	-9562
▁याम	-9563
▁शरद	-9564
क्षमा	-9565
▁देशै	-9566
▁सिमाना	-9567
▁एनआरएनए	-9568
▁प्रतिष्	-9569
▁प्रदायक	-9570
▁सम्भाव्यता	-9571
्स	-9572
गाड	-9573
फामा	-9574
▁रोड	-9575
▁सहन	-9576
▁२०११	-9577
▁अक्षर	-9578
▁बेच्न	-9579
▁देवकोटाको	-9580
कड	-9581
चाँ	-9582
त्सा	-9583
रकर्मी	-9584
▁सर्भि	-9585
▁छाड्ने	-9586
▁दस्ताव	-9587
▁राजाको	-9588
▁विगतको	-9589
▁स्वास्थ	-9590
▁क्यामेरा	-9591
▁न्यूयोर्क	-9592
▁प्रतिशतको	-9593
▁अधिकारीलाई	-9594
▁व्यवसायीलाई	-9595
mat	-9596
▁१९७	-9597
दिएका	-9598
▁आतिथ्य	-9599
▁तराईमा	-9600
▁धर्मको	-9601
▁हिमालयन	-9602
▁पत्राचार	-9603
▁ललितपुरको	-9604
ँडो	-9605
बेल	-9606
मलाई	-9607
ाउदै	-9608
▁भात	-9609
▁केबल	-9610
▁मलाइ	-9611
▁हिसा	-9612
▁पाइला	-9613
कर्मीले	-9614
▁कृषिमा	-9615
▁दिवसका	-9616
▁बिक्रि	-9617
▁स्थानको	-9618
निर्वाचित	-9619
▁अत्याधुनिक	-9620
▁पार्टीभित्र	-9621
स्प	-9622
▁ओग	-9623
दिनँ	-9624
निका	-9625
लोजी	-9626
▁बिर	-9627
▁बोध	-9628
परेका	-9629
्याएर	-9630
कानुनी	-9631
▁छैनौं	-9632
▁न्यायको	-9633
▁यात्राको	-9634
▁काँग्रेसको	-9635
▁कृष्णबहादुर	-9636
ियल	-9637
ेरु	-9638
▁बझा	-9639
▁पदका	-9640
▁कच्चा	-9641
▁नामबाट	-9642
▁फाउन्ड	-9643
▁मागेको	-9644
▁एकमात्र	-9645
▁निकायलाई	-9646
▁प्रकरणमा	-9647
▁झार	-9648
तीर्ण	-9649
▁मिठो	-9650
▁पक्की	-9651
▁भेगमा	-9652
▁राख्छ	-9653
▁भनिएका	-9654
▁बुद्धको	-9655
▁आप्रवासी	-9656
▁लघुवित्त	-9657
▁कार्यकर्तालाई	-9658
▁इभ	-9659
▁८७	-9660
▁आँग	-9661
▁नुन	-9662
▁पित	-9663
▁लाम	-9664
प्रेस	-9665
▁ल्हो	-9666
▁२००८	-9667
▁पुलिस	-9668
▁सभाका	-9669
▁सिरहा	-9670
▁एयरलाइ	-9671
▁नजिकैको	-9672
▁निष्कास	-9673
▁महासमिति	-9674
▁लोडसेडिङ	-9675
▁k	-9676
महा	-9677
▁टस	-9678
▁बड	-9679
च्छे	-9680
▁अलै	-9681
▁बहा	-9682
▁सबल	-9683
ञ्चोक	-9684
▁मनको	-9685
▁बिक्र	-9686
क्षिप्त	-9687
क्ष्यमा	-9688
▁यादवको	-9689
निर	-9690
▁धै	-9691
▁शपथ	-9692
▁बित्	-9693
▁भोजन	-9694
▁रोशन	-9695
▁लेनि	-9696
क्सिको	-9697
▁खर्चि	-9698
▁पर्दै	-9699
▁मोडेल	-9700
▁साहले	-9701
▁कार्यदल	-9702
▁ढुंगाना	-9703
▁तुलसीपुर	-9704
▁मेलमिलाप	-9705
▁करार	-9706
▁ख्री	-9707
▁रनमा	-9708
▁न्युन	-9709
▁सम्मि	-9710
▁विश्वस	-9711
▁खड्काको	-9712
▁दुव्र्य	-9713
▁अभियन्ता	-9714
▁इमान्दार	-9715
▁बन्दरगाह	-9716
▁रामप्रसाद	-9717
▁काठमाडौंबाट	-9718
▁ओसार	-9719
▁आदिको	-9720
▁पत्या	-9721
▁बढ्यो	-9722
▁घटनाका	-9723
▁तिर्ने	-9724
▁दुवैको	-9725
▁मिलियन	-9726
▁जान्छन्	-9727
▁बोलपत्र	-9728
▁मारिएका	-9729
जति	-9730
ज्जत	-9731
ठूला	-9732
ामगर	-9733
▁अपिल	-9734
▁राजि	-9735
▁सुन्	-9736
विपरीत	-9737
▁सक्छु	-9738
▁हेटौँ	-9739
▁गरेनन्	-9740
▁मल्लले	-9741
▁नेतालाई	-9742
▁युरोपेली	-9743
▁हिरासतमा	-9744
▁नमि	-9745
ालयले	-9746
▁धनगढ	-9747
▁फ्यान	-9748
कर्मीको	-9749
▁चारवटा	-9750
▁जमिनमा	-9751
▁सास्ती	-9752
▁सहजीकरण	-9753
▁शिक्षकले	-9754
▁सम्पर्कमा	-9755
टिक	-9756
सेना	-9757
▁गुड	-9758
▁सेक	-9759
▁News	-9760
▁आँसु	-9761
▁उल्टो	-9762
▁ठाउँको	-9763
▁बर्षमा	-9764
▁लाभांश	-9765
▁भइसक्यो	-9766
▁शरीरलाई	-9767
▁जीवनशैली	-9768
▁प्रगतिशील	-9769
▁भूकम्पपीडित	-9770
ra	-9771
ंको	-9772
घोष	-9773
मुलक	-9774
सिलो	-9775
▁शहीद	-9776
▁जनवरी	-9777
▁जान्न	-9778
▁लाग्दै	-9779
▁सङ्ग्रह	-9780
कित	-9781
▁मझ	-9782
▁अनी	-9783
▁ओर्	-9784
▁पस्	-9785
कान्त	-9786
▁मामि	-9787
▁मिसा	-9788
▁संहि	-9789
▁जहिले	-9790
▁नजिकि	-9791
▁इच्छुक	-9792
▁चीनसँग	-9793
▁देखिएन	-9794
▁स्वाभि	-9795
▁परिरहेको	-9796
▁काठमाडौँको	-9797
▁प्रभावशाली	-9798
ुश	-9799
ूँ	-9800
▁उखु	-9801
ालयको	-9802
▁आपरा	-9803
▁बारी	-9804
▁क्लबका	-9805
▁रूपैयाँ	-9806
▁मृत्युको	-9807
ट्र	-9808
पेट	-9809
फ्र	-9810
मानी	-9811
▁उचा	-9812
▁बाब	-9813
लिखित	-9814
▁जात्रा	-9815
▁पंक्ति	-9816
▁हनुमान	-9817
▁नभएसम्म	-9818
▁प्रशारण	-9819
▁पुस्तकमा	-9820
▁प्रधानाध्यापक	-9821
▁मद	-9822
▁गैँ	-9823
▁रुस	-9824
▁हाई	-9825
▁प्लस	-9826
▁समित	-9827
छुट्टै	-9828
संख्यक	-9829
स्कृति	-9830
▁अर्घा	-9831
▁क्याम	-9832
▁दायाँ	-9833
▁दिलाउन	-9834
▁पढाउने	-9835
▁शाखाको	-9836
▁सुधारको	-9837
▁सुन्तला	-9838
मन्त्रीको	-9839
▁आइपुगेको	-9840
▁प्रतियोगी	-9841
▁परिवर्तनका	-9842
▁महिलाहरुको	-9843
आत	-9844
ामक	-9845
काजी	-9846
▁जिप	-9847
▁भरो	-9848
▁हेड	-9849
कुण्ड	-9850
ष्टिय	-9851
▁गहुँ	-9852
▁सिलि	-9853
▁पुर्न	-9854
▁सोसाइ	-9855
▁गरीएको	-9856
▁बुझेको	-9857
▁रंगशालामा	-9858
▁मिच	-9859
▁वल्	-9860
▁उग्र	-9861
▁जबकि	-9862
▁घटाउन	-9863
▁रामेछाप	-9864
▁गैरकानुनी	-9865
ट्य	-9866
योगा	-9867
▁चर्	-9868
▁छाउ	-9869
▁टंक	-9870
र्द्धन	-9871
▁सक्दो	-9872
▁विधामा	-9873
▁त्यसैको	-9874
▁इन्स्योर	-9875
▁दिइरहेका	-9876
▁लापरबाही	-9877
िले	-9878
ल्ली	-9879
साथै	-9880
▁केरा	-9881
▁दसैँ	-9882
▁पसिना	-9883
▁नवीकरण	-9884
शास्त्री	-9885
▁निर्दोष	-9886
▁फर्किने	-9887
▁वार्तामा	-9888
▁उपत्यकाका	-9889
▁प्रतिष्ठा	-9890
▁कार्यक्रमले	-9891
▁आब	-9892
शीको	-9893
▁थपे	-9894
▁पाप	-9895
राखेको	-9896
▁हुँदो	-9897
▁मतपत्र	-9898
▁वनस्पति	-9899
▁बराबरीमा	-9900
▁कारबाहीको	-9901
लाय	-9902
▁टाँ	-9903
▁डेब	-9904
▁डेमो	-9905
▁बाला	-9906
▁२०४६	-9907
योग्रा	-9908
▁अब्बल	-9909
▁गरिमा	-9910
▁बैतडी	-9911
▁गाडीको	-9912
▁जिन्दग	-9913
▁डिग्री	-9914
▁सार्थक	-9915
▁स्थापनाको	-9916
▁निष्कर्षमा	-9917
▁स्वास्थ्यका	-9918
▁ईन्	-9919
▁जोन	-9920
▁दिउ	-9921
▁आवमा	-9922
▁बीबी	-9923
▁लैजा	-9924
▁ओरालो	-9925
▁त्रास	-9926
▁मार्न	-9927
▁उमेरका	-9928
▁गीतहरु	-9929
▁बढाउनु	-9930
▁बताउने	-9931
▁दर्शकको	-9932
▁भरपर्दो	-9933
▁मेक्सिको	-9934
▁संलग्नता	-9935
डेट	-9936
▁सच	-9937
हाली	-9938
▁नजा	-9939
▁मेची	-9940
▁२०६२	-9941
▁बर्षा	-9942
▁गोकर्ण	-9943
▁सक्नेछ	-9944
▁रवीन्द्र	-9945
▁शुभारम्भ	-9946
▁पत्रपत्रिका	-9947
▁प्रदेशसभाको	-9948
▁भित्र्याउने	-9949
दैछ	-9950
भारत	-9951
लामी	-9952
ल्टी	-9953
वरमा	-9954
सरको	-9955
्याङ	-9956
▁टिभी	-9957
▁धोका	-9958
▁बराल	-9959
▁जुटाउन	-9960
▁आपराधिक	-9961
▁चाहिएको	-9962
▁निस्कने	-9963
▁मेट्रिक	-9964
▁तुलनात्मक	-9965
ुत	-9966
्द	-9967
ess	-9968
गीत	-9969
ुरा	-9970
सीका	-9971
▁उसै	-9972
▁टोपी	-9973
▁भान्	-9974
▁विकट	-9975
▁कैयौं	-9976
▁दिमाग	-9977
▁पिउने	-9978
▁अन्योल	-9979
▁बोकेका	-9980
▁सिरिया	-9981
▁अनुहारमा	-9982
▁सिंगापुर	-9983
▁विश्वविद्यालयको	-9984
ome	-9985
▁बृ	-9986
्र्य	-9987
▁घुम	-9988
वृद्ध	-9989
▁ग्यार	-9990
▁नआएको	-9991
▁साँचो	-9992
▁खर्चको	-9993
▁स्वयम्	-9994
▁मिलाउने	-9995
▁गुरुयोजना	-9996
▁श्रीकृष्ण	-9997
▁केन्द्रबाट	-9998
इमा	-9999
ईले	-10000
डले	-10001
खर्क	-10002
म्मे	-10003
याधि	-10004
▁दशै	-10005
घाटमा	-10006
विवाह	-10007
▁भएता	-10008
▁लुका	-10009
▁गाईको	-10010
▁झरेको	-10011
▁पञ्जा	-10012
▁प्राइ	-10013
▁जलवायु	-10014
▁ध्वस्त	-10015
▁कार्यसम्	-10016
▁विरुद्धको	-10017
▁पाउनुपर्ने	-10018
▁व्यवस्थापनको	-10019
१६	-10020
खबर	-10021
महि	-10022
र्दन	-10023
स्पो	-10024
▁गाय	-10025
▁बाद	-10026
▁कसलाई	-10027
▁भन्थे	-10028
▁अर्घाखा	-10029
▁चितवनका	-10030
▁फौजदारी	-10031
▁पासपोर्ट	-10032
▁एम्बुलेन्स	-10033
गै	-10034
भिल	-10035
▁रङ	-10036
▁एपी	-10037
▁झोल	-10038
▁धाम	-10039
▁टावर	-10040
▁पितृ	-10041
▁विकि	-10042
▁साउथ	-10043
▁गरेकै	-10044
▁सक्यो	-10045
प्राप्त	-10046
▁खानपान	-10047
▁धर्मावल	-10048
▁चिकित्सकले	-10049
आज	-10050
ोस	-10051
▁टुट	-10052
▁थन्	-10053
▁कारक	-10054
▁दूरी	-10055
▁टर्की	-10056
▁माग्न	-10057
▁जवाफदे	-10058
▁जसमध्ये	-10059
२५	-10060
▁जिवन	-10061
▁सहाय	-10062
▁हरित	-10063
▁अज्ञा	-10064
▁आश्रम	-10065
▁सिकार	-10066
▁माग्ने	-10067
▁मिहिने	-10068
▁विमोचन	-10069
▁आइसकेको	-10070
▁बैङ्कले	-10071
▁ब्याटिङ	-10072
▁ब्राण्ड	-10073
▁संसारभर	-10074
▁परीक्षाको	-10075
▁वातावरणीय	-10076
▁मनोविज्ञान	-10077
▁अनुसन्धानको	-10078
▁स्वतन्त्रताको	-10079
od	-10080
भै	-10081
▁शिल्	-10082
▁सुख्	-10083
▁पोख्र	-10084
▁पालामा	-10085
▁वर्गका	-10086
▁उपकुलपति	-10087
▁तेक्वान्दो	-10088
▁छुट्टाछुट्टै	-10089
▁ढल	-10090
पूजा	-10091
▁रोय	-10092
▁विस	-10093
▁झोला	-10094
▁झ्याल	-10095
▁तालीम	-10096
▁बितरण	-10097
▁ब्रेक	-10098
म्स्टेक	-10099
▁ज्याला	-10100
▁पानीले	-10101
▁हुनुका	-10102
▁युवाहरु	-10103
▁उनीहरूका	-10104
▁दुर्भाग्य	-10105
▁बालुवाटारमा	-10106
समी	-10107
▁०४	-10108
जाजत	-10109
▁बाध	-10110
क्तिक	-10111
र्सले	-10112
▁थियौँ	-10113
▁लमजुङ	-10114
▁उप्रेत	-10115
▁नसकिएको	-10116
▁हिँड्ने	-10117
▁कार्यकर्ताले	-10118
१८	-10119
फेर	-10120
ेटर	-10121
▁लय	-10122
म्भु	-10123
्यौँ	-10124
▁कल्	-10125
▁गोठ	-10126
▁बजा	-10127
▁मणि	-10128
अनुरूप	-10129
▁कोषमा	-10130
▁गैंडा	-10131
▁डेभलप	-10132
▁प्रसाई	-10133
▁स्वरोज	-10134
▁बेल्जिय	-10135
▁कोरियामा	-10136
▁लाखभन्दा	-10137
▁समस्याले	-10138
वंश	-10139
▁ख्या	-10140
▁जङ्ग	-10141
▁झन्झ	-10142
▁फस्ट	-10143
▁नहोला	-10144
▁नियमा	-10145
▁सुस्त	-10146
▁त्रुटि	-10147
▁घटनालाई	-10148
▁नेविसंघ	-10149
▁युरोपियन	-10150
▁सञ्चालनको	-10151
दिव	-10152
▁उठ्न	-10153
▁पाखा	-10154
▁येशू	-10155
▁तिरेर	-10156
▁बेचबि	-10157
▁राजदु	-10158
▁रौतहट	-10159
▁सङ्गठ	-10160
▁स्मार	-10161
▁दुवैले	-10162
▁निद्रा	-10163
▁भेटिएका	-10164
▁उद्योगले	-10165
▁मानसिकता	-10166
▁उपस्थितिमा	-10167
▁उम्मेदवारको	-10168
▁महानगरपालिकाले	-10169
वक	-10170
ग्व	-10171
थुन	-10172
दिक	-10173
हेर	-10174
त्तो	-10175
ोलमा	-10176
▁ठेग	-10177
▁देखे	-10178
▁फारम	-10179
▁भर्न	-10180
▁मुगु	-10181
▁रिसो	-10182
नात्मक	-10183
▁इजराय	-10184
▁भगवती	-10185
▁फुटबलमा	-10186
▁आचार्यको	-10187
▁प्रयासमा	-10188
▁निमन्त्रणा	-10189
ग्ध	-10190
ण्य	-10191
▁दमन	-10192
ियन्स	-10193
ेन्डर	-10194
▁एप्प	-10195
▁द्रु	-10196
▁फुर्	-10197
▁सुकु	-10198
क्र्या	-10199
म्बरमा	-10200
▁अनुपा	-10201
▁ब्यान	-10202
▁दोहोरि	-10203
▁लागिरहेको	-10204
चल	-10205
शू	-10206
पुरी	-10207
▁घेरा	-10208
▁चाहा	-10209
कारिता	-10210
रिक्षक	-10211
▁काभ्रे	-10212
▁मोहम्मद	-10213
▁जबरजस्ती	-10214
▁निर्णयमा	-10215
अल	-10216
इस	-10217
▁घे	-10218
▁जडी	-10219
▁जोर	-10220
▁खुम्	-10221
▁चढेर	-10222
▁बर्से	-10223
▁सूत्र	-10224
▁ठाउँबाट	-10225
▁शेर्पाले	-10226
पोषण	-10227
▁कोण	-10228
▁बिग	-10229
▁१९५	-10230
▁बच्न	-10231
▁सुनस	-10232
क्रमित	-10233
▁उठ्ने	-10234
▁गोलको	-10235
▁सभासद	-10236
नुपर्दा	-10237
पथ्र्यो	-10238
▁एसएलसी	-10239
▁सयभन्दा	-10240
▁उत्तीर्ण	-10241
▁प्रबन्धक	-10242
▁शीर्षकमा	-10243
▁कालोपत्रे	-10244
▁दीपेन्द्र	-10245
▁बनाउनुपर्छ	-10246
▁प्रतिशतसम्म	-10247
न्दर	-10248
र्जि	-10249
▁मज्	-10250
ग्रहण	-10251
िकाको	-10252
▁ताजा	-10253
्नुभयो	-10254
▁कँडेल	-10255
▁लड्ने	-10256
▁अज्ञात	-10257
▁उनीसँग	-10258
▁न्यानो	-10259
▁मुटुको	-10260
▁इजलासले	-10261
▁केसीलाई	-10262
▁मिल्नेछ	-10263
▁गर्दैछन्	-10264
▁मन्त्रीले	-10265
▁खानेपानीको	-10266
टान	-10267
▁तम	-10268
▁अष्ट	-10269
▁होमि	-10270
▁रिक्त	-10271
▁आईतबार	-10272
▁खोलाको	-10273
▁मोरङको	-10274
▁साह्रै	-10275
▁भित्रको	-10276
▁श्रेष्ठलाई	-10277
ak	-10278
▁थर	-10279
जेता	-10280
▁रघु	-10281
▁सुग	-10282
▁हरू	-10283
▁आगमन	-10284
▁क्ला	-10285
▁छुवा	-10286
▁न्युज	-10287
▁हिम्म	-10288
▁राजाले	-10289
▁सम्मका	-10290
▁संचालित	-10291
▁भक्तपुरको	-10292
▁व्यवस्थापक	-10293
मिन	-10294
▁मम	-10295
चारु	-10296
च्ची	-10297
ेश्य	-10298
▁तान	-10299
▁सपथ	-10300
प्रथम	-10301
▁असहज	-10302
▁कोहि	-10303
▁भैरव	-10304
र्निया	-10305
▁गोलले	-10306
▁जागरण	-10307
▁दायरा	-10308
▁क्यानडा	-10309
▁डुबानमा	-10310
▁बहानामा	-10311
▁अभियानलाई	-10312
▁जनकपुरधाम	-10313
▁पत्रिकामा	-10314
निय	-10315
तिले	-10316
▁वाई	-10317
▁विल	-10318
▁उकालो	-10319
▁जीर्ण	-10320
▁कार्यलय	-10321
▁बैङ्कको	-10322
▁जबर्जस्ती	-10323
▁सम्बन्धको	-10324
▁तिनीहरूलाई	-10325
▁व्यवस्थालाई	-10326
खमा	-10327
टेन	-10328
भास	-10329
तारा	-10330
▁सास	-10331
▁०७४	-10332
▁गौरा	-10333
▁उजागर	-10334
▁भाँडा	-10335
▁रायमा	-10336
▁लागेन	-10337
▁खोजेका	-10338
▁वञ्चित	-10339
▁टेलिकमले	-10340
▁स्मार्टफोन	-10341
▁राख्नुपर्ने	-10342
म्न	-10343
▁झैँ	-10344
बाँकी	-10345
▁उमेश	-10346
▁चुनि	-10347
▁शायद	-10348
सभापति	-10349
▁क्लिक	-10350
▁दिंदै	-10351
▁निर्बा	-10352
▁नीतिमा	-10353
▁त्यसअघि	-10354
▁मेलम्ची	-10355
▁रहेकोले	-10356
▁प्रतिशतमा	-10357
▁भन्नेबारे	-10358
▁रुपैयाँसम्म	-10359
बोध	-10360
ित्य	-10361
▁कसको	-10362
▁पोशा	-10363
▁सुखद	-10364
▁उन्नत	-10365
▁पर्नु	-10366
▁महशुस	-10367
▁रिजाल	-10368
▁लडाइँ	-10369
▁आसपासका	-10370
▁जनसम्पर्क	-10371
▁राष्ट्रपतिले	-10372
णिक	-10373
पहि	-10374
वासमा	-10375
▁अनुभ	-10376
▁घरदै	-10377
▁लम्ब	-10378
▁आफैँले	-10379
▁महाप्र	-10380
ड्यन्त्र	-10381
▁वैधानिक	-10382
▁पेनाल्टी	-10383
▁उल्लेखनीय	-10384
▁कलाकारहरु	-10385
▁पुस्तकालय	-10386
मगर	-10387
▁जगे	-10388
▁साग	-10389
अगाडि	-10390
▁नसकेर	-10391
▁लामाको	-10392
▁पुरुषले	-10393
▁मानिसमा	-10394
▁मुग्लिन	-10395
▁विवादित	-10396
▁काठमाण्डौं	-10397
चमा	-10398
र्था	-10399
स्का	-10400
▁दलीय	-10401
▁दाना	-10402
▁उल्टै	-10403
▁त्यहा	-10404
▁गर्भपत	-10405
▁युवाले	-10406
▁रेडक्र	-10407
▁संकल्प	-10408
▁चितवनमा	-10409
▁परिभाषा	-10410
▁उनीहरुका	-10411
▁ग्राहकले	-10412
▁शिक्षाका	-10413
▁आचारसंहिता	-10414
्वल	-10415
▁गहन	-10416
▁कलेजो	-10417
▁कैलाश	-10418
▁असाध्य	-10419
▁पन्तले	-10420
▁सचेतना	-10421
अनुसारको	-10422
▁एशियाली	-10423
▁वर्षयता	-10424
▁दूतावासले	-10425
▁नियन्त्रणका	-10426
th	-10427
पिङ	-10428
क्खा	-10429
ब्रु	-10430
र्धन	-10431
▁आचरण	-10432
▁जमीन	-10433
बारीमा	-10434
▁तपार्इ	-10435
▁मालपोत	-10436
▁काउन्सिल	-10437
▁स्थानबाट	-10438
▁संखुवासभा	-10439
▁तिर्नुपर्ने	-10440
▁परिस्थितिमा	-10441
जेल	-10442
ेडि	-10443
▁क्ल	-10444
▁जीप	-10445
▁डोज	-10446
▁नरो	-10447
मूल्य	-10448
सभामा	-10449
▁माफी	-10450
▁२०१९	-10451
▁प्रजन	-10452
▁संयोग	-10453
▁सकिएन	-10454
▁देखेका	-10455
▁पुनराव	-10456
▁ज्योतिष	-10457
▁बाहिरबाट	-10458
▁षड्यन्त्र	-10459
▁अन्तरराष्ट्रिय	-10460
तली	-10461
▁टप	-10462
ङ्कर	-10463
न्टी	-10464
▁डिफ	-10465
▁फस्	-10466
न्वित	-10467
▁एफएम	-10468
▁कहीँ	-10469
▁एक्लो	-10470
▁पढ्दै	-10471
▁बनेपा	-10472
▁हाफमा	-10473
▁लगानीका	-10474
▁संरक्षक	-10475
▁प्रयोजनका	-10476
▁सान्दर्भिक	-10477
▁इन्डोनेसिया	-10478
oc	-10479
▁उस	-10480
▁८९	-10481
▁आव्	-10482
▁आश्	-10483
▁नाति	-10484
▁मीठो	-10485
▁परदेश	-10486
▁बेचेर	-10487
▁नर्सिङ	-10488
▁प्रेमको	-10489
▁ब्यापार	-10490
▁कैलालीको	-10491
▁हुँदैनन्	-10492
▁नेताहरूको	-10493
गंज	-10494
घाती	-10495
चीमा	-10496
▁भूत	-10497
▁लगन	-10498
▁रामा	-10499
▁लमजु	-10500
र्षिको	-10501
▁सम्झि	-10502
▁जन्मदिन	-10503
▁प्रार्थ	-10504
▁सम्बन्धन	-10505
▁उद्देश्यका	-10506
▁नेपालीहरुले	-10507
सभ	-10508
नान	-10509
ाल्न	-10510
▁सेन	-10511
▁कैदी	-10512
▁कोटा	-10513
▁सौर्य	-10514
▁निम्तो	-10515
▁पाँचथर	-10516
▁भक्तजन	-10517
▁विषयगत	-10518
▁महिलाका	-10519
▁स्थिरता	-10520
▁आक्रमणमा	-10521
▁एसोसिएसन	-10522
वनमा	-10523
अधिका	-10524
सक्नु	-10525
▁कडाइ	-10526
▁ज्यू	-10527
▁नबना	-10528
▁पालो	-10529
▁बोले	-10530
▁सुबि	-10531
▁पार्वती	-10532
▁साथीभाइ	-10533
▁तातोपानी	-10534
▁पर्यटनको	-10535
uo	-10536
मिल	-10537
भण्ड	-10538
▁चाउ	-10539
▁थलो	-10540
▁बचाउ	-10541
▁रोगी	-10542
▁बजेको	-10543
▁डिएसपी	-10544
▁बजेतिर	-10545
▁भिडन्त	-10546
व्यवस्था	-10547
▁छापिएको	-10548
▁दिक्तेल	-10549
▁बेलाबेला	-10550
▁अङ्ग्रेजी	-10551
▁अन्तर्गतको	-10552
टप	-10553
कलमा	-10554
▁नाक	-10555
▁सदै	-10556
▁भब्य	-10557
ँदैनन्	-10558
▁दिनभर	-10559
▁फोनमा	-10560
▁ल्याए	-10561
▁सोच्न	-10562
▁पठाएका	-10563
▁यद्यपी	-10564
▁ग्रामिण	-10565
▁गर्दैनन्	-10566
▁भूकम्पको	-10567
▁समस्याका	-10568
▁इन्टरनेशनल	-10569
७३	-10570
भरा	-10571
▁फड्	-10572
▁सान	-10573
वालले	-10574
कालागि	-10575
▁तामाको	-10576
▁आमन्त्र	-10577
▁रक्तदान	-10578
▁विवेकशील	-10579
▁विश्लेषक	-10580
▁व्यापारमा	-10581
▁अश्	-10582
▁खाँ	-10583
▁जिते	-10584
▁झाले	-10585
▁यकिन	-10586
▁सुरज	-10587
▁पाइलट	-10588
▁बिचमा	-10589
▁लडाकु	-10590
▁लिन्छ	-10591
▁खुल्ने	-10592
▁बुझ्नु	-10593
▁सङ्केत	-10594
▁सुख्खा	-10595
▁यसबाहेक	-10596
▁असुरक्षित	-10597
▁पशुपतिनाथ	-10598
▁प्रतिनिधी	-10599
▁इंग्ल्याण्ड	-10600
भयो	-10601
हुन	-10602
▁रज	-10603
ष्मा	-10604
▁सुह	-10605
▁१९४	-10606
रक्षा	-10607
▁अव्य	-10608
▁घाँस	-10609
▁पचास	-10610
▁बहाल	-10611
सायनिक	-10612
▁कामले	-10613
▁झुण्ड	-10614
▁रुद्र	-10615
▁औषधिको	-10616
सुल	-10617
िनमा	-10618
र्टमा	-10619
ारीले	-10620
▁कोशि	-10621
▁तिथि	-10622
▁पम्प	-10623
▁मुसा	-10624
▁म्यू	-10625
बजारमा	-10626
र्जनको	-10627
▁दशकमा	-10628
▁पाउँछ	-10629
▁बाल्य	-10630
▁सुम्प	-10631
▁आरक्षण	-10632
▁कोलम्ब	-10633
▁ट्रेलर	-10634
▁तिब्बत	-10635
▁रहेकोछ	-10636
▁स्थाना	-10637
▁गरिदिने	-10638
▁बहुदलीय	-10639
▁रक्तचाप	-10640
▁परिषद्को	-10641
▁बेरोजगार	-10642
▁अध्यक्षको	-10643
▁कालीगण्डकी	-10644
▁क्याम्पसमा	-10645
त्स	-10646
खाने	-10647
न्ना	-10648
▁आँट	-10649
▁आंश	-10650
▁नक्	-10651
▁नभइ	-10652
ात्मक	-10653
▁अग्रज	-10654
▁इजाजत	-10655
▁दिनमै	-10656
▁पाँचौ	-10657
▁गुम्बा	-10658
▁रायमाझ	-10659
▁श्रावण	-10660
▁पोर्चुग	-10661
▁आन्दोलनलाई	-10662
शे	-10663
पीए	-10664
्थे	-10665
ट्री	-10666
▁दाल	-10667
▁फेल	-10668
▁बडी	-10669
राउने	-10670
▁गीता	-10671
डम्बना	-10672
▁सिक्ने	-10673
▁गुमाएको	-10674
नियम	-10675
▁नसु	-10676
▁मता	-10677
▁मेह	-10678
ङ्ग्य	-10679
▁विष्	-10680
▁चोकमा	-10681
▁दशमलब	-10682
▁नजाने	-10683
▁आव्हान	-10684
▁उद्दार	-10685
▁टुङ्गो	-10686
▁महराले	-10687
▁दिइरहेको	-10688
▁प्रतिद्व	-10689
▁त्यत्तिकै	-10690
▁स्वरोजगार	-10691
▁प्रतिष्ठित	-10692
▁19	-10693
मीका	-10694
रायल	-10695
ेटिभ	-10696
▁पवन	-10697
▁शोध	-10698
▁खोजे	-10699
▁गणित	-10700
▁चेली	-10701
▁दवाव	-10702
▁फागु	-10703
▁बदलि	-10704
वस्थित	-10705
▁आर्मी	-10706
▁उपलव्	-10707
▁गुप्त	-10708
▁फर्कन	-10709
▁मजबुत	-10710
▁लण्डन	-10711
▁साम्य	-10712
▁फुर्सद	-10713
▁संगठनले	-10714
▁महोत्सवको	-10715
ग्य	-10716
मतो	-10717
▁नख	-10718
▁असम	-10719
त्विक	-10720
▁आयाम	-10721
▁शोभा	-10722
▁सर्भ	-10723
यात्री	-10724
▁सञ्जय	-10725
▁असम्भव	-10726
▁उचाइमा	-10727
▁तीनजना	-10728
▁दस्तावेज	-10729
▁कार्यदलले	-10730
▁संरक्षणका	-10731
ia	-10732
शय	-10733
▁गड	-10734
▁पिक	-10735
▁बसी	-10736
▁विम	-10737
न्ध्र	-10738
रात्र	-10739
▁काट्न	-10740
▁गार्ड	-10741
▁दिइयो	-10742
कांक्षी	-10743
▁बालकको	-10744
▁यसपालि	-10745
▁सुनेको	-10746
▁माओबादी	-10747
▁लालबाबु	-10748
▁हैसियतमा	-10749
▁गर्नसक्ने	-10750
▁मेगावाटको	-10751
▁विरुद्धमा	-10752
▁महत्वपुर्ण	-10753
ामै	-10754
म्बो	-10755
हेरी	-10756
▁एउटी	-10757
भिडियो	-10758
▁पाईन्छ	-10759
▁हजारौँ	-10760
▁उल्लंघन	-10761
▁एभरेष्ट	-10762
▁स्नातको	-10763
▁पश्चिममा	-10764
▁बाँडफाँड	-10765
▁गर्नुपर्दछ	-10766
▁चिकित्सकको	-10767
▁हुनुपर्नेमा	-10768
इड	-10769
भुत	-10770
सनले	-10771
▁चुक	-10772
▁तम्	-10773
▁करणी	-10774
▁ग्रह	-10775
▁सर्ब	-10776
▁अरुले	-10777
▁लिगको	-10778
▁सन्दि	-10779
▁क्यालि	-10780
▁क्वाटर	-10781
▁टेलिकम	-10782
▁निकासा	-10783
▁निगमको	-10784
▁ब्राह्	-10785
▁महाकवि	-10786
▁सुचारु	-10787
▁स्त्री	-10788
▁बाणिज्य	-10789
▁शक्तिले	-10790
▁सांसदले	-10791
▁अधिकारका	-10792
▁उपाध्याय	-10793
▁प्राप्ति	-10794
▁द्विपक्षीय	-10795
नर	-10796
बिधि	-10797
▁नबढ	-10798
▁अविर	-10799
▁आजभो	-10800
▁खाका	-10801
▁गाउन	-10802
▁आवतजा	-10803
▁तिहाई	-10804
▁स्टेट	-10805
▁कान्छी	-10806
▁मिथिला	-10807
▁संगीतमा	-10808
▁फाइनान्स	-10809
▁मोर्चाको	-10810
बोट	-10811
▁ओपन	-10812
▁तमा	-10813
▁तला	-10814
▁पठा	-10815
▁भाँ	-10816
गर्दै	-10817
शीलता	-10818
▁अचेल	-10819
▁स्को	-10820
▁अरूको	-10821
▁अर्पण	-10822
▁पलायन	-10823
▁पार्छ	-10824
▁नजिकको	-10825
▁पाँचौं	-10826
▁महत्वका	-10827
▁भन्नुभएको	-10828
▁संघीयताको	-10829
सहर	-10830
र्मु	-10831
▁पिछ	-10832
▁परेन	-10833
▁अनन्त	-10834
▁आतङ्क	-10835
▁खुल्न	-10836
▁पछाडी	-10837
▁सभासद्	-10838
▁सयपत्र	-10839
▁सुन्दरी	-10840
मन्त्रीले	-10841
▁समुन्द्र	-10842
▁सम्मिलित	-10843
▁सम्झौताको	-10844
ov	-10845
pp	-10846
▁उपे	-10847
जग्गा	-10848
▁बोलि	-10849
▁पुत्र	-10850
▁हाल्न	-10851
▁अनुरूप	-10852
▁अन्तमा	-10853
▁बोक्ने	-10854
▁लोग्ने	-10855
▁वपूर्ण	-10856
▁शीर्षक	-10857
▁महिलामा	-10858
▁विवाहको	-10859
▁आउनुभएको	-10860
▁मन्त्रीको	-10861
▁सचिवालयले	-10862
मेट	-10863
ोजि	-10864
▁फाँ	-10865
▁सदन	-10866
▁३००	-10867
▁तात्	-10868
▁बृहत	-10869
▁सानी	-10870
▁पदबाट	-10871
▁वर्णन	-10872
▁खटिएको	-10873
▁गतवर्ष	-10874
▁हङकङमा	-10875
▁उप्रेती	-10876
▁इतिहासको	-10877
▁अर्कोतर्फ	-10878
▁उपत्यकाको	-10879
गाँ	-10880
जहा	-10881
टाई	-10882
ूरो	-10883
▁अक	-10884
▁मनु	-10885
▁विमल	-10886
▁अण्डा	-10887
▁खासमा	-10888
▁भेटेर	-10889
▁उपन्या	-10890
▁भूमिमा	-10891
▁अपराह्न	-10892
▁तीव्रता	-10893
▁काठमाडाैं	-10894
▁नगरप्रमुख	-10895
▁महाशाखाका	-10896
▁कार्यपालिका	-10897
▁de	-10898
▁एएफ	-10899
▁सोधि	-10900
▁असमान	-10901
▁ब्याक	-10902
▁यूरोप	-10903
▁सुर्य	-10904
▁दैनिकी	-10905
▁आफूहरुले	-10906
▁सङ्क्रमण	-10907
ce	-10908
उदा	-10909
दशी	-10910
साना	-10911
▁मिन	-10912
▁गुरू	-10913
▁ढाका	-10914
▁बसाई	-10915
▁घट्दै	-10916
▁मुहार	-10917
▁वडाका	-10918
▁साबित	-10919
प्रेरित	-10920
सम्पन्न	-10921
▁असहमति	-10922
▁भेलामा	-10923
▁निष्काश	-10924
▁पोखराका	-10925
▁हेटौँडा	-10926
▁डाक्टरले	-10927
▁संस्थाहरु	-10928
▁अर्थतन्त्रको	-10929
▁अर्थतन्त्रमा	-10930
▁भ्रष्टाचारको	-10931
ध्व	-10932
▁घृ	-10933
▁वचन	-10934
रीलाई	-10935
▁फ्लो	-10936
▁सोहि	-10937
▁अँध्य	-10938
▁गाउने	-10939
▁दुर्लभ	-10940
▁चियापान	-10941
▁इन्चार्ज	-10942
▁चाहनुहुन्छ	-10943
▁वास्तविकता	-10944
▁हेलिकोप्टर	-10945
▁सर्वसाधारणलाई	-10946
▁स्वास्थ्यकर्मी	-10947
जंग	-10948
▁गौर	-10949
▁बदर	-10950
रह्यो	-10951
हाल्छ	-10952
▁आँधी	-10953
▁गार्	-10954
▁गुरा	-10955
▁चुरे	-10956
▁छाती	-10957
▁स्वे	-10958
▁दललाई	-10959
▁श्रेण	-10960
▁शाखाले	-10961
▁सुनचाँ	-10962
▁प्रकृतिका	-10963
▁गर्नुपरेको	-10964
▁नवलपरासीको	-10965
▁स्तरोन्नति	-10966
सेक	-10967
फिल्	-10968
र्तन	-10969
ल्दा	-10970
▁भजन	-10971
▁महत	-10972
▁यूए	-10973
▁शान	-10974
▁सकु	-10975
त्रिम	-10976
▁क्यु	-10977
▁मिना	-10978
▁साँघ	-10979
▁छाएको	-10980
▁धान्न	-10981
▁रोहित	-10982
▁शुरुमा	-10983
फोर्निया	-10984
▁गर्दछौं	-10985
▁पक्षबाट	-10986
▁मुलुकभर	-10987
▁शाक्यले	-10988
▁सेनालाई	-10989
▁गाउपालिका	-10990
▁पराजुलीले	-10991
▁प्रतिष्ठानले	-10992
▁मन्त्रालयलाई	-10993
ग्न	-10994
क्रि	-10995
म्ने	-10996
र्मो	-10997
ललाई	-10998
▁लेक	-10999
क्समा	-11000
▁काट्	-11001
▁मौला	-11002
सकिएको	-11003
▁सुनाइ	-11004
▁दृष्टिकोणले	-11005
स्टो	-11006
ालिङ	-11007
▁एप्	-11008
▁गरु	-11009
▁टोक	-11010
▁१५०	-11011
ङ्गमा	-11012
ाल्ने	-11013
▁ट्वि	-11014
▁दरमा	-11015
▁वैठक	-11016
▁सिटि	-11017
▁लिएपछि	-11018
▁अध्यापन	-11019
▁बैंकिङ्ग	-11020
▁थाइल्यान्ड	-11021
▁अफगानिस्तान	-11022
वश	-11023
ist	-11024
▁कोइ	-11025
▁आर्म	-11026
▁कटान	-11027
▁घाँटी	-11028
▁देशकै	-11029
▁हौसला	-11030
लगायतले	-11031
▁अरूलाई	-11032
▁पक्षका	-11033
▁लाइनमा	-11034
▁वल्र्ड	-11035
▁सिंहको	-11036
▁हातबाट	-11037
▁छोरालाई	-11038
▁पार्किङ	-11039
▁भित्रका	-11040
▁वर्षाका	-11041
▁सदस्यका	-11042
▁प्लास्टिक	-11043
▁क्षेत्रीले	-11044
▁स्वास्थ्यको	-11045
न्ते	-11046
▁खस्	-11047
▁ईश्व	-11048
▁खोजि	-11049
▁बायो	-11050
▁सिधा	-11051
अनुरुप	-11052
▁कोसिस	-11053
▁जसबाट	-11054
▁बाँधि	-11055
▁ट्रयाक	-11056
▁साक्षा	-11057
▁नेपालीमा	-11058
▁मिर्गौला	-11059
▁पत्रकारको	-11060
ष्णा	-11061
्याइ	-11062
▁झिक	-11063
▁गहना	-11064
▁नरेश	-11065
▁सिड्	-11066
्याण्ड	-11067
▁कोषले	-11068
स्थानमा	-11069
▁घरघरमा	-11070
▁चौतारी	-11071
▁नेताका	-11072
▁रोगबाट	-11073
▁सेनामा	-11074
▁कानुनले	-11075
▁पूर्णता	-11076
▁अधिकृतको	-11077
▁अस्थिरता	-11078
▁कारोबारमा	-11079
▁त्यसमध्ये	-11080
▁कार्यालयलाई	-11081
घार	-11082
जिअ	-11083
तित	-11084
हेल	-11085
शमशेर	-11086
▁चार्ज	-11087
▁सम्हा	-11088
्नुभएको	-11089
▁आफूसँग	-11090
▁लेख्नु	-11091
▁वामदेव	-11092
▁जन्मेको	-11093
▁फर्केका	-11094
▁हुनुभयो	-11095
▁अनुपातमा	-11096
▁मोर्चाका	-11097
▁राष्ट्रवादी	-11098
गठ	-11099
नक	-11100
▁पच	-11101
एकाे	-11102
पोर्	-11103
निकरण	-11104
▁छाडि	-11105
▁भुवन	-11106
▁केरुङ	-11107
▁मर्का	-11108
▁हटाएर	-11109
▁स्टेशन	-11110
▁गोदावरी	-11111
▁परिश्रम	-11112
▁जानुपर्छ	-11113
▁विपक्षमा	-11114
▁सङ्घीयता	-11115
▁प्रतिवादी	-11116
▁प्रत्यारोपण	-11117
▁रेमिट्यान्स	-11118
▁प्रतिष्ठानको	-11119
▁सर्वसाधारणले	-11120
मोल	-11121
▁नल	-11122
▁खतर	-11123
▁सोचे	-11124
▁अखण्ड	-11125
▁एकताका	-11126
▁चित्रण	-11127
▁नीतिको	-11128
▁प्राणी	-11129
▁राणाले	-11130
▁पहिलेको	-11131
▁उदाहरणका	-11132
▁पढ्नुहोस	-11133
▁राज्यलाई	-11134
▁संरचनाको	-11135
▁महिलाहरुले	-11136
▁प्रतियोगिताका	-11137
रीक	-11138
वामा	-11139
वारि	-11140
▁धुम	-11141
▁चुहा	-11142
▁ताना	-11143
▁साइन	-11144
▁मिलाइ	-11145
▁सिभिल	-11146
▁पुगेकी	-11147
▁नेकपाको	-11148
▁अध्ययनमा	-11149
▁उपसभापति	-11150
▁बताउँछिन्	-11151
केर	-11152
क्दै	-11153
तीका	-11154
लिएर	-11155
पछिका	-11156
▁चौका	-11157
▁हिंड	-11158
▁आंशिक	-11159
▁खेतमा	-11160
▁धन्दा	-11161
▁अनुपात	-11162
▁छाडेको	-11163
▁प्रतीक	-11164
▁मड्रिड	-11165
▁मौसममा	-11166
▁सार्ने	-11167
▁जाजरकोट	-11168
▁हप्तामा	-11169
▁अदालतबाट	-11170
खेती	-11171
त्रै	-11172
सागर	-11173
▁आएन	-11174
▁आर्	-11175
▁दाह	-11176
▁नबो	-11177
▁युवक	-11178
▁शैले	-11179
▁नेशनल	-11180
▁मारमा	-11181
▁रातको	-11182
▁हाजिर	-11183
▁एकैपटक	-11184
▁गोष्ठी	-11185
▁तिमिल्	-11186
▁सचिवमा	-11187
▁उपभोग्य	-11188
▁कृत्रिम	-11189
▁अध्ययनको	-11190
▁आइपुगेका	-11191
▁म्याग्दीको	-11192
▁गर्नुपर्नेछ	-11193
ill	-11194
क्ष्म	-11195
▁हानि	-11196
ानुसार	-11197
▁जर्मन	-11198
▁भरोसा	-11199
▁टिमलाई	-11200
▁क्यासिनो	-11201
▁खगेन्द्र	-11202
▁निष्कासन	-11203
▁ब्राह्मण	-11204
▁भइसकेपछि	-11205
▁चलचित्रका	-11206
▁सङ्ख्यामा	-11207
▁सुरक्षामा	-11208
▁विराटनगरमा	-11209
थरी	-11210
ंगिक	-11211
बाहक	-11212
ब्रो	-11213
▁सजग	-11214
▁सेल	-11215
ग्लाइ	-11216
▁भाषिक	-11217
हरुमाथि	-11218
▁अनलाईन	-11219
▁कठिनाइ	-11220
▁हिम्मत	-11221
्राचार्य	-11222
▁तामाङको	-11223
▁रहेकोमा	-11224
▁देखिएपछि	-11225
▁भविष्यको	-11226
▁अधिकारकर्मी	-11227
▁स्नातकोत्तर	-11228
जुद	-11229
बेश	-11230
सेको	-11231
▁कलि	-11232
▁झडप	-11233
▁लाज	-11234
▁शिर	-11235
धारमा	-11236
▁दाता	-11237
▁बसमा	-11238
र्तिमा	-11239
▁ढाँचा	-11240
▁आँखाको	-11241
▁गुण्डा	-11242
▁चक्रपथ	-11243
▁पाहुना	-11244
▁मधेशको	-11245
▁सबैतिर	-11246
▁महिलाहरू	-11247
थुम	-11248
▁अत	-11249
ज्जा	-11250
वियु	-11251
▁अलम	-11252
▁गन्ध	-11253
▁निता	-11254
▁पाठे	-11255
▁नआउने	-11256
कालदेखि	-11257
▁ओझेलमा	-11258
▁प्रजिअ	-11259
▁निलम्बन	-11260
▁पुग्छन्	-11261
▁बनाइएका	-11262
▁सेवालाई	-11263
र्षिकोत्सव	-11264
▁मानिसहरुको	-11265
▁विद्यालयलाई	-11266
▁स्थानान्तरण	-11267
▁च्याम्पियन्स	-11268
क्ला	-11269
पाठन	-11270
▁कने	-11271
▁नबि	-11272
▁ठाडो	-11273
जिनियर	-11274
▁अनुशा	-11275
▁फड्को	-11276
▁स्टोर	-11277
साहित्य	-11278
▁दिइन्छ	-11279
▁वर्षकी	-11280
▁सम्झनामा	-11281
▁हामीकहाँ	-11282
▁महानगरपालिकाको	-11283
ne	-11284
▁आवि	-11285
▁बुक	-11286
▁भातृ	-11287
▁सुनी	-11288
▁२०६५	-11289
▁चुस्त	-11290
▁बाहुन	-11291
▁मुहान	-11292
▁धौलागि	-11293
▁मधेशमा	-11294
▁राउतले	-11295
▁अमेरिकन	-11296
▁उपलब्धी	-11297
▁हत्याका	-11298
▁मामिलामा	-11299
▁परमेश्वरको	-11300
▁कार्यसम्पादन	-11301
१४	-11302
ity	-11303
▁मेक	-11304
▁याे	-11305
▁सोभ	-11306
▁०७३	-11307
मालले	-11308
र्सको	-11309
लकण्ठ	-11310
वाहिक	-11311
▁Home	-11312
▁ट्रि	-11313
▁वैदिक	-11314
त्साहित	-11315
▁सिनियर	-11316
▁खत्रीले	-11317
▁जीवनलाई	-11318
▁ओखलढुंगा	-11319
▁कोरियोग्रा	-11320
धिन	-11321
र्सी	-11322
▁अहि	-11323
▁बाउ	-11324
▁बाँझ	-11325
▁मतलब	-11326
▁गैँडा	-11327
▁दुर्इ	-11328
▁खर्चमा	-11329
▁प्रविध	-11330
▁मारेको	-11331
▁सुबिधा	-11332
▁ख्रीष्ट	-11333
▁हस्पिटल	-11334
▁प्रख्यात	-11335
▁ब्यवस्थापन	-11336
उडमा	-11337
▁दाई	-11338
▁पेज	-11339
त्वको	-11340
मानित	-11341
र्डिङ	-11342
श्याम	-11343
▁छाता	-11344
▁यायो	-11345
▁रुपैं	-11346
▁संगित	-11347
▁असाध्यै	-11348
▁ताप्लेजुङ	-11349
▁पूर्वराजा	-11350
▁आत्मविश्वास	-11351
पया	-11352
रणीय	-11353
लेखा	-11354
ोषित	-11355
▁आवा	-11356
▁पन्	-11357
▁लगत	-11358
ुपर्छ	-11359
▁तरुण	-11360
▁पराजय	-11361
▁भत्का	-11362
▁गएराति	-11363
▁निस्कि	-11364
▁हुर्का	-11365
▁बोर्डको	-11366
▁मुस्किल	-11367
▁अपाङ्गता	-11368
▁अविश्वास	-11369
▁एयरपोर्ट	-11370
▁जनमुक्ति	-11371
▁दिल्लीमा	-11372
▁सक्रियता	-11373
▁उत्पादनका	-11374
▁क्षेत्रफलमा	-11375
▁पाकिस्तानको	-11376
▁कार्यसमितिको	-11377
▁विश्वविद्यालयमा	-11378
लोभ	-11379
ल्छ	-11380
▁हड	-11381
टनमा	-11382
रहेकै	-11383
▁उठाइ	-11384
▁जायज	-11385
▁सोझै	-11386
ढुङ्गा	-11387
त्तीको	-11388
▁तिहाइ	-11389
▁बाँदर	-11390
▁असारमा	-11391
▁उपमेयर	-11392
▁गर्नमा	-11393
▁गोल्डक	-11394
▁बर्षिय	-11395
▁बुझेका	-11396
▁बेइजिङ	-11397
▁भूमिगत	-11398
▁जन्मेका	-11399
▁आकांक्षा	-11400
▁पहिचानको	-11401
▁प्रश्नमा	-11402
▁सकिरहेको	-11403
▁पुनरावेदन	-11404
▁लगानीकर्ताले	-11405
ुमा	-11406
टिको	-11407
पाटन	-11408
▁ओझा	-11409
▁उमेद	-11410
▁डोटी	-11411
▁पारव	-11412
▁सिन्	-11413
▁हमला	-11414
▁२००६	-11415
▁पार्नु	-11416
▁खुवाउने	-11417
▁गरेसँगै	-11418
▁दरखास्त	-11419
▁मंगलवार	-11420
▁उत्रिएका	-11421
▁गिरफ्तार	-11422
▁च्याप्टर	-11423
▁सहकारीको	-11424
▁व्यक्तिका	-11425
▁पाकिस्तानी	-11426
▁राख्नुपर्छ	-11427
▁विद्यार्थीहरु	-11428
पुछ	-11429
▁पप	-11430
नीका	-11431
नेता	-11432
▁चौर	-11433
▁श्व	-11434
▁नदिई	-11435
▁मेरै	-11436
▁शीतल	-11437
▁डेटिङ	-11438
▁बुझाई	-11439
▁एजेन्ट	-11440
▁बोलेको	-11441
▁भेलाले	-11442
▁राखिने	-11443
▁पदमार्ग	-11444
▁विचारमा	-11445
▁संगठनका	-11446
१७	-11447
ber	-11448
▁अाफ	-11449
▁दया	-11450
▁यदी	-11451
पट्टि	-11452
विरोधी	-11453
सिनाले	-11454
▁आफैमा	-11455
▁एकसाथ	-11456
▁ग्रेड	-11457
▁चलेका	-11458
▁मर्ने	-11459
▁घटाउने	-11460
▁बनाइने	-11461
▁वर्षिय	-11462
▁वास्ता	-11463
▁अनिश्चित	-11464
▁आम्दानीको	-11465
▁भिडियोलाई	-11466
▁pr	-11467
▁झे	-11468
जाँच	-11469
▁इङ्	-11470
▁एकज	-11471
▁बढे	-11472
▁मेश	-11473
▁दूरस	-11474
▁वकिल	-11475
विन्दु	-11476
▁अग्नि	-11477
▁एकपछि	-11478
▁कर्मा	-11479
▁टेस्ट	-11480
▁तीब्र	-11481
▁धैर्य	-11482
▁खतरनाक	-11483
▁घरजग्गा	-11484
▁दोषीलाई	-11485
▁घिमिरेको	-11486
▁डडेल्धुरा	-11487
▁हिंसात्मक	-11488
▁गाँउपालिका	-11489
सेज	-11490
बुबा	-11491
विचार	-11492
सीलाई	-11493
▁एमबी	-11494
▁लहान	-11495
▁हावी	-11496
▁गीतले	-11497
▁टोकियो	-11498
▁चौधरीको	-11499
▁युद्धमा	-11500
▁देखिन्थ्यो	-11501
▁प्रणालीलाई	-11502
▁आन्दोलनकारी	-11503
भाब	-11504
▁शत	-11505
ट्ने	-11506
र्गा	-11507
▁एकाउ	-11508
▁पिडा	-11509
तामाथि	-11510
▁प्रोड	-11511
▁अभावले	-11512
▁त्रिवे	-11513
▁सबैजसो	-11514
▁पुग्नेछ	-11515
▁मार्गमा	-11516
▁घटनाक्रम	-11517
▁रसुवागढी	-11518
▁प्रतीक्षा	-11519
▁हुनुपर्दछ	-11520
▁नेताहरुलाई	-11521
ौता	-11522
----	-11523
पीएल	-11524
▁बिश	-11525
▁बिस	-11526
▁०७५	-11527
त्मिक	-11528
▁कथित	-11529
▁दस्त	-11530
▁गोकुल	-11531
▁धरहरा	-11532
▁भर्ने	-11533
▁जबसम्म	-11534
▁परिभाष	-11535
▁लेखकले	-11536
▁विच्छेद	-11537
नुपर्नेमा	-11538
▁उपप्रधान	-11539
▁त्यतिखेर	-11540
▁त्योभन्दा	-11541
▁लाभग्राही	-11542
▁क्यालिफोर्निया	-11543
ip	-11544
ant	-11545
बाई	-11546
▁झल	-11547
ंगको	-11548
ण्टर	-11549
द्री	-11550
▁भुस	-11551
क्सको	-11552
▁मिलि	-11553
पश्चात	-11554
▁धक्का	-11555
▁सर्जक	-11556
▁हेल्थ	-11557
▁मधेसमा	-11558
▁हुम्ला	-11559
▁बुटवलमा	-11560
▁भन्दैमा	-11561
▁निकालिएको	-11562
▁व्यक्तिहरुको	-11563
रहन	-11564
दीमा	-11565
ब्लु	-11566
सेवक	-11567
्रमा	-11568
▁बखत	-11569
▁आठौं	-11570
▁गजुर	-11571
▁ठोक्	-11572
▁तिर्	-11573
▁विजे	-11574
▁आजबाट	-11575
▁उपाधी	-11576
▁कालमा	-11577
▁खेलका	-11578
▁गतिलो	-11579
▁महतले	-11580
▁जुटेका	-11581
▁फेब्रु	-11582
▁बजेटले	-11583
▁बिदेशी	-11584
▁दर्जनौं	-11585
▁पूर्वमा	-11586
▁कामदारलाई	-11587
▁निर्मलाको	-11588
▁माल्दिभ्स	-11589
▁विस्तारको	-11590
ईओ	-11591
लाइट	-11592
▁उब्	-11593
▁दर्	-11594
▁निभ	-11595
यात्र	-11596
▁छोडि	-11597
▁ठमेल	-11598
▁मामा	-11599
▁लिपि	-11600
▁चिह्न	-11601
▁जातजा	-11602
▁पूजाआ	-11603
▁शारदा	-11604
▁सेन्स	-11605
▁चिनिने	-11606
▁पक्षधर	-11607
▁राजकीय	-11608
▁हुनसक्	-11609
▁पठनपाठन	-11610
▁म्यूजिक	-11611
ab	-11612
बाङ	-11613
▁रथ	-11614
प्या	-11615
विको	-11616
▁मंग	-11617
काठमा	-11618
▁जनरल	-11619
▁दुबई	-11620
▁भेरी	-11621
▁२००९	-11622
▁कृपया	-11623
▁धर्ना	-11624
▁भन्छन	-11625
▁उद्धृत	-11626
▁चीनबाट	-11627
▁जंगलमा	-11628
▁दिनलाई	-11629
▁तालिममा	-11630
▁दिलाउने	-11631
▁समिक्षा	-11632
▁देखाइएको	-11633
▁कीर्तिमान	-11634
▁भृ	-11635
कुटी	-11636
▁गदै	-11637
न्युज	-11638
मेण्ट	-11639
क्रामक	-11640
त्यक्ष	-11641
▁अन्तत	-11642
▁यार्सा	-11643
▁अँध्यारो	-11644
▁सम्वन्धी	-11645
▁क्रिकेटको	-11646
▁जनआन्दोलन	-11647
▁फ्रान्सले	-11648
▁सामग्रीको	-11649
पाई	-11650
गुरु	-11651
▁भएछ	-11652
र्वाद	-11653
ियाको	-11654
▁ऐनले	-11655
▁काले	-11656
▁धुलि	-11657
▁तोडफो	-11658
▁यिनले	-11659
▁रोकथा	-11660
▁लाखौँ	-11661
▁सभाले	-11662
▁सभ्यता	-11663
▁सुत्ने	-11664
▁स्तरका	-11665
▁पुग्दैन	-11666
▁विकेटले	-11667
▁हुनेगरी	-11668
▁उम्मेद्वार	-11669
▁राजनीतिज्ञ	-11670
▁प्रतिनिधिमण्ड	-11671
▁प्रधानमन्त्रीका	-11672
एला	-11673
राहा	-11674
▁उतै	-11675
▁रेशम	-11676
प्रेमी	-11677
लबन्दी	-11678
▁अन्दा	-11679
▁कन्या	-11680
▁जातको	-11681
▁कान्छा	-11682
▁प्रदिप	-11683
▁फेस्टि	-11684
▁नामाकरण	-11685
▁महर्जनले	-11686
▁रविन्द्र	-11687
▁समाजसेवा	-11688
▁अध्यक्षले	-11689
▁व्यवहारिक	-11690
▁समस्याबाट	-11691
▁कार्यकालमा	-11692
▁पश्चिमाञ्चल	-11693
सँ	-11694
▁नसो	-11695
▁रुम	-11696
▁शंख	-11697
गोपाल	-11698
संगको	-11699
▁ऐश्व	-11700
▁किमी	-11701
▁धारण	-11702
▁मर्ज	-11703
▁नपाएर	-11704
▁पेरिस	-11705
▁प्लेट	-11706
▁वक्ता	-11707
▁समसाम	-11708
उनुभएको	-11709
▁गरिँदै	-11710
▁जुटेको	-11711
▁निश्चय	-11712
▁भण्डार	-11713
▁अवस्थाका	-11714
▁बच्चालाई	-11715
▁प्रोजेक्ट	-11716
▁हेर्नुहोस	-11717
▁कांग्रेसलाई	-11718
छौ	-11719
किश	-11720
डेन	-11721
▁नउ	-11722
म्मर	-11723
स्पर	-11724
▁झुक	-11725
▁पौष	-11726
▁लोह	-11727
▁वास	-11728
▁आर्ट	-11729
▁वकाल	-11730
▁सुशी	-11731
▁एकजुट	-11732
▁खेलकू	-11733
▁जातका	-11734
▁श्वास	-11735
▁औंल्या	-11736
▁चाहियो	-11737
▁दशैंको	-11738
▁प्याले	-11739
▁समातेर	-11740
▁बहुमतको	-11741
▁महत्वको	-11742
पीड	-11743
म्व	-11744
हाय	-11745
▁अड	-11746
line	-11747
▁कोर	-11748
▁भैं	-11749
ments	-11750
▁किमि	-11751
▁ज्यु	-11752
▁बिबि	-11753
चौलिया	-11754
र्तिको	-11755
सभामुख	-11756
▁अरूले	-11757
▁भएनन्	-11758
▁माहोल	-11759
▁लिगमा	-11760
▁एकिकृत	-11761
▁गीतलाई	-11762
▁ठेगाना	-11763
▁देशबाट	-11764
▁काग्रेस	-11765
▁गणेशमान	-11766
▁बुझाएका	-11767
▁आन्दोलनले	-11768
▁डेभलपमेन्ट	-11769
▁सम्पत्तिको	-11770
▁महानगरपालिकाका	-11771
नास	-11772
हिल	-11773
▁आण	-11774
▁थोक	-11775
▁रूख	-11776
▁इटहर	-11777
▁खेले	-11778
▁घराय	-11779
▁डिस्	-11780
भूकम्प	-11781
▁अविरल	-11782
▁आइएमई	-11783
▁भावुक	-11784
▁सातौं	-11785
नुपर्यो	-11786
▁पठाउनु	-11787
▁राईलाई	-11788
▁बर्सेनि	-11789
▁सदस्यलाई	-11790
▁बिम्स्टेक	-11791
▁व्यापारीले	-11792
▁कार्यकर्ताको	-11793
▁प्रजातन्त्रको	-11794
वृ	-11795
१३	-11796
तत्व	-11797
वधिक	-11798
▁इरा	-11799
▁कट्	-11800
▁छर्	-11801
▁देब	-11802
▁बीस	-11803
▁भूप	-11804
ालयका	-11805
▁गुला	-11806
▁डरले	-11807
▁भेडा	-11808
▁आध्या	-11809
▁चाइना	-11810
▁टिममा	-11811
▁तिब्र	-11812
▁नियोग	-11813
▁बग्ने	-11814
▁बृहत्	-11815
▁मगरको	-11816
▁मण्डल	-11817
▁हाँसो	-11818
▁बिष्णु	-11819
▁सामन्त	-11820
▁अघिदेखि	-11821
▁घण्टाको	-11822
▁रचनात्मक	-11823
▁सप्तरीको	-11824
▁सुनसरीको	-11825
▁लाभान्वित	-11826
▁पूर्णरुपमा	-11827
ँया	-11828
ततै	-11829
फोट	-11830
लार	-11831
बाली	-11832
ेलाई	-11833
▁नोक	-11834
▁मीन	-11835
▁ह्य	-11836
▁गुगल	-11837
▁मातह	-11838
▁मेडल	-11839
▁लेखे	-11840
परिषद्	-11841
▁आसन्न	-11842
▁किनबे	-11843
▁घट्ने	-11844
▁पछिको	-11845
▁पढाउन	-11846
▁विघटन	-11847
▁आफैंमा	-11848
▁इजरायल	-11849
▁गभर्नर	-11850
▁पहाडमा	-11851
▁माननीय	-11852
▁गर्नेको	-11853
▁पहिल्यै	-11854
▁केटाकेटी	-11855
▁दार्चुला	-11856
▁पुस्तकको	-11857
▁बिर्तामोड	-11858
▁जनसंख्याको	-11859
ue	-11860
न्टन	-11861
वाले	-11862
सियल	-11863
पत्ति	-11864
▁बुढी	-11865
▁रुसी	-11866
▁२०४८	-11867
मोर्चा	-11868
▁अद्या	-11869
▁टिमका	-11870
▁जनजीवन	-11871
▁जीवन्त	-11872
▁प्रिन्	-11873
▁रोपाइँ	-11874
▁समर्पण	-11875
▁जस्ताको	-11876
▁बोर्डका	-11877
▁अष्ट्रेलियामा	-11878
खेत	-11879
ढाई	-11880
▁मजा	-11881
▁युथ	-11882
वलीको	-11883
▁दिएन	-11884
▁कतिले	-11885
▁नाट्य	-11886
▁यसर्थ	-11887
▁स्कुट	-11888
▁कुश्मा	-11889
▁दार्जि	-11890
▁टाउकोमा	-11891
▁जुम्लामा	-11892
▁सहभागीता	-11893
▁दूरसञ्चार	-11894
▁माधवकुमार	-11895
▁प्रस्तावमा	-11896
ate	-11897
ष्टी	-11898
▁अँग	-11899
▁आधु	-11900
▁ताज	-11901
▁फैस	-11902
▁भन्द	-11903
▁मनले	-11904
▁मानस	-11905
▁१९९०	-11906
कोटाले	-11907
▁गर्छौ	-11908
▁महंगो	-11909
▁हितका	-11910
▁अभावका	-11911
▁गुमाएर	-11912
▁बढाएका	-11913
▁कालखण्ड	-11914
▁मार्क्स	-11915
▁साथीहरू	-11916
▁परमेश्वर	-11917
▁प्रयोगले	-11918
▁मस्तिष्क	-11919
▁सर्वप्रथम	-11920
▁सांसदहरुले	-11921
▁कलाकारहरुको	-11922
रथ	-11923
डौं	-11924
बाल	-11925
▁पन	-11926
मिलो	-11927
हेको	-11928
▁एलि	-11929
▁गुम	-11930
▁भरी	-11931
▁लाय	-11932
▁चालि	-11933
▁ठ्या	-11934
▁फैला	-11935
▁यहीँ	-11936
▁अनमोल	-11937
▁आउनेछ	-11938
▁काँधमा	-11939
▁साक्षी	-11940
▁गर्भपतन	-11941
▁फिल्मका	-11942
▁बाहिरका	-11943
▁बैदेशिक	-11944
▁समन्वयमा	-11945
▁यातायातको	-11946
▁समस्याहरु	-11947
अघ	-11948
दुई	-11949
थिति	-11950
वलीमा	-11951
▁विवा	-11952
▁भक्ति	-11953
▁जताततै	-11954
▁सावधान	-11955
▁सोच्ने	-11956
▁घटनाहरु	-11957
▁तयारीका	-11958
▁पाउँदैन	-11959
▁मातहतका	-11960
▁राजभण्ड	-11961
▁व्यायाम	-11962
▁कार्वाही	-11963
▁कास्कीका	-11964
??	-11965
ff	-11966
बरमा	-11967
▁द्र	-11968
▁नुह	-11969
▁बचा	-11970
▁सित	-11971
कालको	-11972
▁प्रम	-11973
▁सदैव	-11974
▁टुङ्ग	-11975
▁महिने	-11976
▁रोगका	-11977
▁साकार	-11978
▁निर्मल	-11979
▁नीतिले	-11980
▁महतोले	-11981
▁वृद्धा	-11982
▁हिँड्न	-11983
▁मार्केट	-11984
▁वर्षेनी	-11985
▁नेपालीका	-11986
▁बालिकाको	-11987
▁चलचित्रले	-11988
िनै	-11989
ेसि	-11990
▁ओछ	-11991
▁तौ	-11992
उँदो	-11993
त्ते	-11994
रानी	-11995
▁गेम	-11996
▁मित	-11997
सिएका	-11998
▁अत्त	-11999
▁विस्	-12000
▁आणविक	-12001
▁उभिएर	-12002
▁चल्यो	-12003
▁पहिरन	-12004
▁हरुको	-12005
▁आराधना	-12006
▁दिन्छु	-12007
▁सोभियत	-12008
▁विभागीय	-12009
▁शिक्षित	-12010
▁कार्यहरु	-12011
▁प्रालिले	-12012
▁भूकम्पबाट	-12013
▁मुद्दालाई	-12014
▁इन्टरनेसनल	-12015
▁प्रत्याभूति	-12016
ous	-12017
दास	-12018
लेन	-12019
क्नु	-12020
डेरी	-12021
▁दला	-12022
▁रमण	-12023
▁हेल	-12024
क्रेट	-12025
▁एकछिन	-12026
▁गिराव	-12027
▁समयका	-12028
लक्ष्मी	-12029
▁अपनाउन	-12030
▁सम्पति	-12031
▁धुलिखेल	-12032
▁पीडितको	-12033
▁अभिनन्दन	-12034
▁परीक्षणका	-12035
▁च्याम्पियनसिप	-12036
तान	-12037
▁रच	-12038
चनको	-12039
▁आना	-12040
▁द्ध	-12041
▁सेलि	-12042
▁किनार	-12043
▁कोषका	-12044
▁नपुग्	-12045
निकीकरण	-12046
▁प्रलोभ	-12047
▁लाग्दो	-12048
▁समयअघि	-12049
▁समाजिक	-12050
▁नपाउँदा	-12051
▁मनाउँदै	-12052
▁लगाउँदा	-12053
▁सारिएको	-12054
▁नोक्सानी	-12055
▁समसामयिक	-12056
▁सर्वसम्मत	-12057
▁सहभागितामा	-12058
गर्	-12059
बलमा	-12060
मञ्च	-12061
ेजले	-12062
▁अमा	-12063
▁खल्	-12064
▁रनर	-12065
त्तिय	-12066
▁एजुक	-12067
▁गएकी	-12068
▁नगरा	-12069
▁बानि	-12070
स्तिका	-12071
▁अलावा	-12072
▁असन्त	-12073
▁यन्त्र	-12074
▁दशकदेखि	-12075
▁लोकसेवा	-12076
▁प्रार्थना	-12077
▁भूकम्पपछि	-12078
▁स्थापनाका	-12079
▁विदेशमन्त्री	-12080
▁अष्ट्रेलियाको	-12081
▁कर्मचारीतन्त्र	-12082
केला	-12083
पीले	-12084
▁पढौ	-12085
▁सुझ	-12086
▁इन्ट	-12087
▁फेसन	-12088
▁बर्ग	-12089
▁याएर	-12090
▁बनेकी	-12091
डिरहेको	-12092
लगायतको	-12093
▁संकटमा	-12094
▁हस्पिट	-12095
▁हेरफेर	-12096
▁होमस्ट	-12097
▁बेचबिखन	-12098
▁मिनेटको	-12099
▁सुनाएको	-12100
▁सूचीकृत	-12101
▁कोरियाका	-12102
▁कार्यवाहक	-12103
▁कार्यशैली	-12104
▁देवकोटाले	-12105
▁अन्तर्गतका	-12106
▁सर्वोच्चले	-12107
सह	-12108
▁गढ	-12109
▁इको	-12110
ञ्जना	-12111
▁अञ्च	-12112
▁कोहल	-12113
▁टाइम	-12114
▁नपरो	-12115
▁नेम्	-12116
▁सर्प	-12117
▁सान्	-12118
नमार्क	-12119
▁दर्जा	-12120
▁विषयक	-12121
▁समिती	-12122
▁सम्रा	-12123
▁गराउँछ	-12124
▁देख्नु	-12125
▁पार्टन	-12126
▁लिइन्छ	-12127
▁युद्धको	-12128
▁सिक्किम	-12129
▁भित्रिने	-12130
▁सुनचाँदी	-12131
▁क्रिकेटमा	-12132
▁ग्राहकलाई	-12133
▁संस्करणको	-12134
▁परियोजनाको	-12135
▁प्रचण्डलाई	-12136
▁साक्षात्कार	-12137
ap	-12138
बले	-12139
ब्ध	-12140
▁ही	-12141
ानाथ	-12142
िनले	-12143
▁ढोर	-12144
▁रसा	-12145
डिएका	-12146
लालाई	-12147
▁धामी	-12148
▁फोक्	-12149
▁बापत	-12150
▁बिजय	-12151
ीकरणको	-12152
▁अपडेट	-12153
▁गाँजा	-12154
▁च्याउ	-12155
▁छोड्न	-12156
▁नगरको	-12157
▁न्यूज	-12158
▁सदनमा	-12159
▁स्नान	-12160
▁गरेकाे	-12161
▁मनमोहन	-12162
▁साथसाथै	-12163
▁ग्राहकको	-12164
▁मर्यादित	-12165
▁वृद्धिदर	-12166
▁सर्वहारा	-12167
▁निवर्तमान	-12168
▁पहिलेदेखि	-12169
▁बालिकालाई	-12170
▁ज्ञापनपत्र	-12171
▁वाट	-12172
देशीय	-12173
▁रनले	-12174
▁लिभर	-12175
▁द्रुत	-12176
▁ब्यार	-12177
▁जनवादी	-12178
▁प्रमोद	-12179
▁रिसर्च	-12180
▁शरीरका	-12181
र्टमेन्ट	-12182
▁अप्ठेरो	-12183
▁नारायणी	-12184
▁बढाउँदै	-12185
▁मनाइन्छ	-12186
▁संगीतको	-12187
▁उपविजेता	-12188
▁बसिरहेका	-12189
▁बहिष्कार	-12190
▁राजिनामा	-12191
▁गोरखापत्र	-12192
▁देशव्यापी	-12193
▁पुर्याएको	-12194
▁उपलक्ष्यमा	-12195
▁उपाध्यायले	-12196
▁गिरिजाप्रसाद	-12197
कप	-12198
ort	-12199
थियो	-12200
र्नी	-12201
ानले	-12202
▁कोई	-12203
▁निध	-12204
▁समक	-12205
एसम्म	-12206
▁असुल	-12207
▁छँदा	-12208
▁चलाएर	-12209
▁थप्ने	-12210
▁तोक्ने	-12211
▁मुम्बई	-12212
निरपेक्ष	-12213
▁एक्कासी	-12214
वैज्ञानिक	-12215
▁अन्तिममा	-12216
▁उल्लिखित	-12217
▁म्यानमार	-12218
▁संस्थापन	-12219
▁भित्रिएको	-12220
▁शिक्षालाई	-12221
▁श्रीमतीको	-12222
▁नवनिर्वाचित	-12223
▁न्यायपालिका	-12224
ङग	-12225
▁दय	-12226
उँथे	-12227
टाका	-12228
दरमा	-12229
पसार	-12230
▁खेप्	-12231
▁नापी	-12232
▁पौरा	-12233
▁भदौमा	-12234
▁कलेजको	-12235
▁गरिदिन	-12236
▁दक्षता	-12237
▁फर्किए	-12238
▁आयोगलाई	-12239
▁चौतर्फी	-12240
▁जलस्रोत	-12241
▁वित्तिय	-12242
▁पदयात्रा	-12243
▁गरिसकेपछि	-12244
▁प्रतिलिपि	-12245
क्षामन्त्री	-12246
▁हेर्नुहोस्	-12247
▁महाधिवेशनमा	-12248
lo	-12249
ून्	-12250
▁आदी	-12251
▁आप्	-12252
▁उजु	-12253
▁बुझ्	-12254
▁फास्ट	-12255
▁वकालत	-12256
▁वार्ड	-12257
▁समालो	-12258
▁निर्णयको	-12259
▁प्रदेशले	-12260
▁विकासलाई	-12261
▁व्यवस्थाले	-12262
▁प्रतिनिधिसभामा	-12263
नेश	-12264
वको	-12265
▁नफ	-12266
▁नवनि	-12267
▁मिसन	-12268
▁स्टु	-12269
▁एसियन	-12270
▁डुंगा	-12271
▁अनेकौं	-12272
▁इन्जिन	-12273
▁ठान्ने	-12274
▁तर्फको	-12275
▁तस्विर	-12276
▁सृष्टि	-12277
▁गर्छिन्	-12278
▁जडीबुटी	-12279
▁अर्कातिर	-12280
▁ट्रम्पको	-12281
▁फर्किएको	-12282
▁विस्तारका	-12283
डु	-12284
जिट	-12285
रास्व	-12286
ेसनमा	-12287
▁आइसि	-12288
▁छानि	-12289
▁बिगा	-12290
▁भुइँ	-12291
▁शुभे	-12292
▁स्टल	-12293
▁अक्सि	-12294
▁उहाले	-12295
▁विहार	-12296
▁हातले	-12297
▁पन्ध्र	-12298
▁पाठकले	-12299
▁पेन्सन	-12300
▁मुल्या	-12301
▁आशावादी	-12302
▁कालिकोट	-12303
▁जतिसुकै	-12304
▁नितान्त	-12305
▁उद्योगलाई	-12306
▁गरिनुपर्छ	-12307
▁बलात्कारी	-12308
▁शास्त्रीय	-12309
▁अनुमतिपत्र	-12310
अरी	-12311
ेडी	-12312
▁हँ	-12313
▁जरा	-12314
▁मिड	-12315
▁संव	-12316
▁हिट	-12317
िकारक	-12318
▁अल्झ	-12319
▁लड्न	-12320
▁समया	-12321
▁सिग्	-12322
हाल्यो	-12323
▁दुर्व	-12324
▁घरायसी	-12325
▁छलफलका	-12326
▁प्रताप	-12327
▁दाजुभाई	-12328
▁त्यसतर्फ	-12329
▁शंकास्पद	-12330
▁जिल्लालाई	-12331
▁नागरिकताको	-12332
▁धर्मनिरपेक्ष	-12333
ang	-12334
थलो	-12335
जेको	-12336
बर्ष	-12337
▁एटि	-12338
▁पड्	-12339
च्युट	-12340
पुस्त	-12341
▁कमाई	-12342
▁छापि	-12343
▁बलिङ	-12344
▁आत्ति	-12345
▁दिउसो	-12346
▁पछ्या	-12347
▁यिनको	-12348
▁उद्घोष	-12349
▁कुनामा	-12350
▁गौतमको	-12351
▁दीपावली	-12352
▁नजिकबाट	-12353
▁पर्वतको	-12354
▁अभ्यासमा	-12355
▁सहकारीले	-12356
▁बेरोजगारी	-12357
▁महाभूकम्प	-12358
▁मानिसहरुले	-12359
.,	-12360
भाउ	-12361
▁तद	-12362
▁फू	-12363
▁लख	-12364
चनले	-12365
▁नखु	-12366
नीलाई	-12367
ाउँदो	-12368
▁घातक	-12369
▁हालत	-12370
बिन्दु	-12371
▁मञ्जु	-12372
▁सेक्य	-12373
दायित्व	-12374
▁आएकाले	-12375
▁गल्कोट	-12376
▁ज्यादा	-12377
▁त्रिशू	-12378
▁पाएनन्	-12379
▁बरालले	-12380
▁डेनमार्क	-12381
▁पण्डितले	-12382
▁मिलाइएको	-12383
▁प्रदेशलाई	-12384
▁शिक्षकलाई	-12385
▁क्यान्सरको	-12386
▁वार्षिकोत्सव	-12387
▁प्रतिद्वन्द्व	-12388
उँन	-12389
र्र	-12390
▁झ्	-12391
▁वय	-12392
क्षे	-12393
प्ति	-12394
ूद्ध	-12395
▁दरि	-12396
लमाथि	-12397
▁औजार	-12398
▁जमरा	-12399
▁जोगा	-12400
▁बाँस	-12401
रात्मक	-12402
▁मरेको	-12403
▁विजया	-12404
▁उत्तरा	-12405
▁जटिलता	-12406
▁ब्ल्या	-12407
▁विरुवा	-12408
▁चन्द्रा	-12409
▁परिपत्र	-12410
▁प्रतिको	-12411
▁निर्णयले	-12412
▁उपभोक्ताले	-12413
▁इन्जिनियरिङ	-12414
hab	-12415
पीओ	-12416
ेरे	-12417
▁st	-12418
पाले	-12419
▁तिज	-12420
▁दाग	-12421
▁भड्	-12422
▁४००	-12423
दर्शी	-12424
▁खोलि	-12425
▁किराँ	-12426
▁चल्दै	-12427
▁देवता	-12428
▁नयाँद	-12429
▁पेटमा	-12430
▁मस्को	-12431
▁रगतको	-12432
▁सप्ता	-12433
▁तोडफोड	-12434
▁विषादी	-12435
▁साथीको	-12436
▁उठाउँदै	-12437
▁सहयोगले	-12438
▁अनेरास्व	-12439
▁गतिविधिमा	-12440
▁गर्नुहोला	-12441
▁म्यानपावर	-12442
▁अर्जेन्टिना	-12443
ik	-12444
डाम	-12445
▁मग	-12446
agar	-12447
खरमा	-12448
जीपी	-12449
यज्ञ	-12450
राजले	-12451
▁घृणा	-12452
योजनको	-12453
▁काण्ड	-12454
▁तीनवटै	-12455
▁मान्नु	-12456
▁ल्यापट	-12457
▁इमानदार	-12458
▁घनश्याम	-12459
▁लागूऔषध	-12460
▁परिक्रमा	-12461
▁मिडियाले	-12462
▁योगदानको	-12463
▁लोकमार्ग	-12464
▁जनशक्तिको	-12465
▁प्रोत्साहित	-12466
जारा	-12467
पादक	-12468
र्घा	-12469
▁अमे	-12470
▁रिप	-12471
▁उखान	-12472
▁चल्छ	-12473
▁वर्त	-12474
▁बन्दा	-12475
▁केहीले	-12476
▁कक्षाको	-12477
▁जनकपुरमा	-12478
▁नागरिकका	-12479
▁बनिसकेको	-12480
▁रासायनिक	-12481
▁लक्ष्यका	-12482
▁मलेसियाको	-12483
▁विस्तारमा	-12484
०६	-12485
बिक	-12486
▁चट	-12487
लिटर	-12488
▁थाप	-12489
▁रबि	-12490
नुसार	-12491
ोरीको	-12492
▁छैनन	-12493
▁ब्लड	-12494
शान्ति	-12495
▁उत्खन	-12496
▁सेटमा	-12497
▁आश्विन	-12498
▁किनबेच	-12499
▁निरौला	-12500
▁मायाको	-12501
▁सङ्घका	-12502
▁सिद्धि	-12503
▁कार्यका	-12504
▁गाविसको	-12505
▁विकासले	-12506
▁हेरिएको	-12507
▁डरलाग्दो	-12508
▁प्रतिदिन	-12509
▁सन्तानको	-12510
▁सेन्टरमा	-12511
▁बाहिरिएको	-12512
▁उपभोक्ताको	-12513
▁क्षतिग्रस्त	-12514
▁प्रतिष्पर्धा	-12515
ont	-12516
सरह	-12517
▁ठि	-12518
चालक	-12519
प्रे	-12520
▁टाढ	-12521
▁डिल	-12522
▁भोल	-12523
▁गोला	-12524
▁ड्रा	-12525
▁भ्रा	-12526
▁मैथि	-12527
▁सूचक	-12528
▁२०६७	-12529
▁इज्जत	-12530
▁तत्पर	-12531
▁देखाए	-12532
▁धानको	-12533
फाइनलमा	-12534
▁अवधिको	-12535
▁ब्युरो	-12536
▁मागलाई	-12537
▁सङ्घको	-12538
स्थितिमा	-12539
▁वर्षाको	-12540
▁वैवाहिक	-12541
▁सहकर्मी	-12542
▁कार्यभार	-12543
▁घटनाबारे	-12544
▁चन्द्रमा	-12545
▁पोर्चुगल	-12546
▁सुरुवाती	-12547
▁हानिकारक	-12548
▁पुगिसकेको	-12549
▁बासिन्दाले	-12550
▁चुनौतीपूर्ण	-12551
▁निर्वाचनलाई	-12552
▁नेदरल्याण्ड	-12553
▁बट	-12554
घरको	-12555
म्पो	-12556
साको	-12557
स्दै	-12558
▁जर्ज	-12559
▁रित्	-12560
▁व्यब	-12561
▁स्ने	-12562
▁अंग्र	-12563
▁पाँचथ	-12564
▁प्रोफ	-12565
▁व्याज	-12566
▁जोशीको	-12567
▁ट्र्या	-12568
▁सोधपुछ	-12569
▁कवितामा	-12570
▁पौराणिक	-12571
▁भन्नाले	-12572
▁व्याप्त	-12573
▁अर्कालाई	-12574
▁ओसारपसार	-12575
▁निरपेक्ष	-12576
▁प्रक्षेप	-12577
▁बिराटनगर	-12578
▁राजधानीका	-12579
▁बज्राचार्य	-12580
▁युनिभर्सिटी	-12581
▁इन्स्योरेन्स	-12582
एछ	-12583
हू	-12584
▁जव	-12585
पाठी	-12586
लीका	-12587
शंकर	-12588
स्नु	-12589
▁आँफ	-12590
▁गाड	-12591
लीलाई	-12592
▁अस्त	-12593
तालिका	-12594
▁अस्वा	-12595
▁एकदिव	-12596
▁गरेरै	-12597
▁तरलता	-12598
▁निरंक	-12599
▁बाँस्	-12600
▁बिजयी	-12601
▁वृक्ष	-12602
▁शम्भु	-12603
▁जयन्ती	-12604
▁जान्ने	-12605
▁ढंगबाट	-12606
▁पर्वमा	-12607
▁सीमामा	-12608
▁मिहिनेत	-12609
▁सयपत्री	-12610
▁इलेक्ट्रो	-12611
▁प्रतिक्षा	-12612
▁प्रशासनको	-12613
▁सत्तापक्ष	-12614
▁ग्यारेन्टी	-12615
देल	-12616
▁एको	-12617
▁खेम	-12618
▁झुट	-12619
▁ठोक	-12620
नेश्व	-12621
▁कयौं	-12622
▁गोरख	-12623
▁घिसि	-12624
▁बूढी	-12625
सम्यान	-12626
▁बढ्दा	-12627
डिरहेका	-12628
▁अभिमुख	-12629
▁दीपिका	-12630
▁दुनिया	-12631
▁बढाउँछ	-12632
▁रामायण	-12633
▁श्रेणी	-12634
कर्मीलाई	-12635
ालगायतका	-12636
▁ताप्लेजु	-12637
▁दुव्र्यवहार	-12638
▁निरुत्साहित	-12639
▁प्रतिस्थापन	-12640
एमएस	-12641
पक्व	-12642
▁छँदै	-12643
▁फैलि	-12644
▁भारु	-12645
▁रमाई	-12646
▁पढेको	-12647
▁परेकी	-12648
▁बर्षे	-12649
▁यमपञ्च	-12650
▁शताब्द	-12651
▁सक्दिन	-12652
▁उत्तरमा	-12653
▁द्वितीय	-12654
▁बुझिएको	-12655
▁अध्यागमन	-12656
▁मोबाइलमा	-12657
▁लापरवाही	-12658
▁राजनीतिलाई	-12659
▁पूर्वाधारको	-12660
▁प्रस्तावलाई	-12661
▁सुनिश्चितता	-12662
ub	-12663
कृया	-12664
ेडिट	-12665
▁जाल	-12666
▁बैक	-12667
▁अम्ब	-12668
▁उपनि	-12669
▁डिसी	-12670
▁संका	-12671
▁सक्त	-12672
▁भेटिए	-12673
omments	-12674
▁करिडोर	-12675
▁क्लबमा	-12676
▁पारवहन	-12677
▁भेट्ने	-12678
▁सिटौला	-12679
▁फाल्गुन	-12680
▁फिल्मले	-12681
▁मिलेमतो	-12682
घट	-12683
ेसो	-12684
बीको	-12685
मिना	-12686
▁अयो	-12687
▁अाज	-12688
▁एभि	-12689
▁पढे	-12690
ेलियन	-12691
▁डेरा	-12692
▁तहबाट	-12693
▁ध्रुव	-12694
▁प्रचल	-12695
▁भन्छु	-12696
▁मूलतः	-12697
▁क्लबको	-12698
▁चिल्लो	-12699
▁पुराता	-12700
▁मान्दै	-12701
▁मास्टर	-12702
▁ज्ञानको	-12703
▁दीपकराज	-12704
▁परिषद्ले	-12705
▁रामकृष्ण	-12706
▁अधिकारलाई	-12707
▁पत्रकारले	-12708
▁यात्रुलाई	-12709
▁चलचित्रलाई	-12710
▁प्रक्रियाको	-12711
लू	-12712
ेय	-12713
माइ	-12714
▁बिन	-12715
▁०७२	-12716
परिषद	-12717
▁एघार	-12718
▁भागब	-12719
▁हमाल	-12720
▁कुँवर	-12721
▁चढ्ने	-12722
▁फर्नि	-12723
▁भवानी	-12724
▁यत्ति	-12725
▁याउनु	-12726
▁वेस्ट	-12727
▁छाडेका	-12728
▁जनाउने	-12729
▁जोडेको	-12730
▁झापामा	-12731
▁टेक्नो	-12732
▁थपलिया	-12733
▁बिर्सि	-12734
▁मञ्चमा	-12735
▁म्यारा	-12736
▁अस्वस्थ	-12737
▁गराउँदा	-12738
▁कामदारले	-12739
▁बनिरहेको	-12740
▁लिनुपर्छ	-12741
▁मन्त्रालयबाट	-12742
▁विमानस्थलबाट	-12743
खार	-12744
ङ्दी	-12745
न्टल	-12746
▁इजि	-12747
बजारी	-12748
▁सुल्	-12749
जेरिया	-12750
▁अगष्ट	-12751
▁उठेका	-12752
▁लिङ्ग	-12753
▁क्याना	-12754
▁गान्धी	-12755
▁पटक्कै	-12756
▁ब्यस्त	-12757
▁सिजनमा	-12758
▁सुस्ता	-12759
▁हुनबाट	-12760
▁आवतजावत	-12761
▁इन्डियन	-12762
▁उहाँहरु	-12763
▁बलिउडमा	-12764
▁लेखिएका	-12765
जरल्याण्ड	-12766
▁उपस्थिती	-12767
▁योजनाहरु	-12768
▁संक्रमित	-12769
▁बालुवाटार	-12770
▁साहित्यका	-12771
▁भित्र्याउन	-12772
▁उपभोक्तालाई	-12773
▁मूल्यवृद्धि	-12774
हक	-12775
ल्यो	-12776
▁एपि	-12777
▁जुध	-12778
▁दही	-12779
▁मनी	-12780
कल्या	-12781
मित्र	-12782
▁राहु	-12783
इसकेको	-12784
▁अतिथी	-12785
▁एपीएफ	-12786
▁खेलेर	-12787
▁ढुङ्ग	-12788
▁तिमल्	-12789
▁दाङको	-12790
▁शमशेर	-12791
▁होस्ट	-12792
लाञ्चोक	-12793
▁उपलव्ध	-12794
▁गराइने	-12795
▁प्रतिब	-12796
▁बजारका	-12797
▁बाजुरा	-12798
▁ब्यांक	-12799
▁कर्जाको	-12800
▁कानूनको	-12801
▁पशुपालन	-12802
केन्द्रित	-12803
▁पर्यटकले	-12804
▁गरिन्थ्यो	-12805
▁प्रक्षेपण	-12806
▁शिलान्यास	-12807
▁कञ्चनपुरका	-12808
▁राजमार्गमा	-12809
▁अधिकारीहरूले	-12810
४५	-12811
राग	-12812
▁कद	-12813
▁उपज	-12814
ेसनको	-12815
▁दशरथ	-12816
▁परोप	-12817
▁लिंक	-12818
▁वासि	-12819
▁सम्भ	-12820
▁झलनाथ	-12821
▁बिहार	-12822
▁विराट	-12823
▁मधेशका	-12824
▁यसवर्ष	-12825
▁विधिको	-12826
▁संकलित	-12827
▁हिजोको	-12828
▁हेरेको	-12829
▁दुईतिहा	-12830
▁बैठकबाट	-12831
▁सन्ध्या	-12832
▁गरिरहेकी	-12833
▁पौडेललाई	-12834
▁शान्तिको	-12835
▁उहाँहरुले	-12836
▁बार्सिलोना	-12837
▁महाप्रबन्ध	-12838
▁रोनाल्डोले	-12839
हमा	-12840
ौडा	-12841
▁भया	-12842
▁सोन	-12843
वादका	-12844
चेस्टर	-12845
▁उत्कृ	-12846
▁कमिसन	-12847
▁पोर्ट	-12848
कर्ताले	-12849
▁आवाजमा	-12850
▁न्युरो	-12851
▁बन्नेछ	-12852
▁मेट्रो	-12853
▁संज्ञा	-12854
▁हुन्छु	-12855
▁जापानले	-12856
▁संसारकै	-12857
▁स्कुलको	-12858
▁हिँडेका	-12859
▁देखिन्थे	-12860
▁विडम्बना	-12861
▁भावनात्मक	-12862
▁लक्ष्मीको	-12863
▁गणतन्त्रको	-12864
▁व्यक्तिहरू	-12865
▁कर्मचारीहरु	-12866
दूत	-12867
▁हव	-12868
आइजी	-12869
दोहो	-12870
▁चहल	-12871
▁युभ	-12872
▁११३	-12873
कार्ड	-12874
राजको	-12875
ित्या	-12876
▁काका	-12877
▁अगस्ट	-12878
▁कराते	-12879
▁पोलिट	-12880
▁सङ्कट	-12881
▁सुदुर	-12882
▁अवसरको	-12883
▁मोक्ता	-12884
▁आक्रामक	-12885
▁आफन्तले	-12886
▁कमिटीको	-12887
▁चुनावका	-12888
▁म्यानेज	-12889
▁रंगशाला	-12890
▁पाण्डेको	-12891
▁मुलुकबाट	-12892
▁सिफारिसमा	-12893
▁उत्तरदायित्व	-12894
-0	-12895
सां	-12896
सीन	-12897
ूलक	-12898
▁is	-12899
▁आङ	-12900
टाको	-12901
▁बडो	-12902
▁बूढ	-12903
▁माद	-12904
▁मेष	-12905
matha	-12906
गारमा	-12907
ुवाको	-12908
▁क्वि	-12909
▁खुले	-12910
▁सँधै	-12911
▁परमाण	-12912
▁मोवाइ	-12913
ुप्रसाद	-12914
▁खुकुरी	-12915
▁राजदुत	-12916
▁साउनमा	-12917
▁सोच्नु	-12918
▁स्मारक	-12919
▁मन्तब्य	-12920
agarmatha	-12921
▁प्रर्दशन	-12922
▁बिन्दुमा	-12923
▁जस्तोसुकै	-12924
▁राजनीतिले	-12925
▁राजमार्गको	-12926
▁मैत्रीपूर्ण	-12927
▁मनोवैज्ञानिक	-12928
लाङ	-12929
भरको	-12930
राली	-12931
ियौं	-12932
्राम	-12933
▁खुब	-12934
▁डोर	-12935
▁रेट	-12936
▁सञ्	-12937
चिन्त	-12938
ेन्सन	-12939
▁डटकम	-12940
▁धरात	-12941
▁पिउन	-12942
▁साहु	-12943
▁हाले	-12944
▁एक्सच	-12945
▁छैटौं	-12946
▁भनेकी	-12947
▁आफैलाई	-12948
▁डेब्यु	-12949
▁सन्दिप	-12950
▁आफन्तको	-12951
▁गर्नुस्	-12952
▁बताईएको	-12953
▁यादवलाई	-12954
▁परिभाषित	-12955
▁मतदाताले	-12956
▁माध्यमले	-12957
▁स्वदेशमै	-12958
▁दिपेन्द्र	-12959
▁आध्यात्मिक	-12960
▁बुद्धिजीवी	-12961
▁मानिसहरूले	-12962
▁सक्नुहुनेछ	-12963
▁कार्यालयहरु	-12964
▁घडी	-12965
▁पौड	-12966
▁मन्	-12967
▁एसिड	-12968
▁पौने	-12969
▁भियत	-12970
▁दाइजो	-12971
▁कक्षमा	-12972
▁सिर्जन	-12973
▁दिमागमा	-12974
▁सिकाउने	-12975
▁प्रकारले	-12976
▁प्रेमिका	-12977
▁प्रविधिमा	-12978
▁बिहानैदेखि	-12979
▁लोकप्रियता	-12980
▁राष्ट्रियताको	-12981
if	-12982
कीको	-12983
खुट्	-12984
िकको	-12985
▁तले	-12986
▁विध	-12987
गर्ने	-12988
याममा	-12989
▁देख्	-12990
▁नपर्	-12991
▁पर्थ	-12992
▁बसको	-12993
▁बेहु	-12994
प्रदेश	-12995
▁टोलमा	-12996
▁डिजेल	-12997
▁बजारी	-12998
▁यसपछि	-12999
▁छोड्ने	-13000
▁धुर्मु	-13001
▁सुनिता	-13002
▁गोर्खाल	-13003
▁गोल्डेन	-13004
▁चालकलाई	-13005
▁बिश्वास	-13006
▁बुझिन्छ	-13007
क्षेत्रमा	-13008
▁बितिसक्दा	-13009
▁युवाहरुको	-13010
▁अस्वाभाविक	-13011
ंगै	-13012
पाङ	-13013
साध	-13014
रोधा	-13015
▁शाल	-13016
च्छिक	-13017
निएको	-13018
वादमा	-13019
▁वनमा	-13020
▁विही	-13021
▁हेरे	-13022
▁कलंकी	-13023
▁पढेका	-13024
▁सुझाब	-13025
▁स्पेस	-13026
▁खाल्डा	-13027
▁गाउँमै	-13028
▁मेलाको	-13029
▁देखाउनु	-13030
▁बाहुल्य	-13031
▁मूल्यको	-13032
▁साँघुरो	-13033
▁आक्रोशित	-13034
▁आविष्कार	-13035
▁वायुसेवा	-13036
▁स्वर्गीय	-13037
▁अभिभावकले	-13038
तल	-13039
२९	-13040
ंगर	-13041
भोज	-13042
▁जर	-13043
▁बोझ	-13044
▁हलि	-13045
प्टेन	-13046
▁लिंग	-13047
▁सुकै	-13048
लाइनमा	-13049
▁उर्ला	-13050
▁छाड्न	-13051
▁छिमेक	-13052
▁पुतली	-13053
▁प्रदु	-13054
▁युनिट	-13055
▁होटेल	-13056
▁अयोग्य	-13057
▁आदेशमा	-13058
▁छनोटमा	-13059
▁तुल्या	-13060
▁पुर्वा	-13061
▁सिलवाल	-13062
▁चारैतिर	-13063
▁दलहरूको	-13064
▁बोलाएको	-13065
▁वर्गीकरण	-13066
▁समर्थनमा	-13067
▁संविधानसभामा	-13068
पत्	-13069
▁नचि	-13070
▁युर	-13071
र्तित	-13072
▁अर्व	-13073
▁लिला	-13074
▁काव्य	-13075
▁कैयौँ	-13076
▁जाहेर	-13077
▁बताउन	-13078
▁गौरवको	-13079
▁झापाका	-13080
▁बर्षीय	-13081
▁ब्याट्	-13082
▁भृकुटी	-13083
▁चितवनले	-13084
▁जापानका	-13085
▁बजारबाट	-13086
▁लागुऔषध	-13087
▁त्रिवेणी	-13088
▁राष्ट्रले	-13089
▁व्यवसायको	-13090
▁बलात्कारका	-13091
बुङ	-13092
वीच	-13093
▁मठ	-13094
▁पाच	-13095
▁बोसो	-13096
▁सुनौ	-13097
▁हटाइ	-13098
▁अखबार	-13099
प्रतिशत	-13100
▁उत्थान	-13101
▁खोलेको	-13102
▁गर्दथे	-13103
▁गुप्ता	-13104
▁घरधुरी	-13105
▁छोराले	-13106
▁पकाउने	-13107
▁यात्री	-13108
▁हिजोआज	-13109
▁काभ्रेप	-13110
▁गुमाउने	-13111
▁पूजाआजा	-13112
▁रिसोर्ट	-13113
▁रेडक्रस	-13114
▁समूहलाई	-13115
▁निष्काशन	-13116
▁प्रतिव्यक्ति	-13117
छाड	-13118
सिप	-13119
सेस	-13120
किला	-13121
पाका	-13122
स्वी	-13123
▁चीज	-13124
▁जडि	-13125
संगीत	-13126
▁कोले	-13127
▁जाँग	-13128
▁बाधक	-13129
▁महाल	-13130
▁खण्डको	-13131
▁फिलिपि	-13132
▁बस्छन्	-13133
▁समेतको	-13134
▁कानुनमा	-13135
▁सतर्कता	-13136
▁त्यसबारे	-13137
▁पोखरेलको	-13138
▁प्रमुखले	-13139
▁ब्यबस्था	-13140
▁क्याप्टेन	-13141
▁गरिनुपर्ने	-13142
▁माओवादीलाई	-13143
क्टो	-13144
बिता	-13145
▁आपत	-13146
▁बहर	-13147
▁भान	-13148
▁लास	-13149
▁साख	-13150
▁पुगी	-13151
▁मुनि	-13152
▁मुसल	-13153
▁सुशा	-13154
▁स्वत	-13155
▁अनेसा	-13156
▁भुसाल	-13157
▁रोगले	-13158
▁उपल्लो	-13159
▁तिर्नु	-13160
▁बुर्ति	-13161
▁माथिका	-13162
▁गाविसका	-13163
▁प्रतिमा	-13164
▁बुझाउनु	-13165
▁महालेखा	-13166
▁निकायबाट	-13167
▁प्रधानले	-13168
▁विश्वयुद्ध	-13169
▁प्रदर्शनीमा	-13170
एज	-13171
पेश	-13172
फोर	-13173
लाख	-13174
▁धक	-13175
▁सेभ	-13176
▁जिति	-13177
▁ट्वा	-13178
▁थाहै	-13179
▁भनिन	-13180
▁मतले	-13181
▁युएस	-13182
▁वाचा	-13183
▁सयौँ	-13184
नुहोस्	-13185
▁अगावै	-13186
▁कोलका	-13187
▁बिज्ञ	-13188
▁सरिता	-13189
▁सिण्ड	-13190
▁गिरावट	-13191
▁चीनलाई	-13192
▁पूर्ति	-13193
▁प्रजनन	-13194
▁फोरमका	-13195
▁विनिमय	-13196
▁सोचेको	-13197
▁काउन्टर	-13198
▁बाँच्ने	-13199
▁सामन्ती	-13200
▁भनेजस्तो	-13201
▁मान्छेहरु	-13202
▁विश्वसनीय	-13203
▁आधुनिकीकरण	-13204
▁दुर्घटनाको	-13205
परे	-13206
ढोका	-13207
▁लखन	-13208
▁लगि	-13209
▁सवा	-13210
▁इकाई	-13211
▁कोलो	-13212
▁शेखर	-13213
▁स्मृ	-13214
वादलाई	-13215
▁पल्टन	-13216
▁लायन्स	-13217
▁विषयका	-13218
▁कहाँबाट	-13219
▁क्रेडिट	-13220
▁स्थानका	-13221
▁अभियानले	-13222
▁उद्धेश्य	-13223
▁गर्नुहोस	-13224
▁जनमोर्चा	-13225
▁जन्मिएको	-13226
▁उन्मुक्ति	-13227
▁भक्तपुरमा	-13228
▁बालबालिकाले	-13229
दाँ	-13230
षेक	-13231
ियु	-13232
शनमा	-13233
▁सिप	-13234
ँजीको	-13235
▁आडमा	-13236
▁निश्	-13237
▁अग्ला	-13238
▁तवरले	-13239
▁उत्पीड	-13240
▁बैंकलाई	-13241
▁वैशाखमा	-13242
▁यात्रुको	-13243
▁क्षेत्रिय	-13244
▁नेपालीहरू	-13245
▁प्लाष्टिक	-13246
▁लिम्बुवान	-13247
▁विश्वासको	-13248
▁अप्रत्यक्ष	-13249
▁प्याराग्लाइ	-13250
तारि	-13251
फोटक	-13252
▁उठान	-13253
▁नाइट	-13254
▁२०६६	-13255
कल्याण	-13256
ुपर्ने	-13257
▁कार्ट	-13258
▁गाउँग	-13259
▁ठकुरी	-13260
▁डुबान	-13261
▁तुलाध	-13262
▁बायाँ	-13263
▁यथावत	-13264
▁शहरको	-13265
▁थाल्ने	-13266
▁देवानी	-13267
▁बञ्चित	-13268
▁मधेसका	-13269
▁रोक्का	-13270
▁लोकमान	-13271
▁वारेमा	-13272
▁शासनको	-13273
ुरेन्टमा	-13274
▁पुस्ताले	-13275
▁मनाइँदैछ	-13276
▁यातायातका	-13277
▁स्थानीयवासीले	-13278
ईन्	-13279
मसो	-13280
इन्ट	-13281
रणमा	-13282
सिने	-13283
▁उरु	-13284
▁अपार	-13285
▁आभार	-13286
▁कोमल	-13287
▁गाएर	-13288
▁ग्रि	-13289
▁यूनि	-13290
▁स्टे	-13291
▁२०५८	-13292
ङ्ग्रा	-13293
▁डिजाइ	-13294
▁पाएकी	-13295
▁फेर्न	-13296
▁रूपमै	-13297
▁लिँदा	-13298
▁सेवास	-13299
▁आकाशमा	-13300
▁खेलकूद	-13301
▁ठाउँका	-13302
▁नजिकका	-13303
▁रानाले	-13304
▁जतिबेला	-13305
▁रहनेछन्	-13306
▁देशहरुमा	-13307
▁कार्यपत्र	-13308
▁अल्पसंख्यक	-13309
▁मसान्तसम्म	-13310
▁प्रतिद्वन्द्वी	-13311
म्र	-13312
▁ma	-13313
लैया	-13314
▁मुट	-13315
habar	-13316
ङ्खला	-13317
थ्र्य	-13318
मलामा	-13319
▁कुमा	-13320
▁थियौ	-13321
▁धातु	-13322
▁ममता	-13323
▁सचिब	-13324
▁साइत	-13325
▁सानु	-13326
▁सेके	-13327
▁१९५०	-13328
▁दुग्ध	-13329
▁बदनाम	-13330
▁सहमती	-13331
▁केन्या	-13332
▁प्रतिक	-13333
▁फ्रेन्	-13334
▁भाषाका	-13335
▁मालिका	-13336
यन्त्रित	-13337
▁बाबुआमा	-13338
▁विश्वमै	-13339
▁परिवेशमा	-13340
▁प्रशान्त	-13341
▁हरितालिका	-13342
▁बलात्कारको	-13343
▁सफलतापूर्वक	-13344
ंशी	-13345
कथा	-13346
▁तृ	-13347
जनले	-13348
ाउँछु	-13349
▁आहार	-13350
▁पठाए	-13351
▁रुची	-13352
दास्पद	-13353
शिक्षा	-13354
▁आवधिक	-13355
▁इन्भे	-13356
▁ढिलाई	-13357
▁दौरान	-13358
▁शुन्य	-13359
▁उभिएको	-13360
▁जाहेरी	-13361
▁देशबीच	-13362
▁नाताले	-13363
▁पैसाले	-13364
▁बगाएको	-13365
▁जोगाउने	-13366
▁बहुमुखी	-13367
▁निकाल्दै	-13368
▁नेपालसँग	-13369
▁भेटिन्छन्	-13370
ोप	-13371
पती	-13372
धर्म	-13373
▁ओबा	-13374
▁हले	-13375
नगरमा	-13376
▁छिटै	-13377
▁तिलक	-13378
▁प्यू	-13379
▁१९९८	-13380
हरुसंग	-13381
▁इत्या	-13382
▁बन्धक	-13383
▁मोबाई	-13384
▁सल्ला	-13385
▁स्टेड	-13386
▁आश्रित	-13387
▁बोलेका	-13388
▁माटोको	-13389
▁माध्या	-13390
▁इन्डिया	-13391
▁रोमाञ्च	-13392
▁साविकको	-13393
▁सेकेन्ड	-13394
▁एकदिवसीय	-13395
▁ठ्याक्कै	-13396
▁सन्तुष्टि	-13397
▁पत्रकारलाई	-13398
ec	-13399
ong	-13400
जीत	-13401
▁झम	-13402
रणको	-13403
शिला	-13404
हीको	-13405
▁सुव	-13406
▁2017	-13407
▁अठोट	-13408
▁दिवा	-13409
▁पाएन	-13410
▁रौनक	-13411
▁सुगम	-13412
विनायक	-13413
▁नामका	-13414
▁पल्टि	-13415
▁विकाश	-13416
▁सनातन	-13417
▁उन्नति	-13418
▁कतारमा	-13419
▁कलेजले	-13420
▁ठाँउमा	-13421
▁ब्याटि	-13422
▁रातारा	-13423
▁सम्झेर	-13424
▁चेकजाँच	-13425
▁जनार्दन	-13426
▁बताउछन्	-13427
▁यस्तोमा	-13428
▁कास्कीको	-13429
▁क्षमताका	-13430
▁राजनितिक	-13431
▁संवाददाता	-13432
▁गराउनुपर्ने	-13433
▁रेस्टुरेन्ट	-13434
▁क्रियाकलापमा	-13435
र्ई	-13436
वेल	-13437
शको	-13438
▁सट	-13439
प्पु	-13440
ेजको	-13441
▁for	-13442
तिरको	-13443
▁घर्त	-13444
▁दातृ	-13445
▁धूलो	-13446
▁निशा	-13447
▁प्यु	-13448
▁बिल्	-13449
▁लायक	-13450
▁सोझो	-13451
▁अवतार	-13452
▁छरिएर	-13453
▁जोमसो	-13454
▁मिल्न	-13455
▁लडाकू	-13456
▁हरायो	-13457
▁अनुभवी	-13458
▁गरिदिए	-13459
▁जवाफमा	-13460
▁पुर्खा	-13461
▁फोक्सो	-13462
▁मानेको	-13463
▁रमाउने	-13464
▁श्रोता	-13465
▁प्रसङ्ग	-13466
▁योजनाका	-13467
▁कारागारमा	-13468
▁वर्षौंदेखि	-13469
▁सभापतित्वमा	-13470
▁जरू	-13471
▁धित	-13472
▁खोले	-13473
▁छक्क	-13474
▁बिघा	-13475
▁मर्न	-13476
▁रोटी	-13477
▁अंकमा	-13478
▁ईन्टर	-13479
▁देखाउ	-13480
▁लेनिन	-13481
▁खानाको	-13482
▁माफिया	-13483
▁मिटरको	-13484
▁हेरचाह	-13485
हरूमध्ये	-13486
▁महायज्ञ	-13487
▁मिश्रले	-13488
▁रिजालले	-13489
▁अनुगमनका	-13490
▁पुरस्कारको	-13491
▁नेपालीहरुलाई	-13492
▁श्रद्धाञ्जली	-13493
ea	-13494
▁एथ	-13495
टरको	-13496
न्डी	-13497
▁अहम	-13498
▁घोर	-13499
▁हर्	-13500
स्तान	-13501
ीमाथि	-13502
▁कृया	-13503
▁चिप्	-13504
▁झोलु	-13505
▁ठाँउ	-13506
▁प्वा	-13507
▁बुझि	-13508
▁मोती	-13509
▁विश्	-13510
▁सोसल	-13511
▁गिरोह	-13512
▁तालमा	-13513
▁सकेमा	-13514
निर्देश	-13515
▁अनुकुल	-13516
▁खरेलले	-13517
▁खेलबाट	-13518
▁निष्ठा	-13519
▁अनुबन्ध	-13520
▁अपराधमा	-13521
▁दुर्व्य	-13522
▁मस्र्या	-13523
▁श्रीमति	-13524
▁उत्पीडित	-13525
▁त्रिशूली	-13526
▁बेलायतका	-13527
▁सिण्डिकेट	-13528
▁किलोमिटरको	-13529
ष्म	-13530
डिखेल	-13531
दिष्ट	-13532
▁कपुर	-13533
▁गुठी	-13534
▁ढुकु	-13535
▁दत्त	-13536
▁बोहो	-13537
▁ब्लक	-13538
▁दस्तुर	-13539
▁बाबुको	-13540
........	-13541
▁अरेबिया	-13542
▁नेकपाले	-13543
▁हिंसाको	-13544
▁गरिरहँदा	-13545
▁रहनुभएको	-13546
▁शर्मालाई	-13547
▁फ्रान्सको	-13548
▁भक्तपुरका	-13549
▁संस्थाबाट	-13550
▁टेलिभिजनमा	-13551
▁पुनरावलोकन	-13552
डै	-13553
४०	-13554
हिद	-13555
ेरी	-13556
एपनि	-13557
स्रा	-13558
▁आइस	-13559
▁तिल	-13560
▁मेन	-13561
▁लाह	-13562
▁अपुग	-13563
▁आमरण	-13564
▁धुवा	-13565
▁नविन	-13566
▁लाने	-13567
▁साहस	-13568
▁हिलो	-13569
▁असुली	-13570
▁दाउरा	-13571
▁दिनेछ	-13572
▁धरौटी	-13573
▁बेल्ट	-13574
▁मास्क	-13575
▁कलेजका	-13576
▁परमाणु	-13577
▁हराएका	-13578
मलेन्द्र	-13579
▁क्लिनिक	-13580
▁सोसाइटी	-13581
▁क्यापिटल	-13582
▁सेक्युरि	-13583
▁स्वदेशमा	-13584
▁ह्वात्तै	-13585
▁संक्षिप्त	-13586
▁कार्यक्रमहरू	-13587
▁जनप्रतिनिधिले	-13588
ठ्ठी	-13589
ुद्ध	-13590
▁डाँ	-13591
▁धर्	-13592
ङ्गिक	-13593
पुत्र	-13594
▁जलेर	-13595
▁नयां	-13596
▁मेरि	-13597
▁लोका	-13598
▁थियाे	-13599
▁प्रशं	-13600
▁मनसाय	-13601
▁यत्रो	-13602
▁एकेडेम	-13603
▁चुहावट	-13604
▁ट्राभल	-13605
▁नपाएका	-13606
▁म्यान्	-13607
▁विषयले	-13608
▁समुहले	-13609
बहादुरले	-13610
▁सहमतिका	-13611
▁सांसदको	-13612
▁उदेश्यले	-13613
▁कलाकारले	-13614
▁स्वाभिमान	-13615
टस	-13616
ies	-13617
शांक	-13618
▁उपर	-13619
▁डिन	-13620
▁मनन	-13621
डिङको	-13622
▁अबेर	-13623
▁त्रा	-13624
▁फिचर	-13625
▁मसला	-13626
▁रुघा	-13627
▁विजु	-13628
▁सर्ट	-13629
दाताले	-13630
हाल्ने	-13631
▁अंकित	-13632
▁तस्कर	-13633
▁दुखाइ	-13634
▁निहित	-13635
▁फाराम	-13636
▁सच्चा	-13637
सेनापति	-13638
▁कार्यक	-13639
▁चन्दले	-13640
▁स्वामी	-13641
▁अपरान्ह	-13642
▁गर्नेले	-13643
▁गोरखाको	-13644
▁बाहिरको	-13645
▁मान्दैन	-13646
▁क्षमतामा	-13647
▁समाधानको	-13648
▁सुन्दरता	-13649
▁महाअभियोग	-13650
▁सीमावर्ती	-13651
▁प्रयोगशाला	-13652
नीत	-13653
ौरी	-13654
चोटि	-13655
डिने	-13656
त्तम	-13657
पालो	-13658
▁इनि	-13659
▁चतु	-13660
▁जिम	-13661
▁धुन	-13662
▁चट्ट	-13663
▁जिवि	-13664
▁बिपी	-13665
▁बूढा	-13666
▁मानी	-13667
▁पुण्य	-13668
▁बस्यो	-13669
▁मौसमी	-13670
▁सच्या	-13671
▁सर्ने	-13672
संस्कार	-13673
▁किनेको	-13674
▁पर्वका	-13675
▁बिजेता	-13676
▁लम्साल	-13677
▁सुशीला	-13678
▁छायाँकन	-13679
▁तालिमको	-13680
▁त्यतिकै	-13681
▁नाकाबाट	-13682
▁पुँजीगत	-13683
▁रातारात	-13684
▁विकेटको	-13685
▁श्राद्ध	-13686
▁हिँडेको	-13687
▁गर्नेहरु	-13688
▁प्रतिवाद	-13689
▁स्वचालित	-13690
▁स्वस्थ्य	-13691
▁पुस्तालाई	-13692
▁इंग्ल्यान्ड	-13693
▁प्राथमिकताका	-13694
▁लक्ष्मीप्रसाद	-13695
ंन	-13696
▁ठह	-13697
▁नट	-13698
कलको	-13699
जहाज	-13700
▁महार	-13701
▁संसो	-13702
▁आजीवन	-13703
▁चर्का	-13704
▁टेकेर	-13705
▁वेष्ट	-13706
▁सोध्न	-13707
▁सोलार	-13708
▁हुनका	-13709
▁गौशाला	-13710
▁तहसम्म	-13711
▁सघाउने	-13712
▁अपराधको	-13713
▁नगरिएको	-13714
▁नमान्ने	-13715
▁निरंकुश	-13716
▁प्लान्ट	-13717
▁मध्यपुर	-13718
▁मनाइएको	-13719
▁अपेक्षित	-13720
▁देशभित्र	-13721
▁बढिरहेका	-13722
▁प्रमाणीकरण	-13723
▁प्रवर्द्धन	-13724
▁पाकिस्तानमा	-13725
▁बढाउनुपर्ने	-13726
▁महाप्रबन्धक	-13727
▁ं	-13728
टेल	-13729
बर्	-13730
▁उध	-13731
ठनिक	-13732
डाले	-13733
ब्रा	-13734
ट्रिक	-13735
▁खादा	-13736
▁नीजि	-13737
▁पठाई	-13738
▁भनें	-13739
स्तरका	-13740
▁एनसेल	-13741
▁कोर्स	-13742
▁मारेर	-13743
▁नपरेको	-13744
▁बाँधेर	-13745
▁कलात्मक	-13746
▁कूटनीति	-13747
▁चापागाई	-13748
▁नपाएपछि	-13749
▁बैंकबाट	-13750
▁मातहतमा	-13751
▁ल्याउँछ	-13752
▁सम्भवतः	-13753
▁सुनिन्छ	-13754
▁स्पेनिस	-13755
▁स्याहार	-13756
▁आत्मसात्	-13757
▁पुरुषलाई	-13758
▁राज्यबाट	-13759
▁बैंकहरुले	-13760
▁रूपन्देही	-13761
▁सम्मेलनले	-13762
▁राजदूतावास	-13763
▁अनियन्त्रित	-13764
▁पुनर्संरचना	-13765
▁संस्थाहरुले	-13766
दफा	-13767
पहा	-13768
सेट	-13769
▁मख	-13770
चौकी	-13771
पाको	-13772
वाणी	-13773
ुरोग	-13774
▁आशय	-13775
▁काे	-13776
▁रोल	-13777
डेन्ट	-13778
ेसनले	-13779
्वाइस	-13780
▁चकित	-13781
▁पागल	-13782
▁वर्क	-13783
न्तरमा	-13784
ित्याग	-13785
▁क्षमा	-13786
▁गर्दे	-13787
▁घुँडा	-13788
▁दुइटा	-13789
▁मनोबल	-13790
▁उरुग्व	-13791
▁जमिनको	-13792
▁प्यारो	-13793
▁नपुगेको	-13794
▁मोटरसाई	-13795
▁यसपटकको	-13796
▁विचारको	-13797
▁सामानको	-13798
▁गोर्खाली	-13799
▁दिनहरुमा	-13800
▁ब्याट्री	-13801
▁म्यानेजर	-13802
▁चन्द्रागि	-13803
▁अर्घाखाँची	-13804
▁महिलाहरुलाई	-13805
▁लोकतन्त्रमा	-13806
२२	-13807
ँडी	-13808
गाढ	-13809
टिश	-13810
थली	-13811
ेनर	-13812
्रय	-13813
▁बोग	-13814
▁आशिष	-13815
▁नसकि	-13816
▁पस्क	-13817
हरुलाइ	-13818
▁नेसनल	-13819
▁बर्खा	-13820
▁महन्थ	-13821
▁रुपमै	-13822
▁सडकका	-13823
▁आआफ्नो	-13824
▁जानेको	-13825
▁दबाबमा	-13826
▁निगमका	-13827
▁बाबजुद	-13828
▁लेखनमा	-13829
▁अराजकता	-13830
▁खोलिएको	-13831
▁टीकापुर	-13832
▁समकक्षी	-13833
▁बिचौलिया	-13834
▁बिरामीले	-13835
▁भूकम्पका	-13836
▁वार्ताको	-13837
▁सानैदेखि	-13838
▁पार्टीबाट	-13839
▁सम्वन्धित	-13840
▁वृद्धवृद्ध	-13841
▁अनुसन्धानले	-13842
▁प्रतिवेदनले	-13843
▁मानिसहरूलाई	-13844
nd	-13845
लीप	-13846
▁आल	-13847
▁षड	-13848
रियल	-13849
▁कदा	-13850
▁मत्	-13851
कारका	-13852
वेदना	-13853
▁डेलि	-13854
▁माझी	-13855
▁इन्दि	-13856
▁तेलको	-13857
▁दृष्य	-13858
▁ध्वनि	-13859
▁नकआउट	-13860
▁पासाङ	-13861
▁बिमान	-13862
▁मिठाई	-13863
▁याएका	-13864
▁रोकेर	-13865
▁विष्ण	-13866
▁सोचमा	-13867
▁औँल्या	-13868
▁कसैसँग	-13869
▁क्यारे	-13870
▁चाहेका	-13871
▁दिनभरि	-13872
▁निलम्ब	-13873
▁बलिदान	-13874
▁लैंगिक	-13875
▁वर्गीय	-13876
▁विखण्ड	-13877
▁बिदेशमा	-13878
▁यहाँबाट	-13879
▁राख्छन्	-13880
▁उद्योगका	-13881
▁जन्माउने	-13882
▁त्यसबाहेक	-13883
▁नगरपालीका	-13884
▁युवाहरुलाई	-13885
▁धर्मावलम्बी	-13886
▁कोषाध्यक्षमा	-13887
टू	-13888
हट	-13889
▁उज	-13890
मानव	-13891
▁उडा	-13892
▁काज	-13893
▁झिल	-13894
▁शेष	-13895
द्धार	-13896
नीयता	-13897
▁चौपा	-13898
▁बाटा	-13899
▁ब्यु	-13900
▁भिजन	-13901
▁ल्हा	-13902
▁हामि	-13903
▁अडियो	-13904
▁ईलाका	-13905
▁टुक्र	-13906
▁साइबर	-13907
▁सिरिज	-13908
▁हुदाँ	-13909
परीक्षण	-13910
▁घरदैलो	-13911
▁चौकीमा	-13912
▁छुट्टि	-13913
▁दाहिने	-13914
▁फर्किन	-13915
▁सभालाई	-13916
▁सिङ्गो	-13917
▁सुनौलो	-13918
▁सुरुआत	-13919
▁अपांगता	-13920
▁दुवैलाई	-13921
▁न्युनतम	-13922
▁महिनामै	-13923
▁परित्याग	-13924
▁पाइन्छन्	-13925
▁बस्नेतको	-13926
▁पाउनुपर्छ	-13927
▁पुँजीवादी	-13928
▁केन्द्रलाई	-13929
ँध	-13930
अन	-13931
झै	-13932
साइड	-13933
▁आले	-13934
▁गुग	-13935
▁भंग	-13936
.....	-13937
▁जनही	-13938
▁डोजर	-13939
▁नाला	-13940
▁लीला	-13941
▁२००४	-13942
हरूबीच	-13943
▁तरीका	-13944
▁सार्न	-13945
▁स्टाइ	-13946
▁आँखाले	-13947
▁चलाउनु	-13948
▁चलाएका	-13949
▁अगाडिको	-13950
▁उनीमाथि	-13951
▁चर्चाको	-13952
▁तपाइँको	-13953
▁मृत्युप	-13954
▁उपसभामुख	-13955
▁उत्तरदायी	-13956
▁प्रतिकिलो	-13957
▁सम्बन्धका	-13958
▁साथीहरुले	-13959
▁तथ्यांकअनुसार	-13960
▁,	-13961
ash	-13962
द्दी	-13963
नमान	-13964
पीआर	-13965
▁डकु	-13966
▁बेद	-13967
▁मनम	-13968
जीलाई	-13969
▁इँटा	-13970
▁उचाई	-13971
▁कुहि	-13972
▁चौला	-13973
▁मंसी	-13974
▁सुति	-13975
▁अर्की	-13976
▁तिव्र	-13977
▁पुनस्	-13978
▁हँुदै	-13979
▁आजभोलि	-13980
▁ढिलासु	-13981
▁रावलले	-13982
▁आत्मसात	-13983
▁कुकुरको	-13984
▁तारिखमा	-13985
▁भईसकेको	-13986
▁भाग्यमा	-13987
▁भिन्नता	-13988
▁लगाएतका	-13989
▁लाग्नेछ	-13990
▁कार्यन्व	-13991
▁पुस्ताका	-13992
▁बलात्कृत	-13993
▁भिडियोको	-13994
▁निर्णयलाई	-13995
▁निर्विरोध	-13996
▁प्राज्ञिक	-13997
▁विवादास्पद	-13998
देस	-13999
िनु	-14000
कोमा	-14001
न्द्	-14002
पाली	-14003
बाबा	-14004
▁तता	-14005
▁दंग	-14006
▁सको	-14007
प्रभु	-14008
प्रेम	-14009
ारीको	-14010
▁आजकल	-14011
▁क्रस	-14012
▁चौडा	-14013
▁टुरि	-14014
▁वापत	-14015
▁विहि	-14016
▁सातै	-14017
न्तरले	-14018
▁आदिमा	-14019
▁तल्ला	-14020
▁बिभाग	-14021
▁रेमिट	-14022
▁अलैँची	-14023
▁चारजना	-14024
▁बुढाले	-14025
▁ब्यूरो	-14026
▁शाखामा	-14027
▁शासकीय	-14028
▁कविताको	-14029
▁चिनिन्छ	-14030
▁धादिङको	-14031
▁बानियाँ	-14032
▁माइतीघर	-14033
▁सुदर्शन	-14034
▁अनुदानमा	-14035
▁गुरुङलाई	-14036
▁पञ्चायती	-14037
▁पुस्ताको	-14038
▁कारवाहीको	-14039
▁जनयुद्धको	-14040
▁पाउँदैनन्	-14041
▁शताब्दीको	-14042
▁साँच्चिकै	-14043
▁समाचारपत्र	-14044
▁प्रधानसेनापति	-14045
igh	-14046
our	-14047
ः३०	-14048
▁न्	-14049
चीको	-14050
▁आँच	-14051
▁उषा	-14052
▁किच	-14053
▁कोश	-14054
▁थाई	-14055
▁धके	-14056
▁आभास	-14057
▁इकाइ	-14058
▁एकको	-14059
▁नवौं	-14060
▁याली	-14061
पिच्छे	-14062
र्थीको	-14063
हरुबीच	-14064
▁ठाउमा	-14065
▁दिलिप	-14066
▁लिलाम	-14067
▁एकलौटी	-14068
▁दिँदैन	-14069
▁बचाउने	-14070
▁रहँदैन	-14071
ोत्कृष्ट	-14072
▁उमेदवार	-14073
▁क्लबलाई	-14074
▁घरभित्र	-14075
▁परिषदको	-14076
▁पाँचवटा	-14077
▁प्रवन्ध	-14078
▁विद्वान	-14079
▁विष्टको	-14080
▁जवाफदेही	-14081
▁पर्यावरण	-14082
▁प्रतिरोध	-14083
▁श्रीमतीलाई	-14084
▁निर्वाचनपछि	-14085
▁ब्याट्सम्यान	-14086
ँक	-14087
ँमा	-14088
चढा	-14089
▁धम	-14090
▁वृह	-14091
▁एकले	-14092
▁कट्ट	-14093
▁तानि	-14094
▁बस्य	-14095
▁हेरी	-14096
बिरुवा	-14097
र्मिला	-14098
वहादुर	-14099
▁खानले	-14100
▁बिनोद	-14101
▁भाइरस	-14102
▁वडाको	-14103
▁नगरेका	-14104
▁मिल्यो	-14105
▁मुखिया	-14106
▁शुक्ला	-14107
▁सर्भिस	-14108
▁कार्यले	-14109
▁आत्मघाती	-14110
▁एकाधिकार	-14111
▁बाहिरिने	-14112
▁संशोधनका	-14113
▁केन्द्रीत	-14114
▁विनाशकारी	-14115
▁कर्मचारीका	-14116
▁नेतृत्वलाई	-14117
▁व्यवस्थाका	-14118
▁नेपालीहरूको	-14119
▁पूर्वमन्त्री	-14120
eb	-14121
गे	-14122
जुक	-14123
्ला	-14124
▁ओइ	-14125
ष्टर	-14126
▁किट	-14127
▁तलव	-14128
▁धम्	-14129
▁पुछ	-14130
▁बाथ	-14131
▁हाड	-14132
▁अलैं	-14133
▁उचाल	-14134
▁भीषण	-14135
▁र्या	-14136
दिन्छु	-14137
▁उपदफा	-14138
▁वस्ती	-14139
▁समस्त	-14140
▁अर्बको	-14141
▁इलामको	-14142
▁दिएनन्	-14143
▁प्यानल	-14144
▁खेल्नेछ	-14145
▁ढोरपाटन	-14146
▁नपाउँदै	-14147
▁पीडितले	-14148
▁हप्ताको	-14149
▁हरियाली	-14150
▁रामकुमार	-14151
▁छुट्याएको	-14152
▁सगरमाथाको	-14153
▁सम्प्रेषण	-14154
▁अख्तियारले	-14155
हस	-14156
तीक	-14157
थोक	-14158
फले	-14159
मास	-14160
हना	-14161
ण्टा	-14162
पेको	-14163
ल्का	-14164
हलमा	-14165
▁नका	-14166
▁जागर	-14167
▁जोहो	-14168
▁टुप्	-14169
▁मेमो	-14170
▁राइन	-14171
त्ताको	-14172
प्रेषण	-14173
▁जनामा	-14174
▁पर्ला	-14175
▁भनियो	-14176
▁वाध्य	-14177
▁सिटमा	-14178
▁सुटिङ	-14179
▁असोजमा	-14180
▁भेटिन्छ	-14181
▁मुटुरोग	-14182
▁राजपाका	-14183
▁उपमहानगर	-14184
▁एमालेलाई	-14185
▁आन्दोलनरत	-14186
▁नाइजेरिया	-14187
▁शताब्दीमा	-14188
▁साम्राज्ञ	-14189
▁विद्यार्थीहरुले	-14190
ूक	-14191
६३	-14192
खाई	-14193
पहल	-14194
शले	-14195
ैया	-14196
▁नत	-14197
▁सफ	-14198
तारो	-14199
दुरी	-14200
▁आउछ	-14201
शुराम	-14202
ौलाको	-14203
▁अल्ट	-14204
▁गाडि	-14205
▁झरना	-14206
▁अराजक	-14207
▁खोजेर	-14208
▁चढेको	-14209
▁नोबेल	-14210
रहन्छन्	-14211
▁डीएसपी	-14212
▁तिरेको	-14213
▁मध्यरा	-14214
▁वर्गमा	-14215
▁विर्ता	-14216
▁सडकबाट	-14217
▁सार्की	-14218
▁देखिन्न	-14219
▁पर्दामा	-14220
▁बालविवाह	-14221
▁साक्षरता	-14222
▁उप्रेतीले	-14223
▁गर्नुभएका	-14224
▁कोइरालालाई	-14225
▁गर्नुभन्दा	-14226
▁सदस्यहरुको	-14227
▁जिल्लाहरुमा	-14228
▁प्रदेशसभामा	-14229
२८	-14230
णाम	-14231
कुमा	-14232
▁अबै	-14233
▁खरा	-14234
▁मदत	-14235
ोत्तम	-14236
▁एनएम	-14237
▁कपिल	-14238
▁क्षय	-14239
▁छाडा	-14240
▁दुरु	-14241
▁अघिको	-14242
▁गङ्गा	-14243
▁ब्वाइ	-14244
▁जोडिने	-14245
▁बेलैमा	-14246
▁मधेसको	-14247
▁कन्सर्ट	-14248
▁भद्रपुर	-14249
▁मान्छन्	-14250
▁हिंसाका	-14251
▁हिमालको	-14252
▁गुल्मीको	-14253
▁परिषद्का	-14254
▁निष्क्रिय	-14255
▁स्वीकार्य	-14256
▁कञ्चनपुरमा	-14257
▁परमेश्वरले	-14258
all	-14259
पनी	-14260
पिए	-14261
०७५	-14262
यकोष	-14263
▁खाए	-14264
▁खुश	-14265
▁गुठ	-14266
▁ट्यु	-14267
▁निति	-14268
▁नेवा	-14269
▁ब्रत	-14270
▁सावि	-14271
▁सुगर	-14272
▁सेरो	-14273
सञ्चार	-14274
▁दार्श	-14275
▁उनिहरु	-14276
▁बेथिति	-14277
▁मितिमा	-14278
▁हुनुमा	-14279
▁अंग्रेज	-14280
▁चमत्कार	-14281
▁बजारलाई	-14282
▁ब्यबसाय	-14283
▁रिचार्ज	-14284
▁कुटनीतिक	-14285
▁परिवर्तित	-14286
▁राष्ट्रलाई	-14287
▁सदरमुकाममा	-14288
▁रेष्टुरेन्ट	-14289
▁सिंहदरबारमा	-14290
मुल	-14291
▁रम	-14292
▁शस	-14293
▁गरौ	-14294
▁गोज	-14295
▁च्य	-14296
▁मँच	-14297
▁याए	-14298
▁२५०	-14299
▁तरंग	-14300
▁आरोही	-14301
▁चिन्न	-14302
▁किराती	-14303
▁भ्रातृ	-14304
▁मुक्तक	-14305
▁साइन्स	-14306
▁हालेको	-14307
▁उपेक्षा	-14308
▁केहीबेर	-14309
▁हिसावले	-14310
▁आमन्त्रण	-14311
▁अद्यावधिक	-14312
▁गराउनुभयो	-14313
▁मस्यौदामा	-14314
▁राजसंस्था	-14315
▁लिमिटेडको	-14316
▁इन्टरनेटको	-14317
▁नारायणकाजी	-14318
▁परियोजनामा	-14319
▁पाठ्यपुस्त	-14320
▁सदस्यहरुलाई	-14321
▁संविधानसभाबाट	-14322
of	-14323
राका	-14324
ैंचा	-14325
▁छैठ	-14326
▁वित	-14327
▁शिल	-14328
करणका	-14329
▁खुल्	-14330
▁तालि	-14331
जिल्ला	-14332
▁डेस्क	-14333
▁खाल्डो	-14334
▁छातीमा	-14335
▁जिम्बा	-14336
▁मनोनित	-14337
▁सहितका	-14338
▁हेक्का	-14339
हरुमध्ये	-14340
▁आमाबाबु	-14341
▁धन्यबाद	-14342
▁विवाहित	-14343
▁कोटेश्वर	-14344
▁दक्षिणमा	-14345
▁यहाँसम्म	-14346
▁सदस्यहरू	-14347
▁प्राप्तिको	-14348
▁संविधानलाई	-14349
▁स्पष्टीकरण	-14350
▁संस्थाहरुको	-14351
▁रक्षामन्त्री	-14352
कस	-14353
गाफ	-14354
भिङ	-14355
न्डो	-14356
पामा	-14357
पीएस	-14358
बस्त	-14359
र्थि	-14360
ुपमा	-14361
▁फूट	-14362
अघिका	-14363
▁थप्न	-14364
▁प्रज	-14365
▁मुसि	-14366
▁मोति	-14367
▁वताए	-14368
▁विला	-14369
क्टरमा	-14370
▁प्रसू	-14371
▁सत्या	-14372
▁एसएमएस	-14373
▁कमाएका	-14374
▁कोरियन	-14375
▁खुलेका	-14376
▁शैलीको	-14377
▁त्यसयता	-14378
▁दिलाएका	-14379
▁चलिरहेका	-14380
▁प्रगतिको	-14381
▁मातृभाषा	-14382
▁अभिभावकको	-14383
▁सकिन्थ्यो	-14384
▁छुट्याइएको	-14385
▁प्रणालीबाट	-14386
▁प्रतिनिधिसभाका	-14387
▁विद्यार्थीहरुको	-14388
ry	-14389
पूर	-14390
स्स	-14391
ंग्य	-14392
चोकमा	-14393
दथ्यो	-14394
हराको	-14395
▁उनमा	-14396
▁खालि	-14397
▁बेचि	-14398
▁बोका	-14399
▁मंसि	-14400
▁सर्ज	-14401
जात्रा	-14402
सूचीमा	-14403
▁गफगाफ	-14404
▁जरूरी	-14405
▁बहाना	-14406
▁म्याग	-14407
▁रकममा	-14408
▁लिङ्क	-14409
▁हड्डी	-14410
▁हारेर	-14411
▁हैरान	-14412
तर्फबाट	-14413
▁टेण्डर	-14414
▁तानाशा	-14415
▁दूरीमा	-14416
▁पेशामा	-14417
▁सुन्नु	-14418
▁शक्तिका	-14419
▁स्वाधीन	-14420
▁सुकुम्बा	-14421
▁प्राप्तिका	-14422
▁पत्रकारिताको	-14423
▁काभ्रेपलाञ्चोक	-14424
oo	-14425
बडी	-14426
भिय	-14427
हले	-14428
▁बब	-14429
न्जन	-14430
▁अतः	-14431
▁मेघ	-14432
जानिक	-14433
न्समा	-14434
▁छर्ल	-14435
व्यस्त	-14436
्यान्ड	-14437
▁जंगली	-14438
▁बुलेट	-14439
▁सोचाइ	-14440
तिमात्र	-14441
▁छापेको	-14442
▁देखिनु	-14443
▁मोडलिङ	-14444
▁रेखदेख	-14445
▁सिध्या	-14446
▁अफ्रिकी	-14447
▁कन्सल्ट	-14448
▁क्रिस्ट	-14449
▁प्रसन्न	-14450
▁फैलाउने	-14451
▁लगाएपछि	-14452
▁स्पोर्ट	-14453
▁क्वार्टर	-14454
▁पुरातत्व	-14455
▁हैसियतले	-14456
▁कालोबजारी	-14457
▁घटनास्थलमा	-14458
▁घोषणापत्रमा	-14459
▁ल्याउनुपर्ने	-14460
▁लगानीकर्तालाई	-14461
?,	-14462
दौ	-14463
▁ab	-14464
ब्रि	-14465
▁तरल	-14466
▁नपु	-14467
▁फिर	-14468
▁याङ	-14469
किलले	-14470
सुदेव	-14471
ारीमा	-14472
▁निक्	-14473
▁हकको	-14474
▁२०००	-14475
लाग्दा	-14476
सियाली	-14477
सुन्दर	-14478
▁आइफोन	-14479
▁एटिएम	-14480
▁गीतका	-14481
▁जातिय	-14482
▁तम्घा	-14483
▁पुनको	-14484
▁पुराण	-14485
▁बन्दो	-14486
▁वालिङ	-14487
▁विषेश	-14488
▁स्याङ	-14489
▁आकारको	-14490
▁कामबाट	-14491
▁कृषकले	-14492
▁मैथिली	-14493
▁रोकेको	-14494
▁हिड्ने	-14495
▁परेकाले	-14496
▁ल्यापटप	-14497
▁प्रयोगको	-14498
▁वित्तिकै	-14499
▁षडयन्त्र	-14500
▁सम्मानमा	-14501
▁अपराधीलाई	-14502
▁आयोजनालाई	-14503
▁संविधानका	-14504
फत	-14505
ंगत	-14506
पेच	-14507
ेखा	-14508
चिलो	-14509
▁आँप	-14510
▁उछि	-14511
▁खवर	-14512
▁चढा	-14513
▁थेग	-14514
▁पकड	-14515
▁अब्द	-14516
▁गोबर	-14517
▁होली	-14518
▁कमेडी	-14519
▁कोईरा	-14520
▁तालको	-14521
▁निहुँ	-14522
▁बालेर	-14523
▁मनपरी	-14524
▁मूख्य	-14525
▁सामसु	-14526
सकेकाले	-14527
▁केसीका	-14528
▁खुसीको	-14529
▁गएकाले	-14530
▁तान्ने	-14531
▁युवायु	-14532
▁रहेकाे	-14533
▁स्वास्	-14534
▁क्यामरा	-14535
▁गर्नेमा	-14536
▁परिपक्व	-14537
▁बिहानको	-14538
▁अत्याचार	-14539
▁अस्वीकृत	-14540
▁त्यसैलाई	-14541
▁दार्शनिक	-14542
▁परमप्रभु	-14543
▁सिमानामा	-14544
▁फेब्रुअरी	-14545
▁गर्दागर्दै	-14546
▁राख्नुभएको	-14547
▁स्थानहरुमा	-14548
उछ	-14549
२४	-14550
कुट	-14551
थेँ	-14552
▁ओठ	-14553
▁गी	-14554
गर्न	-14555
नबाट	-14556
स्यक	-14557
ूर्त	-14558
▁एडि	-14559
▁कुश	-14560
▁गएँ	-14561
▁पका	-14562
▁बगर	-14563
▁वाद	-14564
▁कामी	-14565
▁राशी	-14566
▁सुलभ	-14567
ठाउँमा	-14568
विकोपा	-14569
स्ट्रो	-14570
▁कमिटि	-14571
▁चन्दन	-14572
▁परेमा	-14573
▁अभिव्य	-14574
▁कुलपति	-14575
▁तबसम्म	-14576
▁निस्कन	-14577
▁बिक्रम	-14578
▁बितेको	-14579
▁अघिल्ला	-14580
▁गुमाउनु	-14581
▁नोक्सान	-14582
▁मिश्रित	-14583
▁प्रभावमा	-14584
▁देवेन्द्र	-14585
▁मानवअधिका	-14586
▁संरक्षणको	-14587
▁भण्डारीलाई	-14588
▁रोजगारदाता	-14589
▁सदस्यहरुमा	-14590
ud	-14591
ञ्छ	-14592
पाट	-14593
ोदर	-14594
▁म्	-14595
होरो	-14596
▁एड्	-14597
▁घेर	-14598
▁तीस	-14599
▁नाई	-14600
▁बेड	-14601
क्सिङ	-14602
मुदाय	-14603
िएपछि	-14604
▁इष्ट	-14605
▁एनआई	-14606
▁तेरो	-14607
▁दिनै	-14608
▁नपाई	-14609
▁परमा	-14610
▁मनाई	-14611
▁यूके	-14612
▁२०६१	-14613
▁दुःखी	-14614
▁ब्याड	-14615
▁रहेनछ	-14616
▁हराउन	-14617
▁गतिशील	-14618
▁जिब्रो	-14619
▁तराईको	-14620
▁पुजारी	-14621
▁बसोवास	-14622
▁मैनाली	-14623
▁विक्रि	-14624
▁जनतासँग	-14625
▁बाहेकका	-14626
▁सूर्यको	-14627
▁फेसबुकले	-14628
▁पार्नुभयो	-14629
▁प्रोग्राम	-14630
▁बस्नुपर्ने	-14631
▁प्रदेशसभाका	-14632
गाइ	-14633
विद	-14634
▁un	-14635
▁आशी	-14636
▁डोट	-14637
▁दाब	-14638
▁नजी	-14639
▁हट्	-14640
न्टिक	-14641
भक्ति	-14642
वादले	-14643
▁डोरी	-14644
▁तिम्	-14645
▁वनको	-14646
ानुमान	-14647
▁जगतमा	-14648
▁जेठमा	-14649
▁निशान	-14650
▁फेवात	-14651
▁सहजता	-14652
▁सातदो	-14653
▁उत्तेज	-14654
▁एकान्त	-14655
▁माउन्ट	-14656
▁कुँवरले	-14657
▁त्यसैमा	-14658
▁आफूहरूले	-14659
▁वेबसाइटमा	-14660
▁विश्वविद्यालयले	-14661
जाउ	-14662
टाङ	-14663
▁सग	-14664
स्ते	-14665
▁मुर	-14666
न्तुक	-14667
विज्ञ	-14668
▁एचके	-14669
▁झिका	-14670
▁झ्या	-14671
▁टिपर	-14672
▁तिला	-14673
▁पालि	-14674
▁पोसा	-14675
▁प्रे	-14676
▁बहाव	-14677
▁बिधा	-14678
▁महिन	-14679
▁क्यार	-14680
▁जलाशय	-14681
▁मेशिन	-14682
▁रुसको	-14683
▁विदुर	-14684
▁सर्कि	-14685
▁अभिषेक	-14686
▁इनरुवा	-14687
▁कतारको	-14688
▁कामहरू	-14689
▁निकालि	-14690
▁नेवारी	-14691
▁प्रगाढ	-14692
▁प्रचुर	-14693
▁भोगेको	-14694
▁हुनेको	-14695
▁बढेसँगै	-14696
▁भाषालाई	-14697
▁सन्चालन	-14698
▁ट्याक्टर	-14699
▁व्यङ्ग्य	-14700
▁संरक्षित	-14701
▁कल्याणकारी	-14702
▁पाकिस्तानले	-14703
▁स्वामित्वमा	-14704
▁उम्मेदवारलाई	-14705
▁अर्थतन्त्रलाई	-14706
nt	-14707
एन्	-14708
▁री	-14709
क्ती	-14710
ङ्की	-14711
दाको	-14712
ञ्जेल	-14713
▁छत्र	-14714
▁छन्द	-14715
▁पहिर	-14716
▁रेल्	-14717
▁साथि	-14718
▁हवाइ	-14719
▁खानको	-14720
▁पोशाक	-14721
▁हानेर	-14722
▁उत्सुक	-14723
▁रमाईलो	-14724
▁समुहको	-14725
▁हजारका	-14726
▁अपनाउने	-14727
▁चलाउँदै	-14728
▁फेरिएको	-14729
▁आक्रमणको	-14730
▁खेलकुदमा	-14731
▁चौधरीलाई	-14732
▁परिमाणमा	-14733
▁शीर्षकको	-14734
▁विश्वासमा	-14735
▁संघीयतामा	-14736
▁कांग्रेसमा	-14737
▁रिपोर्टर्स	-14738
▁छोराछोरीलाई	-14739
▁विश्वकर्माले	-14740
ep	-14741
ँको	-14742
▁जघ	-14743
राना	-14744
▁खटा	-14745
▁टाई	-14746
▁नरम	-14747
▁ग्री	-14748
▁चौमा	-14749
▁दिसा	-14750
▁बहुउ	-14751
▁बाजी	-14752
▁सघाउ	-14753
▁काखमा	-14754
▁चाहेर	-14755
▁चैतमा	-14756
▁झन्डा	-14757
▁नलिने	-14758
▁पठाएर	-14759
▁मतभेद	-14760
▁यसैको	-14761
▁याउँछ	-14762
▁समयले	-14763
▁सर्भे	-14764
▁ग्याँस	-14765
▁छोरीले	-14766
▁पानीका	-14767
▁मध्यमा	-14768
▁साहसिक	-14769
▁अग्रवाल	-14770
▁अन्दाजी	-14771
▁एकाउन्ट	-14772
▁गिरिराज	-14773
▁पर्दछन्	-14774
▁महाभारत	-14775
▁युवतीको	-14776
▁शुभचिन्त	-14777
▁अधिकारीका	-14778
▁उर्लाबारी	-14779
▁अव्यवस्थित	-14780
▁जोखिमपूर्ण	-14781
▁बेलाबेलामा	-14782
▁उम्मेदवारले	-14783
ंव	-14784
यस	-14785
७२	-14786
▁z	-14787
नेल	-14788
▁अज	-14789
▁व्	-14790
बरको	-14791
भैलो	-14792
शनको	-14793
सियम	-14794
▁झलक	-14795
▁प्ल	-14796
▁मिथ	-14797
किशोर	-14798
गत्तै	-14799
त्तमा	-14800
▁अबका	-14801
▁आर्क	-14802
▁उत्स	-14803
▁दम्भ	-14804
▁ब्लु	-14805
▁रोजा	-14806
द्वारी	-14807
▁कम्मर	-14808
▁गठनको	-14809
▁थिईन्	-14810
▁नगरका	-14811
▁नाइके	-14812
▁भेगका	-14813
▁लगाएत	-14814
वाणिज्य	-14815
▁कमेन्ट	-14816
▁जुनियर	-14817
▁नाचगान	-14818
▁बन्देज	-14819
▁बेलाको	-14820
▁ब्रह्म	-14821
▁माग्दै	-14822
▁मृतकको	-14823
▁सक्तैन	-14824
▁अपनाउनु	-14825
▁गोल्डकप	-14826
▁ठाकुरले	-14827
▁नीतिलाई	-14828
▁फर्काउन	-14829
▁भइरहँदा	-14830
▁मार्फत्	-14831
▁लाखसम्म	-14832
▁उनिहरुको	-14833
▁पुर्पक्ष	-14834
▁स्टुडियो	-14835
अन्तर्गतको	-14836
▁करोडभन्दा	-14837
▁रत्नपार्क	-14838
▁इन्टरनेटमा	-14839
▁संस्कृतिलाई	-14840
▁सर्वोत्कृष्ट	-14841
पं	-14842
प्ला	-14843
बीले	-14844
▁तृत	-14845
▁सुट	-14846
लिङ्ग	-14847
▁टेबल	-14848
▁ड्रि	-14849
▁दिदि	-14850
▁दुरी	-14851
▁पाइन	-14852
▁वाटर	-14853
▁अलग्ग	-14854
▁बुकिङ	-14855
▁महानु	-14856
▁स्वयम	-14857
▁हिँड्	-14858
द्देश्य	-14859
ुनारायण	-14860
▁सकिदैन	-14861
▁साथीले	-14862
▁अन्धकार	-14863
▁इन्दिरा	-14864
▁कोहलपुर	-14865
▁गइरहेका	-14866
▁धुर्मुस	-14867
▁नैतिकता	-14868
▁समेट्ने	-14869
▁स्ट्राइ	-14870
▁अवस्थाले	-14871
▁उत्पत्ति	-14872
▁चाहन्छौं	-14873
▁देउवालाई	-14874
▁सुविधाको	-14875
▁प्रतिष्ठानमा	-14876
बढ	-14877
०७४	-14878
पसमा	-14879
▁चना	-14880
▁पिर	-14881
पहिरो	-14882
फाँटा	-14883
▁आइडल	-14884
▁एकाध	-14885
▁कोल्	-14886
▁जोडे	-14887
▁मौरी	-14888
▁संभव	-14889
▁सिके	-14890
▁सिता	-14891
पदार्थ	-14892
होरेको	-14893
▁छैनौँ	-14894
▁जघन्य	-14895
▁जयन्त	-14896
▁नजरमा	-14897
▁हटेको	-14898
▁ह्रास	-14899
▁ख्याति	-14900
▁गर्दछन	-14901
▁जगाउने	-14902
▁तपाइको	-14903
▁बाटोको	-14904
▁माछापु	-14905
▁मिसाएर	-14906
▁वर्ल्ड	-14907
▁स्तब्ध	-14908
▁धनगढीमा	-14909
▁पहुँचमा	-14910
▁बिहीवार	-14911
▁भ्रमणले	-14912
▁मानिसका	-14913
▁दिइसकेको	-14914
▁प्रायोजन	-14915
▁जितेन्द्र	-14916
▁ठेकेदारले	-14917
▁कञ्चनपुरकी	-14918
▁प्रदर्शनको	-14919
▁विमलेन्द्र	-14920
▁सदस्यहरुले	-14921
▁अनेरास्ववियु	-14922
▁शुक्रबारदेखि	-14923
इङ	-14924
ओटा	-14925
चले	-14926
▁कफ	-14927
सिएर	-14928
▁ढाड	-14929
▁बलर	-14930
▁रित	-14931
विस्त	-14932
▁आँशु	-14933
▁बेसी	-14934
▁लडेर	-14935
▁लाइभ	-14936
▁आसपास	-14937
▁गरिएन	-14938
▁जुलुस	-14939
▁बेइजि	-14940
▁रेलको	-14941
दिन्छन्	-14942
▁छन्त्य	-14943
▁नपरोस्	-14944
▁रामशरण	-14945
▁रिक्सा	-14946
▁सबैजना	-14947
▁हुलाकी	-14948
रहनुभएको	-14949
▁कृषकलाई	-14950
▁भारतबीच	-14951
▁हुनुअघि	-14952
क्षेत्रीय	-14953
▁डकुमेन्ट	-14954
▁फिल्मलाई	-14955
▁श्रीमानको	-14956
▁कार्यतालिका	-14957
▁व्यक्तिहरुले	-14958
जीओ	-14959
ूले	-14960
▁अं	-14961
त्ने	-14962
दिशा	-14963
र्ते	-14964
स्कर	-14965
▁करु	-14966
▁बगै	-14967
▁११०	-14968
प्रथा	-14969
▁गाबि	-14970
▁चलान	-14971
▁जानी	-14972
▁टाइप	-14973
▁विवश	-14974
▁शुल्	-14975
▁हिला	-14976
थ्र्यो	-14977
नान्तर	-14978
स्थलको	-14979
▁एन्टि	-14980
▁ग्रिन	-14981
▁जनाउन	-14982
▁भागेर	-14983
▁राष्ट	-14984
▁शालिक	-14985
▁सचेतक	-14986
▁स्पर्	-14987
▁अग्रिम	-14988
▁जान्छु	-14989
▁थालिन्	-14990
▁महत्वा	-14991
▁माथेमा	-14992
▁हामीमा	-14993
▁इन्स्टि	-14994
▁देखिदैन	-14995
▁पहिरोको	-14996
▁प्रोटिन	-14997
▁माथिबाट	-14998
▁न्यायालय	-14999
▁पृथ्वीको	-15000
▁विधेयकको	-15001
▁सन्तोषजनक	-15002
▁सम्मेलनका	-15003
▁बंगलादेशमा	-15004
▁भट्टराईलाई	-15005
▁राष्ट्रसंघको	-15006
चै	-15007
२६	-15008
▁ि	-15009
age	-15010
पिन	-15011
क्री	-15012
तलाई	-15013
वापत	-15014
▁जुस	-15015
काव्य	-15016
निष्ठ	-15017
▁चेतन	-15018
▁तोकि	-15019
▁निमो	-15020
▁बाटै	-15021
▁स्कट	-15022
▁२०५९	-15023
▁तोकिए	-15024
▁शङ्का	-15025
▁आफुहरु	-15026
▁चिच्या	-15027
▁चिनीको	-15028
▁मोवाइल	-15029
▁ऐश्वर्य	-15030
▁घटनापछि	-15031
▁फागुनमा	-15032
▁मलेशिया	-15033
▁लिभरपुल	-15034
▁हजुरआमा	-15035
▁सकिरहेका	-15036
▁सातादेखि	-15037
▁हजारदेखि	-15038
▁लागिपरेको	-15039
▁संस्थाहरू	-15040
▁अवस्थाबारे	-15041
▁राष्ट्रसंघीय	-15042
शहर	-15043
सेठ	-15044
फेरो	-15045
बराब	-15046
र्के	-15047
वंशी	-15048
सियन	-15049
▁अली	-15050
▁नशा	-15051
र्तिक	-15052
ल्दार	-15053
▁बढाई	-15054
▁दिलीप	-15055
▁रातमा	-15056
▁ज्वाला	-15057
▁नियोजन	-15058
▁भुटानी	-15059
▁रोकथाम	-15060
▁सजायको	-15061
▁इन्धनको	-15062
▁पहिरोमा	-15063
▁पारिएका	-15064
▁मुसलमान	-15065
▁रत्ननगर	-15066
▁विपत्ति	-15067
▁काठमान्ड	-15068
▁ट्वान्टी	-15069
▁देशबीचको	-15070
▁विजेताले	-15071
▁व्यक्तिमा	-15072
▁शुद्धीकरण	-15073
▁हरिप्रसाद	-15074
▁हुनुभन्दा	-15075
▁गराउनुभएको	-15076
▁पारदर्शिता	-15077
▁सर्वोच्चको	-15078
▁लगानीकर्ताको	-15079
▁स्वास्थ्यलाई	-15080
प्च	-15081
▁12	-15082
▁गल	-15083
गमती	-15084
त्वा	-15085
ेजना	-15086
▁शित	-15087
▁कोदो	-15088
▁चाँग	-15089
▁बढाउ	-15090
▁बाइक	-15091
▁महास	-15092
▁सिल्	-15093
▁२०६०	-15094
र्योदय	-15095
▁कमर्स	-15096
▁कोबाट	-15097
▁गिद्ध	-15098
▁जर्सी	-15099
▁बतायो	-15100
▁बेहोस	-15101
▁मागेर	-15102
▁रुसमा	-15103
▁लगानि	-15104
▁वयस्क	-15105
▁गुनासा	-15106
▁चहलपहल	-15107
▁तटबन्ध	-15108
▁फाल्ने	-15109
[...]
