<unk>	0
<s>	0
</s>	0
<NUM>	0
<YEAR>	0
<PHONE>	0
<ENG>	0
<ENG_PARAGRAPH>	0
।	-3.23318
▁	-3.44292
को	-3.70897
,	-3.90325
मा	-4.09017
▁र	-4.33363
ले	-4.34076
▁छ	-4.36434
का	-4.43331
लाई	-4.919
▁पनि	-5.11633
▁भएको	-5.33441
▁छन्	-5.46054
▁हो	-5.57264
▁गरेको	-5.61489
▁लागि	-5.63013
बाट	-5.63589
▁गर्न	-5.75299
▁भने	-5.76566
▁गर्ने	-5.76825
▁तथा	-5.82707
▁थियो	-5.92214
.	-5.93014
ी	-5.93761
▁यो	-5.93821
▁एक	-5.93886
न	-6.05799
▁नेपाल	-6.11006
▁हुने	-6.135
र	-6.13674
▁रहेको	-6.15435
▁नै	-6.21687
▁नेपाली	-6.28876
▁(	-6.2956
▁गरेका	-6.32729
▁तर	-6.32778
▁थिए	-6.38825
)	-6.39333
▁गरिएको	-6.40901
े	-6.42655
▁काम	-6.46254
ा	-6.48267
▁उनले	-6.48739
हरु	-6.52577
▁गरी	-6.60005
▁हजार	-6.60506
क	-6.60934
▁गर्दै	-6.61074
सँग	-6.63044
▁दिन	-6.63939
▁भन्ने	-6.67397
▁भएका	-6.71004
हरू	-6.71541
▁हुन	-6.71834
▁मा	-6.72712
▁१	-6.73015
स	-6.73857
▁-	-6.74074
▁आफ्नो	-6.74163
▁त	-6.75337
▁काठमाडौं	-6.75674
▁हुन्छ	-6.75782
ै	-6.76663
▁यस	-6.76866
▁दुई	-6.77567
ल	-6.78131
▁म	-6.82348
▁वा	-6.82633
▁केही	-6.83185
-	-6.83977
▁जानकारी	-6.85178
▁अध्यक्ष	-6.85472
▁२	-6.86159
ु	-6.86739
▁छैन	-6.87026
▁लाख	-6.87085
▁सबै	-6.87769
▁बताए	-6.88261
म	-6.88343
▁कारण	-6.88343
▁जिल्ला	-6.88487
▁प्रहरी	-6.89336
?	-6.90209
कै	-6.90278
▁हुन्	-6.91033
▁कुरा	-6.91542
▁को	-6.92512
▁समेत	-6.92809
▁नयाँ	-6.94237
▁वर्ष	-6.96472
▁कुनै	-6.96661
ि	-6.96804
▁प्रमुख	-6.98175
▁सय	-6.98247
▁निर्माण	-6.99066
▁मात्र	-6.99502
▁रुपमा	-6.99709
▁अनुसार	-7.01065
▁धेरै	-7.01847
की	-7.02566
▁विकास	-7.04011
▁भए	-7.04328
▁३	-7.05524
▁स्थानीय	-7.06311
▁गरे	-7.06519
▁गते	-7.07038
▁अहिले	-7.07681
पछि	-7.08253
▁बढी	-7.09017
▁के	-7.09361
▁आएको	-7.09749
▁गरेर	-7.10052
...	-7.10399
▁कार्यक्रम	-7.10617
ता	-7.11318
▁सरकारले	-7.12236
सम्म	-7.12628
▁प्रदेश	-7.13252
▁आज	-7.14493
▁न	-7.15513
▁समय	-7.16353
▁जना	-7.16367
त	-7.16583
▁५	-7.16676
▁अ	-7.17058
▁पहिलो	-7.17187
▁विभिन्न	-7.18717
▁रहेका	-7.19003
▁१०	-7.19564
ं	-7.19817
▁सेवा	-7.21376
्	-7.22577
▁प्रधानमन्त्री	-7.2302
▁राष्ट्रिय	-7.23141
▁उक्त	-7.24268
ो	-7.24937
देखि	-7.25496
▁अब	-7.27078
▁भन्दै	-7.28402
▁सो	-7.28489
▁घर	-7.28954
▁भयो	-7.30226
▁करोड	-7.303
▁आर्थिक	-7.30627
▁त्यो	-7.30997
ँ	-7.31623
▁४	-7.32017
▁तीन	-7.33027
▁उनी	-7.33549
▁६	-7.34291
▁गर्दा	-7.34434
मै	-7.35355
▁कार्यालय	-7.35791
ित	-7.3619
▁एउटा	-7.36311
प	-7.36413
▁उनको	-7.36499
▁सहयोग	-7.36653
▁समस्या	-7.37511
▁क्षेत्रमा	-7.38681
▁सार्वजनिक	-7.39532
▁अन्य	-7.41399
▁पार्टी	-7.41897
▁रूपमा	-7.42288
▁दिने	-7.43131
▁व्यवस्था	-7.43349
▁जनाएको	-7.43496
▁प्रयोग	-7.43773
▁आयोजना	-7.4446
▁निर्णय	-7.44795
▁सरकार	-7.45191
▁सुरु	-7.4613
▁कि	-7.46174
▁भन्दा	-7.46966
▁हामी	-7.46981
ट	-7.48033
▁महिला	-7.48556
▁मृत्यु	-7.51036
▁माग	-7.51834
ला	-7.52041
▁स्वास्थ्य	-7.52692
▁डा	-7.52899
हरुको	-7.52941
▁दिए	-7.53547
▁२०	-7.54154
▁गर्नु	-7.54465
▁नाम	-7.547
▁प्रतिशत	-7.54797
भन्दा	-7.54843
▁रुपैयाँ	-7.54906
▁आ	-7.56293
▁नेता	-7.56386
▁दिएको	-7.56582
▁भनेर	-7.56777
▁देखि	-7.57157
▁नेपालको	-7.583
▁सम्पन्न	-7.58306
ज	-7.58743
▁निर्वाचन	-7.58808
ना	-7.59648
ब	-7.59776
▁यस्तो	-7.60046
ड	-7.60079
/	-7.60135
▁सदस्य	-7.60399
▁७	-7.60554
▁१५	-7.61018
सहित	-7.61279
व	-7.61493
▁क्षेत्र	-7.62154
▁काठमाडौँ	-7.62683
▁पटक	-7.6271
न्	-7.629
▁१२	-7.62973
रा	-7.63085
▁कम	-7.63428
▁मन	-7.64248
▁अघि	-7.6467
▁राजनीतिक	-7.64874
▁पक्राउ	-7.65301
▁११	-7.65685
छ	-7.65759
▁थप	-7.65832
▁कार्यक्रममा	-7.66439
सँगै	-7.66918
▁पर्ने	-7.66945
▁वटा	-7.66989
▁आएका	-7.67074
▁क्रममा	-7.6806
▁१९	-7.6812
▁प्राप्त	-7.68222
हरुले	-7.68452
▁खेल	-7.69551
▁८	-7.69672
▁रु	-7.69816
▁अवस्था	-7.7028
▁९	-7.71071
▁सडक	-7.71221
री	-7.71446
▁पूर्व	-7.71589
▁नेपालमा	-7.71975
▁नगरपालिका	-7.72087
▁ठूलो	-7.72163
▁हाम्रो	-7.7247
▁सन्	-7.72472
▁स	-7.72515
▁लागेको	-7.7257
स्थित	-7.72711
▁प्रहरीले	-7.73407
▁कार्य	-7.74208
▁होइन	-7.74282
▁मन्त्री	-7.7459
्ने	-7.74676
▁साथै	-7.7489
ली	-7.75216
▁भारतीय	-7.75509
▁बनाउन	-7.75623
▁चार	-7.75841
▁वि	-7.75925
▁उत्पादन	-7.76329
▁सामाजिक	-7.76393
▁सञ्चालन	-7.765
▁जारी	-7.76732
▁योजना	-7.76831
▁रकम	-7.77161
▁साथ	-7.78061
▁वडा	-7.78082
▁गत	-7.78242
माथि	-7.79089
य	-7.79482
▁पाँच	-7.8005
समेत	-7.80334
▁आवश्यक	-7.81108
▁मात्रै	-7.81173
▁बेला	-7.82253
▁राम्रो	-7.82424
▁नि	-7.8243
▁अवस्थामा	-7.83139
▁फिल्म	-7.83215
▁गएको	-7.83437
▁पछि	-7.83486
!	-7.83596
▁मेरो	-7.83699
▁यी	-7.84076
▁परेको	-7.84793
▁दोस्रो	-7.84815
सी	-7.85311
बीच	-7.86033
▁अर्को	-7.87472
हरुलाई	-7.87619
हरूको	-7.87682
राज	-7.87772
ग	-7.8784
▁भारत	-7.89151
ह	-7.8924
▁शिक्षा	-7.89677
▁विश्व	-7.89938
द	-7.89992
▁का	-7.89992
▁गीत	-7.90207
िक	-7.90546
▁आउने	-7.90555
▁२५	-7.90904
ेर	-7.90954
▁विषयमा	-7.91063
▁संविधान	-7.91178
▁हुँदा	-7.91769
▁मैले	-7.91917
▁खर्च	-7.92252
▁प्रकाशित	-7.92302
▁हुनेछ	-7.92315
▁भएर	-7.92355
▁टोली	-7.92813
▁विशेष	-7.92892
▁पत्रकार	-7.9306
▁उहाँले	-7.93117
▁जाने	-7.9326
▁बनाउने	-7.93264
▁समिति	-7.93516
▁समाचार	-7.93814
्न	-7.94024
ने	-7.94687
▁ग	-7.94715
▁यसको	-7.94774
▁माओवादी	-7.95004
▁ए	-7.95127
▁हामीले	-7.95166
▁क	-7.95274
▁गाउँपालिका	-7.95392
्स	-7.95747
▁नं	-7.95829
िङ	-7.95834
▁१३	-7.95873
▁सफल	-7.95882
▁राष्ट्रपति	-7.95886
▁ती	-7.9601
▁भइरहेको	-7.96079
▁लगानी	-7.96463
▁चलचित्र	-7.96486
▁युवा	-7.96669
▁तयार	-7.96705
▁उल्लेख	-7.96705
▁निकै	-7.96935
▁अगाडि	-7.96939
▁बताएका	-7.97108
▁देश	-7.97178
▁भएपछि	-7.97201
▁घोषणा	-7.97299
▁प्रदान	-7.97386
स्	-7.97682
▁केन्द्र	-7.9777
हरूले	-7.97832
▁प	-7.97886
▁अनि	-7.98185
▁बताउनुभयो	-7.98227
▁१४	-7.98742
▁समयमा	-7.98908
▁सुरक्षा	-7.99159
▁गरिने	-7.99216
▁३०	-7.99297
▁हुँदै	-7.99636
बारे	-7.9965
▁तयारी	-7.99801
▁विषय	-7.9991
▁अर्ब	-7.99941
▁भएकाले	-8.00046
ौ	-8.00103
▁१६	-8.01084
बहादुर	-8.01194
▁१८	-8.01217
▁५०	-8.01604
▁मुख्य	-8.01638
▁बि	-8.01983
ः	-8.02667
▁छलफल	-8.03238
▁राष्ट्र	-8.03783
तर्फ	-8.03798
▁दिएका	-8.03894
च	-8.04163
▁गरि	-8.04416
▁सक्ने	-8.04513
▁उद्योग	-8.05076
▁बजार	-8.05212
▁अनुसन्धान	-8.05241
इ	-8.05517
वा	-8.05601
प्रति	-8.05795
▁२०७५	-8.06066
▁कृषि	-8.06162
नी	-8.06185
▁हाल	-8.06441
▁सकिन्छ	-8.06598
भ	-8.0669
ख	-8.06728
▁पुगेको	-8.06859
▁पोखरा	-8.06952
▁गोल	-8.07173
▁बैंक	-8.07266
▁सु	-8.07438
अनुसार	-8.07464
▁उच्च	-8.07674
▁सि	-8.07738
▁पानी	-8.07739
▁बन्द	-8.07747
▁सक्छ	-8.0808
▁जुन	-8.08673
ीय	-8.08803
▁सबैभन्दा	-8.08846
▁कर	-8.08967
▁सूचना	-8.09056
▁लिएर	-8.09302
▁लामो	-8.10267
▁असार	-8.10754
▁नागरिक	-8.10801
▁अन्तर्राष्ट्रिय	-8.11475
▁दुवै	-8.11555
द्वारा	-8.1174
▁परेका	-8.11824
▁गर्नुपर्ने	-8.11845
▁सम्म	-8.12068
▁नेकपा	-8.12711
या	-8.12768
▁लिन	-8.12927
▁स्थापना	-8.13139
▁सोमबार	-8.13256
▁अधिकार	-8.1328
▁१७	-8.13576
▁इ	-8.13595
▁सरकारी	-8.13618
▁नीति	-8.14196
▁हत्या	-8.14281
ई	-8.1441
▁शुक्रबार	-8.14715
्दै	-8.15158
▁त्यस्तै	-8.15183
▁बजेट	-8.15324
▁समूह	-8.15655
▁शुरु	-8.15779
▁सहभागी	-8.15921
▁अस्पताल	-8.15974
▁कर्मचारी	-8.15996
▁उपचार	-8.16111
▁एवं	-8.16162
▁त्यस	-8.1644
वि	-8.16843
▁उनलाई	-8.16949
▁करिब	-8.16974
▁ब	-8.17053
▁मूल्य	-8.17411
▁आधारमा	-8.17746
▁मलाई	-8.17771
▁आफ्ना	-8.17923
▁पछिल्लो	-8.18027
▁घटना	-8.18108
▁अध्ययन	-8.18411
ए	-8.18567
▁२१	-8.18571
▁यहाँ	-8.18584
▁सरकारको	-8.18612
▁जीवन	-8.18675
▁यस्तै	-8.18821
▁उपलब्ध	-8.18952
▁अन्तिम	-8.19037
▁प्रति	-8.19043
▁देखिएको	-8.19065
▁बस	-8.19324
▁खेलमा	-8.19626
▁नम्बर	-8.19841
▁बुधबार	-8.20148
▁छु	-8.20238
▁किन	-8.20269
▁आगामी	-8.20496
▁कसरी	-8.20662
▁स्थानमा	-8.20684
िन	-8.20824
▁यही	-8.2105
▁पैसा	-8.21052
मध्ये	-8.21105
श	-8.21211
▁शर्मा	-8.21312
जी	-8.21504
▁बनेको	-8.21799
▁आग्रह	-8.21839
▁वितरण	-8.21962
▁बिहान	-8.22136
▁हरेक	-8.22519
▁पूरा	-8.22741
▁जान	-8.22748
▁२०७६	-8.22774
▁परिवर्तन	-8.2292
▁जस्तो	-8.23023
पुर	-8.23185
भित्र	-8.2322
▁व्यवस्थापन	-8.23295
▁निर्देशन	-8.23581
▁त्यसैले	-8.23931
▁अधिकारी	-8.24652
▁नेपालले	-8.24787
▁केन्द्रीय	-8.25147
ू	-8.25193
ाई	-8.25242
्दा	-8.25306
▁एमाले	-8.25362
▁प्रस्ताव	-8.25369
▁सम्बन्ध	-8.25404
उ	-8.25586
ाउने	-8.25733
िने	-8.25739
▁बारेमा	-8.25818
▁बैठक	-8.25857
▁शनिबार	-8.25911
▁२०७४	-8.2597
▁थापा	-8.26098
▁पु	-8.26331
▁सहमति	-8.2649
▁महिना	-8.26634
▁बाहिर	-8.27318
िएको	-8.2752
▁पर्यटन	-8.27775
▁भिडियो	-8.27825
▁जेठ	-8.27866
▁सुन	-8.27964
▁२२	-8.28029
▁गर्छ	-8.28091
▁हुनु	-8.2838
▁दल	-8.28455
▁हात	-8.28742
▁मिति	-8.28802
▁गाउँ	-8.29324
▁नगर	-8.29612
▁शाखा	-8.30085
ेको	-8.30261
▁आफ्नै	-8.30276
▁मुद्दा	-8.30413
▁बजे	-8.30781
▁नभएको	-8.30869
ङ	-8.3099
▁बजारमा	-8.3101
▁श्रेष्ठ	-8.31389
▁सम्झौता	-8.31897
▁शक्ति	-8.32004
▁राज्य	-8.32126
▁२४	-8.32221
▁कम्पनी	-8.32373
▁कांग्रेस	-8.32449
▁सचिव	-8.3255
▁संयुक्त	-8.32589
▁पाउने	-8.32619
▁थाहा	-8.3264
▁देखिन्छ	-8.32795
▁सम्मान	-8.32823
▁विश्वास	-8.33283
▁सहित	-8.33466
▁यस्ता	-8.33744
▁गठन	-8.33812
▁वर्षको	-8.33933
▁त्यसको	-8.34
र्	-8.34003
▁दर्ता	-8.34003
्यो	-8.34212
▁व्यक्ति	-8.3425
▁समाज	-8.34284
▁कति	-8.34299
▁प्रक्रिया	-8.34432
▁अमेरिकी	-8.34499
▁सामान्य	-8.34552
▁भदौ	-8.34618
▁२८	-8.34676
डी	-8.34725
▁दक्षिण	-8.34726
▁त्यही	-8.34827
▁होला	-8.34985
▁ख	-8.3513
▁अझै	-8.35343
हरुमा	-8.35551
▁बढेको	-8.3573
ण	-8.35828
▁बर्ष	-8.36
▁प्र	-8.3625
▁नेतृत्व	-8.36385
मार्फत	-8.36601
▁द	-8.36852
▁घाइते	-8.36891
▁संघ	-8.37027
▁यसअघि	-8.37067
▁छन	-8.37594
सा	-8.37751
▁साउन	-8.37791
ती	-8.37995
▁मत	-8.38073
प्रसाद	-8.38077
▁उनका	-8.3852
रो	-8.38702
▁प्रवेश	-8.3878
▁खबर	-8.38828
▁वर्षीय	-8.38865
▁संस्था	-8.39051
▁२७	-8.39233
▁भाग	-8.39265
▁प्रस्तुत	-8.39402
▁संख्या	-8.39447
▁माघ	-8.39526
▁प्रयास	-8.39567
▁विद्यालय	-8.39594
लगायत	-8.39611
पा	-8.40031
▁नेपालका	-8.40139
▁मुलुक	-8.40166
▁कोरोना	-8.40254
लि	-8.40266
▁बिहीबार	-8.40285
ियो	-8.40669
िया	-8.41107
▁आइतबार	-8.41142
बि	-8.41199
▁भित्र	-8.41209
फ	-8.41211
▁निर्देशक	-8.41566
▁उत्तर	-8.41633
▁दैनिक	-8.4172
▁बाटो	-8.419
▁घरमा	-8.42011
▁रोग	-8.42119
▁२३	-8.42235
▁अधिकृत	-8.42318
▁असोज	-8.42416
▁बा	-8.42741
▁जनाको	-8.43229
▁/	-8.43239
▁या	-8.43268
▁बाँकी	-8.43361
▁जो	-8.43668
e	-8.4376
▁जन	-8.43851
▁विद्यार्थी	-8.43915
▁ऐन	-8.44018
जा	-8.4408
▁भूमिका	-8.44098
▁भनाइ	-8.44134
▁गरिरहेको	-8.44216
▁यसले	-8.44237
▁प्रेम	-8.44994
▁दिनुभयो	-8.45071
▁२९	-8.45233
▁भ्रमण	-8.45459
तिर	-8.45653
▁आफू	-8.4568
▁)	-8.45853
▁आरोप	-8.46115
▁तेस्रो	-8.46145
▁अमेरिका	-8.46341
▁जित	-8.46534
▁सम्भावना	-8.4675
▁गरेपछि	-8.46855
ति	-8.46936
्या	-8.47118
▁जिल्लामा	-8.47149
▁पर्छ	-8.47239
१	-8.4725
▁बिक्री	-8.47282
ौं	-8.47291
▁ओली	-8.47474
▁लिएको	-8.47491
▁अभियान	-8.47577
▁अफ	-8.47779
▁बस्ने	-8.47877
▁हुँदैन	-8.47894
▁जोड	-8.47907
▁शान्ति	-8.47953
ाइ	-8.48122
▁पूर्ण	-8.48193
कुमार	-8.48305
▁पहिले	-8.48349
हरूलाई	-8.48414
▁वन	-8.4857
▁त्यसपछि	-8.48788
▁यसरी	-8.48841
▁त्यहाँ	-8.48891
▁छैनन्	-8.4904
▁सुविधा	-8.49045
▁अवसर	-8.49073
▁ह	-8.49206
▁सात	-8.49405
▁२६	-8.49476
▁सुधार	-8.49528
▁उ	-8.49553
पनि	-8.49588
▁फेरि	-8.49729
▁क्लब	-8.49747
▁खेलाडी	-8.49767
▁जनता	-8.49853
▁व्यक्त	-8.49872
्य	-8.4995
काे	-8.50269
▁ठाउँमा	-8.50389
म्	-8.50582
▁सकिने	-8.5081
▁अवसरमा	-8.51024
▁कानुन	-8.51128
▁व्यवसायी	-8.51186
▁नहुने	-8.5121
▁कारोबार	-8.51348
▁कायम	-8.51408
थ	-8.51444
▁भई	-8.51919
▁प्रश्न	-8.52222
▁धर्म	-8.52282
▁स्थान	-8.52349
▁गुरुङ	-8.52401
▁विवरण	-8.52544
▁फरक	-8.5259
▁चीन	-8.52653
▁लक्ष्य	-8.52716
टी	-8.52815
▁विभाग	-8.52834
▁ज	-8.52918
▁प्रदर्शन	-8.52919
▁कार्यान्वयन	-8.53054
▁राम	-8.5328
प्र	-8.53327
▁अरु	-8.53477
पी	-8.53676
डा	-8.5388
▁विस्तार	-8.53906
ाउन	-8.53944
अ	-8.5456
लाइ	-8.54838
▁तामाङ	-8.55057
▁बैंकले	-8.55095
▁च	-8.55195
▁जे	-8.55201
▁संरक्षण	-8.55413
संग	-8.5552
▁भाषा	-8.5564
्र	-8.5568
रे	-8.55804
▁वृद्धि	-8.55821
▁कात्तिक	-8.55905
▁खान	-8.56009
▁सोही	-8.56073
▁मंगलबार	-8.56082
▁गर्नुभएको	-8.56417
▁आउन	-8.56423
▁सिंह	-8.56595
▁अर्थ	-8.56714
▁रहने	-8.56741
▁ध्यान	-8.56777
लो	-8.56842
सम्बन्धी	-8.56991
▁एकता	-8.5715
दा	-8.57232
▁जनताको	-8.57235
▁भवन	-8.57409
बी	-8.57483
▁राजधानी	-8.57627
▁बनाएको	-8.57794
▁खरिद	-8.58008
▁सभा	-8.58034
▁जस्ता	-8.58072
▁थिएन	-8.58138
▁लिने	-8.58312
छन्	-8.58322
▁जन्म	-8.58346
नि	-8.58476
▁सांसद	-8.58558
मी	-8.58603
▁छौं	-8.58772
▁व्यापार	-8.58814
▁लगायतका	-8.58882
▁बन्न	-8.59012
▁कम्पनीले	-8.59015
यो	-8.59121
▁सम्बन्धित	-8.59128
के	-8.59266
▁गरिरहेका	-8.59373
▁हुन्छन्	-8.59519
▁पुरुष	-8.59865
▁उम्मेदवार	-8.59933
▁आइ	-8.59953
▁भ	-8.60057
▁४०	-8.60212
▁लगायत	-8.60333
▁राजा	-8.606
▁गराउने	-8.60755
▁मंसिर	-8.60899
▁सवारी	-8.60914
▁यसलाई	-8.61079
▁तत्काल	-8.61088
▁सहज	-8.61203
▁पुरस्कार	-8.61229
रु	-8.61233
▁ज्यान	-8.61488
▁सं	-8.61606
ङ्ग	-8.61636
▁यात्रा	-8.61656
▁ओलीले	-8.61837
▁अन्तर्गत	-8.61849
▁राई	-8.61881
▁संघीय	-8.61893
▁विदेशी	-8.61899
▁क्रिकेट	-8.6191
▁राजनीति	-8.62303
▁यसै	-8.62407
▁दाबी	-8.62554
▁यातायात	-8.62642
▁प्रतियोगिता	-8.62796
हरूमा	-8.62803
▁औं	-8.63129
▁वातावरण	-8.63178
टा	-8.63276
▁संगीत	-8.6359
▁भारतको	-8.63685
▁छिन्	-8.63791
▁चुनाव	-8.63807
▁सीमा	-8.63834
▁गर्छन्	-8.6385
२	-8.63857
▁प्रविधि	-8.64126
▁लाग्ने	-8.6429
▁विवाद	-8.64371
▁प्रशासन	-8.64622
▁दुर्घटना	-8.64625
▁थालेको	-8.64699
▁शेयर	-8.64705
▁महत्वपूर्ण	-8.64954
▁निजी	-8.6497
▁नाममा	-8.65101
▁फुटबल	-8.65458
▁डि	-8.65511
▁भनेको	-8.65661
विरुद्ध	-8.65811
आ	-8.65817
▁गाडी	-8.65896
▁मानव	-8.65994
▁संयोजक	-8.66119
हा	-8.66374
▁केपी	-8.66411
▁भन्छन्	-8.66635
▁गरिन्छ	-8.6674
▁सम्पूर्ण	-8.66763
▁भन्नुभयो	-8.66816
▁गराउन	-8.66898
▁पहिचान	-8.67048
▁आमा	-8.67065
▁कु	-8.67271
▁फ	-8.67471
▁फागुन	-8.67555
िय	-8.67556
०	-8.67779
▁कथा	-8.67894
▁राख्न	-8.67976
▁जस्तै	-8.67988
▁राख्ने	-8.68027
▁क्षमता	-8.6821
▁सा	-8.68228
▁देशको	-8.68247
▁परीक्षण	-8.68337
▁पा	-8.6836
▁संशोधन	-8.68454
▁चैत	-8.68606
▁स्रोत	-8.68772
▁कतिपय	-8.69009
▁जिम्मेवारी	-8.69033
▁बैठकले	-8.69042
▁सहकारी	-8.69168
▁क्षति	-8.69263
▁क्षेत्रको	-8.69335
▁जग्गा	-8.69561
▁जसले	-8.69792
▁गरेकी	-8.69975
▁विवाह	-8.69979
▁ल	-8.7016
ंग	-8.70349
▁ना	-8.70388
▁विचार	-8.70516
▁कृष्ण	-8.70626
▁आदि	-8.70658
▁चर्चा	-8.70725
▁आन्दोलन	-8.70756
ध	-8.70795
▁उत्कृष्ट	-8.70949
▁श्री	-8.71063
▁]	-8.71139
▁पुन	-8.71269
▁लेख	-8.71292
▁व	-8.71473
▁मु	-8.71571
▁कुल	-8.71705
▁कुन	-8.71725
मान	-8.71763
▁गर्दछ	-8.7204
▁आयोजित	-8.72097
▁सकेको	-8.72317
कार	-8.7234
▁थिइन्	-8.72363
▁रन	-8.72385
▁[	-8.7247
▁गम्भीर	-8.72506
▁अस्पतालमा	-8.72565
▁ओ	-8.72631
▁छोरा	-8.72793
नु	-8.72864
▁राति	-8.73036
▁थापाले	-8.73118
ण्ड	-8.73242
▁पाएको	-8.73283
▁संस्कृति	-8.7339
▁दाहाल	-8.73529
▁माथि	-8.73577
▁सहभागिता	-8.74174
▁परिवार	-8.74197
▁जम्मा	-8.74253
राम	-8.74423
▁बनाएर	-8.74473
▁समितिले	-8.74615
▁गर्नुपर्छ	-8.74721
▁कलाकार	-8.7473
▁प्रवक्ता	-8.74733
▁प्रतिनिधि	-8.74766
▁बाल	-8.74789
▁शिक्षक	-8.74834
(	-8.74914
▁अहिलेसम्म	-8.74925
▁शब्द	-8.75126
▁तह	-8.752
▁वैशाख	-8.75323
▁पि	-8.75445
▁बताइएको	-8.75479
▁आठ	-8.7552
▁अंक	-8.75522
▁बसेको	-8.75637
▁यति	-8.75654
▁पुर्	-8.7574
▁पुगेका	-8.75857
▁ठाउँ	-8.75885
▁प्रभाव	-8.75971
▁प्रतिवेदन	-8.76043
▁सोच	-8.76366
▁पराजित	-8.76462
▁यसमा	-8.76497
▁विदेश	-8.76766
▁गर्नुभयो	-8.76945
▁मन्त्रालयले	-8.76994
▁सम्बोधन	-8.77117
▁मन्त्रालय	-8.77176
▁प्रत्येक	-8.77545
▁नियन्त्रण	-8.77555
▁पत्र	-8.77625
▁बल	-8.77697
▁आवश्यकता	-8.77858
▁आधार	-8.78051
▁पर	-8.78092
▁साँझ	-8.78448
▁जिल्लाको	-8.78468
▁देशमा	-8.78739
▁भूकम्प	-8.78778
ाएर	-8.79017
▁प्रणाली	-8.79076
▁लाग्छ	-8.7927
▁आदेश	-8.79296
▁राखिएको	-8.79307
▁भण्डारी	-8.7935
▁३१	-8.79372
वादी	-8.79431
ौँ	-8.79502
▁छोरी	-8.79757
▁उनीहरु	-8.79803
▁अदालत	-8.79847
▁बाट	-8.79909
ओ	-8.79923
▁गायक	-8.79995
▁बैठकमा	-8.80004
▁दु	-8.80007
बा	-8.80066
ुपर्छ	-8.80072
▁जति	-8.80218
▁समन्वय	-8.80406
▁समितिको	-8.80464
▁प्रभावित	-8.80586
▁राखेर	-8.80668
▁आजको	-8.80708
▁साल	-8.80848
▁कारबाही	-8.8086
बाटै	-8.80909
▁कहिले	-8.80954
▁माया	-8.81079
▁साहित्य	-8.81175
्नु	-8.81181
▁गो	-8.81197
गत	-8.81445
▁विधेयक	-8.81572
▁श्रेष्ठले	-8.81691
▁केहि	-8.81716
▁साधन	-8.81829
▁पुग्ने	-8.8197
▁कविता	-8.82028
▁सेयर	-8.82473
▁सभापति	-8.82476
ाउ	-8.82633
▁सम्मेलन	-8.82756
▁बताउँछन्	-8.82761
▁बन्ने	-8.83228
▁भन्न	-8.83279
▁जापान	-8.83449
सि	-8.83457
▁संकलन	-8.83787
▁राज	-8.83952
▁अन्त्य	-8.83969
▁आयोजक	-8.84046
▁पौडेल	-8.84205
▁ऋण	-8.84207
▁चितवन	-8.84236
▁कार्यकारी	-8.84244
▁मोबाइल	-8.84277
▁ठूला	-8.84312
्छ	-8.84348
▁अभाव	-8.84417
▁बैंकको	-8.84509
▁आम	-8.84624
▁सर्वोच्च	-8.84631
ेल	-8.847
▁खाना	-8.84735
▁सुझाव	-8.85165
▁आफूलाई	-8.85179
▁पक्ष	-8.85269
▁पर्यटक	-8.85374
▁समितिका	-8.85427
▁ल्याउन	-8.85504
▁संगठन	-8.85511
▁शुल्क	-8.85711
▁सिर्जना	-8.8588
▁क्षेत्रका	-8.85908
▁लि	-8.85943
▁अझ	-8.8601
▁प्राविधिक	-8.86016
▁पद	-8.86024
▁न्याय	-8.86113
▁लागी	-8.86289
ष	-8.86382
▁फोन	-8.86607
▁रहेछ	-8.86702
▁आन्तरिक	-8.86843
रि	-8.86869
▁असर	-8.87071
सु	-8.87103
▁ई	-8.8716
३	-8.87266
त्र	-8.87369
▁विरोध	-8.87409
एस	-8.87418
▁भइसकेको	-8.87749
▁योगदान	-8.87756
▁लोक	-8.87778
▁निर्वाचनमा	-8.87847
स्ट	-8.87971
▁अभिनय	-8.87998
नाथ	-8.88021
▁हेर्न	-8.88108
▁पर्व	-8.88381
▁जि	-8.88663
▁उद्घाटन	-8.88672
▁कोष	-8.88681
▁यौन	-8.88716
▁उपाध्यक्ष	-8.89003
र्स	-8.89004
▁स्पष्ट	-8.89036
ेका	-8.8907
▁वर्षमा	-8.89118
▁मान्यता	-8.89302
▁अनुभव	-8.89332
▁सम	-8.89353
▁चिनियाँ	-8.89357
▁अपराध	-8.89439
▁कला	-8.89454
▁बिरामी	-8.89457
▁तालिम	-8.89546
▁अधिकांश	-8.89662
▁मार्फत	-8.89759
▁प्रकाश	-8.8982
▁मिटर	-8.89937
▁निकाय	-8.89945
▁पीडित	-8.89994
कु	-8.90035
▁त्यस्तो	-8.90036
▁पुस	-8.90041
▁आफूले	-8.9007
▁व्यवसाय	-8.90075
▁शिव	-8.90104
अन्तर्गत	-8.90118
▁६०	-8.90299
िएका	-8.90305
▁ज्ञान	-8.90388
ठ	-8.90461
▁संरचना	-8.90487
नै	-8.90542
पूर्ण	-8.9061
▁तपाईं	-8.90624
▁संलग्न	-8.90631
▁ला	-8.90708
▁इतिहास	-8.90754
▁साता	-8.90786
▁मतदान	-8.90789
▁वित्तीय	-8.90855
▁मान्छे	-8.90911
▁सामग्री	-8.90921
५	-8.90921
कर	-8.90932
▁नियम	-8.91143
▁सम्बन्धी	-8.91312
▁खेलकुद	-8.91418
▁यदि	-8.91497
▁विकेट	-8.9152
▁गएका	-8.9155
▁पुनः	-8.91583
▁पूर्वाधार	-8.91803
▁पूजा	-8.91836
▁पार्टीको	-8.9184
▁मन्दिर	-8.91899
▁फिर्ता	-8.91927
▁समाधान	-8.92007
▁प्रतियोगितामा	-8.92065
▁तर्फबाट	-8.92069
▁देशका	-8.9208
▁चरणमा	-8.92227
▁ल्याएको	-8.92289
▁स्थित	-8.92406
▁नदी	-8.92517
▁भेट	-8.92529
ल्	-8.92588
▁दिनमा	-8.92688
▁नसकेको	-8.92724
▁पश्चिम	-8.92786
▁कलेज	-8.92853
▁पो	-8.92914
▁सपना	-8.92958
▁निर्वाचित	-8.93013
▁नगद	-8.93073
▁वर्षा	-8.9313
सं	-8.93151
▁राखेको	-8.93166
▁प्रचण्ड	-8.93706
▁पुल	-8.94024
▁विमानस्थल	-8.94062
▁औषधि	-8.94075
▁रासस	-8.94111
▁यसका	-8.94143
▁दिइएको	-8.94181
▁कम्युनिष्ट	-8.94437
▁प्रहार	-8.94513
▁चर्चित	-8.94641
▁सह	-8.94644
▁ड	-8.94701
▁पुरा	-8.94733
▁उप	-8.95048
▁त्यसलाई	-8.95123
▁विमान	-8.95352
▁कार्तिक	-8.95449
▁घण्टा	-8.95473
▁विगत	-8.95511
▁सञ्चालनमा	-8.95579
▁आँखा	-8.95676
▁प्रा	-8.9568
▁पक्षमा	-8.957
▁श्रीमती	-8.95753
ेज	-8.95958
▁उहाँ	-8.96208
▁कोही	-8.96439
▁बताउँदै	-8.96548
▁लागू	-8.96556
▁बे	-8.96711
▁मानिस	-8.96726
ार	-8.96791
▁एउटै	-8.96813
▁सर	-8.96936
▁नियमित	-8.97018
▁छनोट	-8.97021
▁सानो	-8.97048
▁स्थापित	-8.97144
▁आयोगले	-8.97203
▁धार्मिक	-8.97214
▁सञ्चार	-8.97358
दै	-8.97369
▁नौ	-8.97466
▁कसैले	-8.97495
▁अनुमान	-8.97501
▁पुस्तक	-8.97534
▁मध्ये	-8.97655
▁समृद्धि	-8.97657
▁आम्दानी	-8.97685
झ	-8.97717
▁कार्यकर्ता	-8.97743
▁गरिएका	-8.97947
▁हुनुपर्ने	-8.98141
▁उसले	-8.98219
▁कार्यरत	-8.98243
▁मुख्यमन्त्री	-8.98324
▁बुद्ध	-8.98367
▁भौतिक	-8.98428
▁खेती	-8.98449
▁लामा	-8.98695
▁गोली	-8.98711
▁ध	-8.98736
▁पार्टीका	-8.98841
▁तहमा	-8.98969
▁वरिष्ठ	-8.98973
▁सुरक्षित	-8.98973
मात्र	-8.99096
▁कक्षा	-8.99126
▁कारणले	-8.99174
▁३५	-8.99309
▁समुदाय	-8.99388
▁जब	-8.99521
▁लिग	-8.99618
जन	-8.9966
▁कस्तो	-8.99663
▁तहको	-8.99849
▁स्वागत	-8.99867
▁अनलाइन	-9.00004
▁गर्	-9.00005
▁नजिक	-9.00065
▁अनुगमन	-9.0014
▁विश्वकप	-9.00482
▁कमजोर	-9.00487
▁श्रम	-9.00573
▁पाउन	-9.00631
दिन	-9.0075
▁उपाधि	-9.00832
▁लगाउने	-9.00916
▁विद्युत्	-9.00923
▁बनेका	-9.00924
भर	-9.00972
▁कुमार	-9.01016
▁होटल	-9.01035
▁केसी	-9.01071
ष्ट	-9.01086
ाएको	-9.01099
▁त्यसमा	-9.01108
▁पाइन्छ	-9.01286
▁भनी	-9.01347
सन	-9.01397
▁गृह	-9.01598
▁यादव	-9.01637
▁सी	-9.01662
▁परीक्षा	-9.01679
▁संक्रमण	-9.01679
▁गर	-9.01703
▁धन	-9.01712
▁आए	-9.01806
▁सरकारलाई	-9.02014
▁टिम	-9.02128
▁मूल	-9.02148
▁संचालन	-9.02242
▁खुला	-9.0229
मि	-9.02531
िए	-9.0265
४	-9.02887
▁२०७३	-9.02887
▁वस्तु	-9.02992
▁जल	-9.03025
▁उपभोक्ता	-9.03082
▁हामीलाई	-9.03151
▁फेला	-9.03254
▁साना	-9.03275
▁प्रथम	-9.03318
एको	-9.0332
▁डलर	-9.03342
▁दिँदै	-9.03348
▁पारित	-9.03368
▁सालमा	-9.0355
▁मे	-9.0363
▁कार्यक्रमको	-9.03726
▁संग	-9.03805
▁आयात	-9.03877
▁महा	-9.039
▁उनीहरू	-9.03976
मन्त्री	-9.03997
कि	-9.04142
▁दर	-9.04147
लगायतका	-9.04304
▁अधिकारीले	-9.04408
▁रेडियो	-9.04657
से	-9.04664
▁नियन्त्रणमा	-9.04686
▁दिनु	-9.04734
▁उमेर	-9.04841
▁श	-9.04895
▁सम्बन्धमा	-9.05017
▁भएन	-9.05049
वाद	-9.0516
▁ल्याउने	-9.05172
िन्	-9.05317
▁कार्यालयले	-9.05574
ान	-9.05621
▁नसक्ने	-9.05643
▁उनीहरुले	-9.0566
ङ्	-9.05751
▁अनुरोध	-9.05822
▁कप	-9.05896
▁छुट	-9.05932
▁कम्पनीको	-9.06104
▁तत्कालीन	-9.06122
▁जु	-9.06127
▁भनिएको	-9.06468
▁डाक्टर	-9.06469
▁वैदेशिक	-9.06481
▁त्यसै	-9.06628
▁उडान	-9.06633
▁वाणिज्य	-9.07169
▁से	-9.07259
▁भ्रष्टाचार	-9.07293
रण	-9.07299
लाल	-9.07361
▁जवाफ	-9.074
▁मिडिया	-9.0745
▁कार्की	-9.07569
▁३२	-9.07582
▁अरू	-9.07793
▁वर्तमान	-9.07814
▁आक्रमण	-9.07849
क्ष	-9.07944
▁राहत	-9.07964
▁वर्षीया	-9.07973
▁बोनस	-9.08187
ुपर्ने	-9.08452
नन्	-9.08471
▁सेना	-9.08512
▁कार्यालयमा	-9.08577
▁बढाउन	-9.08758
▁सक्रिय	-9.08826
▁गाविस	-9.08881
पत्र	-9.08902
▁आई	-9.08939
जस्तो	-9.08968
▁सिफारिस	-9.0924
ृ	-9.09338
▁पारेको	-9.09527
ुवा	-9.09608
भा	-9.09684
▁मध्य	-9.09767
त्	-9.09891
▁स्कुल	-9.10027
▁मिनेट	-9.10043
▁मगर	-9.1006
▁रोजगारी	-9.10096
▁लागेका	-9.10303
▁आवाज	-9.10315
▁निरन्तर	-9.10351
▁कोइराला	-9.10377
▁गुनासो	-9.10457
▁ने	-9.1055
▁कर्णाली	-9.10765
▁भएपनि	-9.10925
▁एजेन्सी	-9.11063
्छन्	-9.11089
▁तरकारी	-9.11134
▁अघिल्लो	-9.11238
▁बलात्कार	-9.1132
िरहेको	-9.11322
▁वार्ता	-9.1134
▁एकै	-9.11436
▁दिवस	-9.11474
▁बहादुर	-9.11495
▁अर्थात्	-9.11516
▁विजयी	-9.11545
▁जोखिम	-9.11567
▁धारणा	-9.11631
▁मह	-9.11701
▁आशा	-9.11718
▁जरुरी	-9.11767
▁सत्य	-9.11781
▁आयो	-9.118
▁यात्रु	-9.11846
▁जिल्लाका	-9.11869
▁प्रभावकारी	-9.11935
गा	-9.11959
ही	-9.12079
▁बालबालिका	-9.12083
▁फोटो	-9.12101
▁बढ्दै	-9.12122
जस्ता	-9.12223
▁पाएका	-9.12301
▁कानून	-9.1236
▁शैक्षिक	-9.12389
▁प्रेस	-9.12529
▁विश्वविद्यालय	-9.12563
ास	-9.12581
नो	-9.12868
▁विज्ञान	-9.12881
▁तिन	-9.12936
▁जहाँ	-9.12947
▁हरि	-9.12989
▁सामान	-9.13011
▁सन्देश	-9.13036
ीकरण	-9.13247
▁बु	-9.1336
▁भक्तपुर	-9.13475
▁गलत	-9.1349
▁स्व	-9.13506
▁पुग्न	-9.13521
▁सकारात्मक	-9.13567
▁विकल्प	-9.13573
▁एस	-9.13695
▁सत्ता	-9.13719
▁फूल	-9.1376
▁दिएर	-9.13762
िस	-9.13769
▁त्यति	-9.13813
▁बस्न	-9.1387
▁बसेर	-9.14003
▁मेडिकल	-9.14042
▁प्रतिस्पर्धा	-9.14164
▁धान	-9.14208
▁सदरमुकाम	-9.1428
▁सम्पर्क	-9.14433
▁हप्ता	-9.14492
▁विराटनगर	-9.14519
▁दशमलव	-9.14606
न्स	-9.14698
▁परियोजना	-9.14967
▁लेखक	-9.14975
▁जाँदा	-9.15004
▁हाम्रा	-9.15078
९	-9.15219
गो	-9.15443
▁फाइदा	-9.15477
▁कर्जा	-9.15576
▁मलेसिया	-9.15673
द्ध	-9.15678
▁प्रधान	-9.15768
▁हस्तान्तरण	-9.15883
▁हुनुपर्छ	-9.15897
▁एन	-9.15923
▁उजुरी	-9.15964
▁स्थायी	-9.15964
▁उद्धार	-9.15972
▁शव	-9.16038
▁थालेका	-9.16059
▁दर्शक	-9.16078
▁पहिरो	-9.1612
खा	-9.16197
जि	-9.16273
▁पहल	-9.16385
▁हुनुहुन्छ	-9.16434
▁कार	-9.16438
▁उहाँको	-9.16444
▁निम्ति	-9.16614
▁गा	-9.16643
▁भारतले	-9.16726
▁हालसम्म	-9.16739
▁कहाँ	-9.16765
▁भनाई	-9.16953
▁खाने	-9.17084
▁४५	-9.17305
जु	-9.17313
▁अनुदान	-9.17352
ञ्ज	-9.17384
टि	-9.17505
▁बलियो	-9.17634
▁बन्दै	-9.17682
▁पुरानो	-9.17691
▁रोजगार	-9.17728
▁प्रत्यक्ष	-9.17731
▁गएर	-9.1774
▁बम	-9.17884
▁पाकिस्तान	-9.17907
▁अनुमति	-9.17914
▁लगाएको	-9.18011
मो	-9.18072
कर्ता	-9.18233
▁दुर्घटनामा	-9.183
▁प्रदेशसभा	-9.18324
▁निधन	-9.18365
▁सफलता	-9.18453
▁सुन्दर	-9.18604
▁लगाउन	-9.18806
▁अति	-9.18998
▁दलित	-9.19077
▁कामदार	-9.19106
▁तय	-9.19113
सो	-9.19158
▁चु	-9.1926
▁गराएको	-9.19392
▁सम्पत्ति	-9.1942
यु	-9.19498
▁गतिविधि	-9.19504
▁पौडेलले	-9.19515
▁काँग्रेस	-9.19613
▁भर्ना	-9.19636
▁सामुदायिक	-9.19671
▁पेश	-9.19704
▁कडा	-9.19759
▁परिणाम	-9.19763
▁नेतृत्वको	-9.19763
▁प्रचार	-9.19782
▁लिए	-9.20016
मे	-9.20223
▁बढ्ने	-9.2034
▁त्यसैगरी	-9.20437
▁भारतमा	-9.20448
▁उनीहरुको	-9.20504
▁खड्का	-9.20581
▁विजय	-9.20642
▁गरियो	-9.2066
शा	-9.20673
▁शासन	-9.20776
▁अवार्ड	-9.2086
▁भट्टराई	-9.21009
▁अदालतले	-9.21119
▁छिमेकी	-9.21143
▁नेतृत्वमा	-9.21149
▁हासिल	-9.21196
▁किलोमिटर	-9.21365
▁नाफा	-9.21372
▁अव	-9.21481
▁बीमा	-9.21517
▁चुनौती	-9.21521
्यु	-9.21543
▁७०	-9.21571
▁यता	-9.21645
▁ग्राहक	-9.21778
▁प्रतिनिधिसभा	-9.21834
▁भा	-9.21946
▁शुभकामना	-9.21963
▁हिजो	-9.21969
▁शहर	-9.22159
त्व	-9.22262
िन्छ	-9.22281
वी	-9.22302
▁मिस	-9.22532
▁वर्षदेखि	-9.22554
▁जनताले	-9.22586
▁साझा	-9.22594
▁पार्न	-9.22624
▁अभ्यास	-9.22653
▁लोकतान्त्रिक	-9.22681
▁जा	-9.22714
र्क	-9.22718
▁विधि	-9.22773
▁लिएका	-9.22865
िम	-9.22959
२०	-9.22982
▁रे	-9.23022
▁गु	-9.23111
▁सञ्चालक	-9.2312
▁जनालाई	-9.23146
आर	-9.23172
▁परे	-9.23202
▁भू	-9.2332
▁प्रहरीको	-9.23337
▁पार	-9.23385
▁मेयर	-9.23468
▁पार्ने	-9.23517
▁मिनेटमा	-9.2356
▁समान	-9.23629
▁शाह	-9.23844
सँगको	-9.23904
ेन	-9.23953
▁तिहार	-9.2398
भि	-9.23984
▁सांस्कृतिक	-9.2413
मु	-9.24172
▁ऐतिहासिक	-9.24222
▁लोकतन्त्र	-9.24225
▁चालक	-9.24264
▁भु	-9.24275
▁आयोग	-9.2431
▁स्थिति	-9.24311
▁विजेता	-9.24339
दी	-9.24404
पन	-9.24406
▁शरीर	-9.24469
क्स	-9.2452
▁गौतम	-9.24593
▁दलका	-9.24611
▁वार्षिक	-9.24639
▁मान	-9.24685
▁मुलुकमा	-9.24725
▁चासो	-9.24759
▁डे	-9.24822
▁नतिजा	-9.24838
▁हु	-9.24958
▁बाध्य	-9.25047
▁काममा	-9.25171
▁अर्का	-9.25217
▁बन	-9.253
▁उसको	-9.25312
वर	-9.25348
▁सशस्त्र	-9.25373
डि	-9.25393
▁अवधिमा	-9.25517
▁कञ्चनपुर	-9.25556
▁खुसी	-9.25783
▁नभई	-9.2582
▁महत्व	-9.25901
▁घ	-9.26104
पु	-9.26131
▁वर्ग	-9.26176
▁चौधरी	-9.26292
▁संसदीय	-9.26292
▁हिंसा	-9.26348
▁तिर	-9.26357
रुपमा	-9.26399
▁होस्	-9.2644
युक्त	-9.26445
ात्मक	-9.26534
▁चन्द्र	-9.26585
▁अत्यन्त	-9.26712
▁यु	-9.26712
▁आएर	-9.26838
ेपछि	-9.26996
▁छौँ	-9.27048
▁दिउँसो	-9.27163
▁बैशाख	-9.27205
आई	-9.2726
धि	-9.27307
न्ट	-9.27318
▁तेल	-9.27324
▁चिकित्सक	-9.27396
▁समाजमा	-9.27416
▁बी	-9.27432
पि	-9.27479
▁०	-9.2749
▁हे	-9.27544
▁फोरम	-9.27583
▁पोखरेल	-9.27585
▁मि	-9.27587
▁निर्धारण	-9.27617
८	-9.27638
▁सबैलाई	-9.27667
ुभएको	-9.27786
▁महासचिव	-9.27801
▁बढाउने	-9.28016
वाट	-9.28024
घ	-9.28052
▁नाटक	-9.28072
▁भनिन्	-9.28115
▁पुष्टि	-9.2817
▁आयोजनामा	-9.28209
▁पहुँच	-9.28254
▁नियुक्त	-9.2831
टो	-9.28317
▁गए	-9.28367
▁३३	-9.28368
▁भाइरस	-9.28442
▁लक्ष्मी	-9.28454
▁व्यवहार	-9.28492
▁महोत्सव	-9.28506
६	-9.28572
▁प्रतिक्रिया	-9.28626
▁बच्चा	-9.2864
ेश्वर	-9.28655
▁बंगलादेश	-9.28713
▁सजाय	-9.28748
▁तलब	-9.28913
▁उपयोग	-9.28931
▁झापा	-9.28985
▁भनिन्छ	-9.28988
▁जनाएका	-9.29155
▁चिन्ता	-9.29268
▁क्यान्सर	-9.29359
▁बाबु	-9.29425
चा	-9.29436
▁मतदाता	-9.29459
▁बोर्ड	-9.29598
▁मुलुकको	-9.29601
ाउँदै	-9.29638
▁स्वतन्त्र	-9.29646
▁साह	-9.29679
▁चौथो	-9.29729
▁चयन	-9.29738
▁८०	-9.29786
▁तल	-9.2993
▁प्राकृतिक	-9.29955
कोट	-9.30084
▁साथी	-9.30086
▁संसद	-9.30106
▁परि	-9.30154
▁क्षेत्रीय	-9.30193
टर	-9.30288
▁बढ्न	-9.303
▁नागरिकता	-9.30351
▁मेला	-9.30416
▁क्रम	-9.30441
हर	-9.30466
▁बाहेक	-9.3047
▁कतै	-9.30576
▁निर्माता	-9.30618
▁विरुद्ध	-9.30647
▁युद्ध	-9.30859
▁कम्युनिस्ट	-9.30942
▁खोजी	-9.30951
ेश	-9.31062
दर	-9.31128
▁साढे	-9.31132
▁मोदी	-9.31154
न्द	-9.31257
▁टेलिभिजन	-9.31318
▁पदार्थ	-9.31324
▁खानेपानी	-9.31325
▁पाए	-9.31446
▁परम्परा	-9.31492
▁फेसबुक	-9.31533
▁सक्दैन	-9.31535
▁सार	-9.31577
▁हालै	-9.3167
▁सम्मेलनमा	-9.31672
▁आव	-9.3172
▁आधारित	-9.319
▁कुराकानी	-9.31985
▁य	-9.32081
▁हेर्दा	-9.32096
गु	-9.32173
▁घरेलु	-9.32266
▁मो	-9.32302
▁दुःख	-9.32537
▁दि	-9.32552
सित	-9.32659
▁प्रतिबद्धता	-9.3276
क्	-9.32843
▁जहाज	-9.32941
▁सडकमा	-9.32996
▁तर्फ	-9.32998
▁सक्छन्	-9.33036
▁संघर्ष	-9.33052
▁बुझ	-9.33123
▁लाग्यो	-9.33136
▁रि	-9.33204
▁सकेन	-9.3328
ीत	-9.33298
न्छ	-9.33306
▁बीच	-9.33372
▁कमल	-9.33413
▁लगाएर	-9.33458
▁नगर्ने	-9.3346
▁बाढी	-9.33468
▁भोट	-9.33472
▁आधा	-9.33507
▁हस्ताक्षर	-9.33511
▁हुँ	-9.33554
▁पर्वत	-9.33641
▁थिएँ	-9.33719
▁नहुँदा	-9.33806
▁गति	-9.33828
▁सब	-9.33873
▁सचिवालय	-9.33904
ायो	-9.33939
▁रुप	-9.3395
▁मल	-9.33952
▁सैनिक	-9.34002
एन	-9.34048
▁निश्चित	-9.34091
▁अर्थात	-9.34123
▁हेर्ने	-9.34124
▁जेल	-9.34136
स्त	-9.34186
▁थुप्रै	-9.34188
▁भन्सार	-9.34189
▁रेल	-9.34203
▁महिलाको	-9.34245
▁समावेश	-9.34254
▁हक	-9.34288
▁अपेक्षा	-9.34378
▁अख्तियार	-9.34382
),	-9.34459
▁समर्थन	-9.3448
▁महानगरपालिका	-9.34483
▁दबाब	-9.34676
▁अमेरिकाको	-9.34756
▁बराबरको	-9.34823
▁जसमा	-9.34828
▁धनगढी	-9.34975
▁भएकी	-9.34984
▁टु	-9.35012
▁सङ्घ	-9.35082
सिंह	-9.35135
▁गिरी	-9.35247
▁७५	-9.35268
एल	-9.35347
▁गणतन्त्र	-9.3536
▁एवम्	-9.35367
▁सम्भव	-9.35402
▁महिनामा	-9.35536
▁गर्नेछ	-9.35548
▁विष्ट	-9.35595
▁विकासका	-9.35597
न्ड	-9.35625
▁सूर्य	-9.35654
▁प्रतिष्ठान	-9.35673
▁ट	-9.35686
▁देउवा	-9.35764
▁प्रतियोगिताको	-9.35907
▁घिमिरे	-9.3593
▁हुन्थ्यो	-9.35968
दार	-9.3597
▁किसान	-9.35978
एम	-9.36008
▁पत्रिका	-9.36037
▁त्रिभुवन	-9.36049
▁शो	-9.3605
▁आरोपमा	-9.36091
▁अन्तर	-9.3614
▁पर्यटकीय	-9.36192
▁गाउँमा	-9.36205
▁पदाधिकारी	-9.3623
▁राजदूत	-9.36251
▁सहकार्य	-9.3628
▁रोक	-9.36328
▁देव	-9.3633
▁कल	-9.3634
▁औपचारिक	-9.36346
▁सुवेदी	-9.36346
कर्मी	-9.36535
▁चरणको	-9.36566
▁व्यक्तिको	-9.36631
▁थाले	-9.36638
▁खा	-9.36714
बल	-9.36741
▁बहस	-9.36973
▁मोटरसाइकल	-9.37043
▁दुबै	-9.37045
▁नभए	-9.37069
▁विद्यालयमा	-9.37085
▁गाई	-9.37139
्ला	-9.3714
▁कारवाही	-9.37142
▁प्रकाशन	-9.37147
▁मन्त्रालयका	-9.37154
▁पास	-9.37263
र्न	-9.37406
▁यसैगरी	-9.37557
हु	-9.37687
७	-9.37696
▁कहिल्यै	-9.37749
▁निर्माणका	-9.37987
नगर	-9.38028
▁२०७२	-9.38058
▁प्रगति	-9.38147
▁उचित	-9.38158
▁उपयुक्त	-9.38162
▁एसिया	-9.38246
था	-9.38248
िल	-9.38286
▁कमी	-9.38332
▁चा	-9.38333
वे	-9.3834
▁खुशी	-9.38367
हि	-9.38374
▁मार्ग	-9.38617
▁फैसला	-9.38653
▁सञ्जाल	-9.3873
▁बनाएका	-9.38758
▁झण्डै	-9.38856
▁ट्राफिक	-9.38856
▁टिकट	-9.38861
▁प्राथमिकता	-9.38894
▁परी	-9.38899
▁त्यसका	-9.38947
▁सरकारका	-9.38959
▁उद्देश्य	-9.3902
▁खनाल	-9.39087
▁लाभ	-9.39159
▁फि	-9.39207
▁ताल	-9.39356
म्ब	-9.39366
▁रहे	-9.39375
▁भावना	-9.39394
▁संघका	-9.3941
▁पर्दछ	-9.39426
▁संस्थाले	-9.39451
पर	-9.39478
▁राणा	-9.39572
▁आफन्त	-9.39661
▁बसेका	-9.39678
चार	-9.39691
▁राईले	-9.39694
▁तथ्य	-9.39696
▁पहिला	-9.39729
▁ऊर्जा	-9.39764
▁२०१८	-9.39796
▁साधारण	-9.398
▁उपस्थित	-9.39977
▁माध्यम	-9.40021
▁अमेरिकामा	-9.40046
▁उपचारका	-9.40129
ाले	-9.40175
▁आफै	-9.40184
▁इन्टरनेट	-9.40187
▁पसल	-9.40315
▁हल	-9.40345
▁मोडल	-9.40404
▁ललितपुर	-9.40429
▁हैन	-9.40458
▁बस्ती	-9.40469
▁प्रशिक्षण	-9.40496
▁सही	-9.40707
▁भण्डारीले	-9.40731
▁कमिटी	-9.40831
▁खेल्ने	-9.40923
▁व्यावसायिक	-9.40936
▁कवि	-9.40982
▁गठबन्धन	-9.41103
▁नगरी	-9.41228
▁भुक्तानी	-9.41251
▁बोल	-9.41278
▁उनीहरूले	-9.41318
▁मिल	-9.4138
▁ऊ	-9.41467
▁राखेका	-9.41544
शि	-9.41564
▁रंग	-9.41568
▁व्यक्तिगत	-9.41579
▁उपस्थिति	-9.41595
▁दूतावास	-9.41745
▁राज्यको	-9.4175
▁स्वदेश	-9.41799
▁गरिसकेको	-9.41806
ाउँदा	-9.41925
▁उदाहरण	-9.41954
▁जिम्मा	-9.41955
▁कोरिया	-9.42089
▁अनु	-9.42102
▁बो	-9.4213
▁कार्यालयका	-9.42358
म्प	-9.4236
वन	-9.42392
▁दिल्ली	-9.424
▁निर्माणको	-9.42468
▁आचार्य	-9.42636
▁दाङ	-9.42648
▁भोलि	-9.42709
▁झ	-9.42748
▁मै	-9.42754
▁पर्	-9.42795
▁पुगेर	-9.42826
▁पढ्न	-9.42874
▁सन्दर्भमा	-9.42879
▁मधेस	-9.42884
▁चैत्र	-9.42907
▁निर्मला	-9.42955
▁स्थानिय	-9.42973
▁तराई	-9.43062
▁चुनावी	-9.43062
कारी	-9.43104
▁केसीले	-9.43194
▁एम	-9.43234
▁तुलनामा	-9.43279
▁लु	-9.43287
▁फ्रान्स	-9.43298
▁आवेदन	-9.43327
▁न्यौपाने	-9.43327
▁सुर्खेत	-9.43327
▁सहायक	-9.43327
▁भइ	-9.43339
वार	-9.43428
▁एकजना	-9.43512
▁सर्व	-9.43665
▁नारायण	-9.43669
▁पर्न	-9.43674
▁प्रशिक्षक	-9.43753
▁स्वीकार	-9.43772
जे	-9.438
ढ	-9.43824
▁आधुनिक	-9.43881
▁गायिका	-9.43914
▁गैर	-9.43932
▁सर्वसाधारण	-9.43953
▁नव	-9.4398
ठा	-9.43989
▁बुटवल	-9.44005
▁लगातार	-9.44074
▁गुरुङले	-9.44335
▁शर्माले	-9.44345
▁बग	-9.44347
▁निःशुल्क	-9.44396
▁गुणस्तर	-9.44482
▁हिमाल	-9.44485
▁गीतमा	-9.44507
िता	-9.4452
▁वर्षअघि	-9.44574
▁अगाडी	-9.44611
जस्तै	-9.44667
▁उपत्यका	-9.44708
▁भर	-9.44774
▁यादवले	-9.44783
▁नायिका	-9.44827
क्क	-9.44868
▁न्यायाधीश	-9.44935
बु	-9.44946
▁कित्ता	-9.44962
▁बस्नेत	-9.45024
▁म्युजिक	-9.45043
▁सिद्धान्त	-9.45153
▁पाइने	-9.45166
▁परिचालन	-9.45191
बर	-9.45362
▁मिलेर	-9.4541
▁विद्युत	-9.45413
▁सबैले	-9.45463
▁प्रमाण	-9.45501
▁फल	-9.45558
छु	-9.45573
▁शेर्पा	-9.45585
रिया	-9.45657
▁देख्न	-9.45744
▁खतरा	-9.45803
▁साउदी	-9.4586
▁जनतालाई	-9.45867
▁बहुमत	-9.45914
▁काठमाडौंमा	-9.45928
▁अनिवार्य	-9.46021
▁पत्ता	-9.46039
िंग	-9.46051
▁धारा	-9.46082
▁रोक्न	-9.46217
▁छानबिन	-9.4624
▁पदमा	-9.46286
▁बढ	-9.46344
▁चिया	-9.46365
▁सभामुख	-9.46465
▁बिभिन्न	-9.46573
▁प्रजातन्त्र	-9.46679
▁सबैको	-9.46741
▁युवती	-9.46779
▁त्यस्ता	-9.46806
▁कानुनी	-9.46816
टे	-9.46904
चि	-9.46912
िलो	-9.46991
▁राजीनामा	-9.47009
बाहेक	-9.47093
गाउँ	-9.47175
▁फर्क	-9.4725
▁बनाए	-9.4727
▁सहर	-9.47295
▁चीनको	-9.47347
▁प्रसाद	-9.47356
▁हा	-9.47359
▁टि	-9.47406
▁नाका	-9.47426
सहितको	-9.47467
▁उनीहरुलाई	-9.47559
▁देखिने	-9.47571
▁आएपछि	-9.47584
▁तस्बिर	-9.47678
▁सन्तान	-9.47679
▁ति	-9.47685
▁केन्द्रका	-9.47718
▁त्यसले	-9.47746
▁अहिलेको	-9.47905
▁देखिएका	-9.4791
▁सहयोगमा	-9.47913
▁लक्षित	-9.48026
मन	-9.48042
▁सेवन	-9.48048
▁केन्द्रित	-9.48111
▁चेतावनी	-9.48118
▁अभिभावक	-9.48119
▁पाइएको	-9.48123
▁दश	-9.48251
▁उपरीक्षक	-9.48342
▁मापदण्ड	-9.48342
▁जनाइएको	-9.4836
▁गुल्मी	-9.48389
▁बागलुङ	-9.48454
▁नारा	-9.48494
▁नामक	-9.4851
▁रहन	-9.48566
▁कार्ड	-9.48638
▁स्टार	-9.48642
▁गोविन्द	-9.48658
▁बुझ्न	-9.48698
▁पुगे	-9.48952
ंक	-9.48977
▁विष्णु	-9.49104
▁तीज	-9.49116
▁कुरामा	-9.49117
▁बाबुराम	-9.49147
▁जाँच	-9.49245
▁काठमाण्डौ	-9.49249
▁जेष्ठ	-9.4925
▁प्रसारण	-9.49251
▁पहाड	-9.49302
▁जसको	-9.49436
▁गतेदेखि	-9.49474
लार्इ	-9.49506
▁बताउनु	-9.49515
देवी	-9.49533
▁हार	-9.49552
ेन्द्र	-9.49569
▁सजिलो	-9.49581
▁३६	-9.49597
▁केन्द्रमा	-9.49627
फा	-9.4965
▁निवेदन	-9.49692
▁आर	-9.49698
िका	-9.4978
ुहोस्	-9.49796
▁संक्रमित	-9.49806
दे	-9.49912
▁क्याम्पस	-9.49927
▁रिलिज	-9.50033
▁गृहमन्त्री	-9.50052
▁लाग्न	-9.50064
▁उपकरण	-9.50156
▁रगत	-9.50292
▁पुष्पकमल	-9.50374
▁छिटो	-9.50377
▁बिना	-9.5043
▁पाण्डे	-9.50441
▁बिदा	-9.50516
▁काठमाडौ	-9.50535
िरहेका	-9.50689
▁प्रतिबन्ध	-9.50839
▁४२	-9.5087
▁लागिएको	-9.50882
▁मानिन्छ	-9.50912
ाल	-9.50929
▁एण्ड	-9.50947
▁स्तर	-9.50948
शी	-9.50965
▁मुख	-9.50978
ेस	-9.50996
कन	-9.51045
▁रिपोर्ट	-9.5105
ुभयो	-9.51067
▁मौसम	-9.51099
िज	-9.51194
र्ड	-9.51218
▁ट्र	-9.5122
▁नगरपालिकाको	-9.51266
▁पे	-9.51363
▁शीर्ष	-9.51392
▁शेरबहादुर	-9.51416
▁भट्टराईले	-9.51444
▁प्रवाह	-9.51509
▁उनीहरूको	-9.51671
▁९०	-9.5188
▁हट	-9.51894
▁लाइन	-9.51922
▁दाहालले	-9.51942
▁म्याग्दी	-9.51983
ीले	-9.5226
▁सके	-9.52271
▁गणेश	-9.52271
▁मासु	-9.52291
▁कांग्रेसका	-9.52314
▁अभिनेत्री	-9.52333
स्थल	-9.52341
▁गोरखा	-9.52483
▁त्यसो	-9.52496
▁आउँछ	-9.52518
▁कैलाली	-9.52566
▁ठुलो	-9.52573
▁एल	-9.52675
▁आलोचना	-9.52683
▁डेढ	-9.52703
त्त	-9.52738
▁चोरी	-9.52827
बीचको	-9.52879
▁नेपाललाई	-9.52901
▁मौका	-9.52953
▁गतेसम्म	-9.52982
▁खेल्न	-9.53023
▁स्थल	-9.53071
▁कतार	-9.53082
▁हतियार	-9.53151
ताको	-9.53154
▁एयर	-9.53178
▁थोरै	-9.53269
▁दर्शन	-9.53424
▁अप	-9.53491
▁दशक	-9.535
▁सिनेमा	-9.5351
▁पी	-9.53527
▁कम्तीमा	-9.53621
▁रमेश	-9.53623
▁डर	-9.53704
▁चलन	-9.53705
▁प्रदेशको	-9.53733
▁बताउनुभएको	-9.53743
▁जोशी	-9.53755
ेड	-9.53793
▁याउने	-9.53803
▁कालो	-9.53873
▁स्वर	-9.53939
▁रक्षा	-9.53947
▁विदेशमा	-9.54047
्रा	-9.54203
श्	-9.54245
वल	-9.54246
ची	-9.54318
ेसन	-9.54357
▁संघीयता	-9.54532
▁मैदानमा	-9.54562
▁अलि	-9.54577
औं	-9.54604
▁बेलायत	-9.54713
▁भै	-9.54714
बार	-9.548
▁कास्की	-9.55014
▁अल	-9.55032
▁बताएको	-9.55039
▁हर	-9.55143
ाए	-9.55203
वास	-9.55213
▁महाधिवेशन	-9.55285
▁उन	-9.55367
देव	-9.5537
▁पछाडि	-9.55421
▁चि	-9.55455
▁बमोजिम	-9.55521
▁पीडा	-9.55546
पति	-9.55607
▁आगो	-9.55623
▁टाढा	-9.55648
▁प्रमाणपत्र	-9.55657
▁स्	-9.55679
▁नगरपालिकाका	-9.55697
▁संस्थाको	-9.55702
▁तोकिएको	-9.55821
▁गर्यो	-9.5584
▁बोल्दै	-9.55888
▁सक	-9.55902
▁लग	-9.55935
▁थालेपछि	-9.55994
▁हङकङ	-9.56006
▁निरन्तरता	-9.56053
▁नगरपालिकाले	-9.56126
▁अतिथि	-9.56135
▁बीचमा	-9.56226
▁गराएका	-9.56242
▁रेकर्ड	-9.56248
▁अवधि	-9.56382
▁हेर	-9.56433
▁५१	-9.56566
र्ट	-9.56597
▁सगरमाथा	-9.56612
▁उपमहानगरपालिका	-9.56612
▁२०७७	-9.56633
ग्	-9.56674
▁कान्तिपुर	-9.56726
▁प्रावधान	-9.56733
▁इलाका	-9.56744
▁पूर्वी	-9.56748
▁हिसाबले	-9.56758
▁डो	-9.5689
▁उद्देश्यले	-9.56952
हो	-9.57016
▁५५	-9.57052
▁महेन्द्र	-9.57102
▁जनकपुर	-9.57162
▁भो	-9.57167
दि	-9.57284
▁कम्प्युटर	-9.57465
▁समुह	-9.57539
▁अध्यक्षतामा	-9.57557
▁जोडी	-9.57571
▁भ्रमणमा	-9.57688
▁बारे	-9.57732
▁बताइन्	-9.5782
न्त	-9.57865
▁तर्क	-9.57884
▁संसार	-9.5793
▁जय	-9.57946
्क	-9.58019
▁झा	-9.58021
▁घटनाको	-9.58041
्नुपर्ने	-9.58041
▁भाइ	-9.58145
▁वाम	-9.58169
▁टेलिकम	-9.58203
करीब	-9.58218
▁निर्यात	-9.58328
▁सम्पादन	-9.58354
▁ढकाल	-9.584
▁ग्यास	-9.58419
त्य	-9.58432
▁खतिवडा	-9.5845
▁३४	-9.58572
▁उत्पन्न	-9.58574
▁महिनाको	-9.58584
▁पहाडी	-9.5863
गर	-9.58658
▁पार्टीले	-9.58807
▁अंग	-9.58831
धन	-9.58871
▁गीतको	-9.589
▁थान	-9.58953
▁पेट	-9.5897
▁गित	-9.59135
▁आफु	-9.59166
ष्	-9.59309
▁अदालतमा	-9.59387
▁तथ्यांक	-9.59415
▁घट	-9.5944
▁बोकेर	-9.59457
▁खेलको	-9.5947
ाँ	-9.59479
▁अष्ट्रेलिया	-9.59532
▁व्यापारी	-9.59559
▁अथवा	-9.59569
▁समयदेखि	-9.59624
▁आपूर्ति	-9.59684
▁दृश्य	-9.59694
▁किनभने	-9.597
▁नोट	-9.59818
▁संवैधानिक	-9.5982
ाय	-9.59836
▁समाजवादी	-9.59874
▁भविष्य	-9.59946
▁लेखन	-9.59957
▁सहयोगी	-9.5996
▁प्रकारको	-9.60005
▁प्रदेशमा	-9.60019
▁मानिसहरु	-9.60031
▁खाता	-9.60036
▁मोरङ	-9.60069
▁हिन्दु	-9.60084
▁कांग्रेसले	-9.60089
▁ठहर	-9.60095
▁महासंघ	-9.60114
▁बढि	-9.60127
▁मोर्चा	-9.60221
▁भरतपुर	-9.60223
▁शुभ	-9.60285
▁महानगर	-9.60325
▁तनाव	-9.60329
ाउँछ	-9.60359
ँदै	-9.60361
▁यू	-9.60384
▁दलहरू	-9.60448
भी	-9.60454
वासी	-9.60473
▁३७	-9.60522
डे	-9.60616
▁खोला	-9.60699
▁भन्नु	-9.60732
▁तिमी	-9.60766
गरी	-9.60839
▁अर्थतन्त्र	-9.60847
▁मुक्त	-9.60917
▁चुनावमा	-9.61013
▁भारतका	-9.61015
▁सकिएको	-9.61089
▁उपाय	-9.61181
▁मोहन	-9.61205
▁जानु	-9.61222
▁सवै	-9.61269
▁विज्ञापन	-9.61336
▁औँ	-9.61364
▁हुनाले	-9.61397
▁इच्छा	-9.61453
▁दशैं	-9.6149
▁आफैं	-9.61526
▁सचेत	-9.61532
▁गन्तव्य	-9.61591
नारायण	-9.61653
▁विस्तृत	-9.61696
▁जनाले	-9.61733
▁गरिनेछ	-9.61827
▁मजदुर	-9.61833
▁रातो	-9.61855
▁विकासको	-9.61856
▁माध्यमबाट	-9.61885
रासस	-9.61886
▁सुरुवात	-9.61968
▁चलचित्रमा	-9.62009
▁पुँजी	-9.62061
▁रात	-9.62081
घर	-9.62207
▁संस्कार	-9.62237
▁व्यवस्थित	-9.6224
▁क्या	-9.62261
िएर	-9.62366
▁मधेश	-9.62386
▁देखाएको	-9.62415
▁मधेसी	-9.62429
▁मानसिक	-9.62448
▁गर्नुहोस्	-9.62483
▁आह्वान	-9.62488
▁जनसंख्या	-9.62488
▁प्रतिनिधित्व	-9.62512
▁दलको	-9.62512
▁क्रान्ति	-9.62611
▁भेला	-9.62623
▁मल्ल	-9.62808
▁मञ्च	-9.62844
▁पारेर	-9.62854
▁बनाइएको	-9.62891
▁बस्दै	-9.62912
एका	-9.62914
▁अन	-9.62953
▁पर्याप्त	-9.63005
▁प्रवृत्ति	-9.63011
सम्मको	-9.63148
▁टिप्पणी	-9.63167
▁राजनीतिमा	-9.63232
▁लुम्बिनी	-9.63264
▁स्वर्ण	-9.63271
▁चाहना	-9.63292
▁पत्रकारिता	-9.63311
▁लगाएका	-9.63326
▁लाल	-9.63391
▁डिभिजन	-9.63394
▁राजमार्ग	-9.63402
▁नभएर	-9.63417
▁जातीय	-9.63448
▁भाद्र	-9.63534
▁एकीकृत	-9.63589
▁जमिन	-9.63651
▁संविधानसभा	-9.6371
▁व्यक्तिलाई	-9.63724
▁आगलागी	-9.63785
भित्रै	-9.63797
▁राजेन्द्र	-9.63803
▁सल्लाहकार	-9.63803
▁देउवाले	-9.63814
▁फिल्ममा	-9.6388
▁बसोबास	-9.63915
्थे	-9.63917
▁भत्ता	-9.63939
▁टोल	-9.64047
▁पदक	-9.64078
▁मामिला	-9.64238
▁शाही	-9.6424
▁टीका	-9.64244
▁सीमित	-9.64308
▁प्रदेशका	-9.64426
▁बैंकका	-9.64441
▁सल्लाह	-9.64472
▁पुनर्निर्माण	-9.64571
ड्	-9.64596
▁जान्छ	-9.64613
▁निर्वाचनको	-9.64678
▁दुर्गा	-9.64706
▁रहेर	-9.64883
▁मृतक	-9.64884
▁ट्रम्प	-9.65125
▁तपाई	-9.6519
▁बिहे	-9.65396
▁अनेक	-9.65407
▁गराए	-9.65407
▁जनप्रतिनिधि	-9.65434
ियन	-9.65453
▁अर्जुन	-9.65493
▁तपाईंको	-9.65502
▁भि	-9.65505
▁भट्ट	-9.65565
▁संघको	-9.65748
▁खाद्य	-9.65766
▁चित्र	-9.65773
द्र	-9.6587
▁राप्रपा	-9.65894
▁जनशक्ति	-9.65906
▁निर्वाह	-9.65942
▁आयोगको	-9.66013
▁महिलाले	-9.66026
▁यद्यपि	-9.66027
▁इलाम	-9.66082
▁सफा	-9.66161
▁जाति	-9.66203
▁४८	-9.66265
▁प्रचण्डले	-9.66315
▁देवी	-9.66339
▁पोखरेलले	-9.66341
ाउनु	-9.66344
▁हवाई	-9.66439
▁यसो	-9.66538
▁होम	-9.66624
▁नुवाकोट	-9.66697
▁कृति	-9.66799
▁मंगलवार	-9.66835
▁आनन्द	-9.66845
▁व्यक्तिले	-9.66913
▁समग्र	-9.66922
▁समयमै	-9.66945
▁रू	-9.66963
▁३८	-9.66965
▁पात्र	-9.67047
▁निर्माणमा	-9.67055
▁चलाउन	-9.67061
▁स्वतन्त्रता	-9.6709
▁नसक्दा	-9.67128
ोस्	-9.6723
▁क्यासिनो	-9.67237
भिडियो	-9.67237
▁नजिकै	-9.6728
्छु	-9.67325
▁दर्जन	-9.6739
▁चरण	-9.67404
▁म्याद	-9.67421
▁पत्नी	-9.67483
▁संस्करण	-9.67506
▁बेपत्ता	-9.67641
▁कपडा	-9.67678
▁निगम	-9.67694
शन	-9.67715
▁श्रीमान	-9.67755
▁अवैध	-9.67777
▁संकेत	-9.67777
▁धादिङ	-9.67779
▁योग	-9.67831
पे	-9.67832
टार	-9.67893
▁वे	-9.67908
कुमारी	-9.67928
▁चाहिँ	-9.67945
▁थ	-9.67968
▁वैज्ञानिक	-9.68021
िङ्ग	-9.68104
तो	-9.68136
▁लागेर	-9.6814
▁मकवानपुर	-9.68185
▁१००	-9.68228
▁हुनसक्छ	-9.6823
▁डी	-9.68241
▁नगरेको	-9.68242
▁बैङ्क	-9.68247
▁भनेका	-9.68259
▁युनियन	-9.68323
▁सुनसरी	-9.68329
▁बरु	-9.6837
▁स्वार्थ	-9.68388
्ग	-9.68441
▁संसद्	-9.6854
▁अरब	-9.68545
▁प्रतिशतले	-9.68563
▁प्रवद्र्धन	-9.68595
▁पुग्यो	-9.68613
▁छोटो	-9.68625
▁विनियोजन	-9.68677
बासी	-9.68775
ाइएको	-9.68835
▁अन्तराष्ट्रिय	-9.6887
▁समुदायको	-9.68974
▁सदस्यहरु	-9.69014
▁भूमि	-9.69051
▁मौलिक	-9.69082
▁नृत्य	-9.69144
▁नरहेको	-9.69209
▁चिकित्सा	-9.69282
▁महसुस	-9.69282
ुक	-9.6929
हे	-9.69324
▁जसरी	-9.69333
िट	-9.69364
▁खु	-9.6941
▁कदम	-9.69432
▁राजस्व	-9.69575
▁घटनामा	-9.69621
▁गर्छु	-9.69631
▁पाठक	-9.69639
▁बालिका	-9.69722
▁चन्द	-9.69822
▁गुरु	-9.69859
दो	-9.69897
ेली	-9.69921
▁बिजुली	-9.69973
▁द्वन्द्व	-9.69985
▁सिटी	-9.7007
नेपाल	-9.70205
▁सँगै	-9.70248
▁दूध	-9.70251
्रो	-9.70265
▁सेन्टर	-9.70459
▁मात्रामा	-9.70486
▁जडान	-9.70533
▁मावि	-9.70541
▁गर्नका	-9.70542
▁पोखरामा	-9.70744
▁जस	-9.70757
▁बचत	-9.7081
्वा	-9.70818
▁बने	-9.70837
▁वर्षसम्म	-9.70853
▁फे	-9.70889
▁क्षेत्री	-9.71085
गी	-9.71157
▁संविधानको	-9.71163
्ट	-9.71186
▁आय	-9.71203
▁पन्त	-9.71227
र्थ	-9.71241
खु	-9.71335
खोला	-9.71355
▁अा	-9.71365
▁गोपाल	-9.71379
▁पशु	-9.71386
▁नियुक्ति	-9.7149
िना	-9.71603
माया	-9.71614
▁जीवनमा	-9.71633
▁दिनुपर्ने	-9.71637
▁मेरा	-9.71651
▁याउन	-9.71727
▁खोटाङ	-9.71756
▁पानीको	-9.71841
▁कसैलाई	-9.71843
जन्य	-9.71854
द्धारा	-9.71857
▁दिनसम्म	-9.71858
▁विकासमा	-9.71902
▁केवल	-9.71903
▁जनजाति	-9.71939
िँदै	-9.71958
▁स्थगित	-9.72077
▁जी	-9.7208
▁आउनु	-9.72161
▁सेनाको	-9.72196
▁गण्डकी	-9.72217
▁नरेन्द्र	-9.72224
▁दावी	-9.7223
िनु	-9.72256
▁एकल	-9.72262
बे	-9.72295
▁किलो	-9.72299
▁पर्दा	-9.72456
▁अन्नपूर्ण	-9.72509
▁सुन्न	-9.72534
▁व्यस्त	-9.72579
▁बेलामा	-9.726
▁राख्दै	-9.72606
▁परिवारलाई	-9.72612
▁लोकप्रिय	-9.72619
▁लिमिटेड	-9.72624
▁गरिन्	-9.72643
▁भागमा	-9.72655
▁मानिसहरू	-9.72755
▁गाह्रो	-9.72789
▁दुरुपयोग	-9.72931
▁व्यापक	-9.72933
▁मानिसको	-9.73037
▁विक	-9.7309
▁नायक	-9.73091
▁हित	-9.73169
▁रूप	-9.73215
▁देशभर	-9.73217
▁२०१७	-9.73239
▁प्रारम्भिक	-9.73243
▁दिनको	-9.73243
▁५२	-9.73302
▁यसबाट	-9.73325
▁माटो	-9.73348
▁ठ	-9.73349
▁सम्पदा	-9.73361
▁संस्थागत	-9.73418
▁यहाँका	-9.73458
▁राजपा	-9.73494
▁छाप	-9.73541
चर	-9.73552
▁लागे	-9.73642
▁शिखर	-9.73651
▁फुल	-9.73662
▁हटाउन	-9.73716
▁धन्यवाद	-9.73793
▁श्रावण	-9.73793
▁हिन्दू	-9.73796
▁सिट	-9.73818
ञ्च	-9.73818
▁लो	-9.73828
▁कार्कीले	-9.7387
▁हुँदैछ	-9.73877
▁संस्थाका	-9.73884
ाउदै	-9.73934
▁खुल्ला	-9.73947
▁समृद्ध	-9.74068
▁चिसो	-9.74094
▁प्रकारका	-9.74167
घाट	-9.74185
अघि	-9.74225
▁अवलोकन	-9.74226
▁झन्डै	-9.74226
▁ढोका	-9.74241
▁अर्थमन्त्री	-9.74265
चोक	-9.74281
▁फाइनल	-9.74314
▁मन्त्रालयको	-9.74326
ताका	-9.74343
▁बाध्यता	-9.74351
▁खोज	-9.74403
▁अभि	-9.74514
हरुका	-9.74518
▁बढ्दो	-9.7452
बेला	-9.74542
प्	-9.74544
▁यहि	-9.7467
▁बर्	-9.74672
▁पठाउने	-9.74676
▁नदिने	-9.74696
▁की	-9.74774
▁रुकुम	-9.74808
▁छाला	-9.74808
▁महिलालाई	-9.74843
▁टा	-9.74861
▁विविध	-9.74976
▁आयोजनाको	-9.74985
▁वर्षपछि	-9.75006
▁धरान	-9.75045
▁जितेको	-9.75063
▁नेताहरु	-9.75076
..	-9.75102
▁सकेका	-9.75134
▁खोजेको	-9.75158
▁मन्त्रिपरिषद्	-9.75182
▁पठाएको	-9.752
यता	-9.752
▁सदस्यीय	-9.75217
▁दुख	-9.75222
▁जागिर	-9.75224
▁औद्योगिक	-9.75245
▁शिक्षण	-9.75246
▁गाउँपालिकाको	-9.75264
▁नारी	-9.75272
धी	-9.75288
▁स्थानीयवासी	-9.75345
भाव	-9.7537
▁देखी	-9.75442
चन्द्र	-9.75532
▁६५	-9.75533
लु	-9.75557
▁ओलीको	-9.75703
▁आकाश	-9.75707
▁मर्मत	-9.75728
▁सुख	-9.75764
▁घटेको	-9.75791
▁विप्लव	-9.75882
▁उपलब्धि	-9.75986
▁चालु	-9.76074
▁तहका	-9.76132
▁राज्यले	-9.76179
▁उम्मेदवारी	-9.76243
▁ग्रहण	-9.76286
▁यतिबेला	-9.76291
▁कृषक	-9.7641
▁फा	-9.76411
ेक	-9.76419
▁गर्दछन्	-9.76447
▁लामिछाने	-9.7645
▁बाँके	-9.76477
▁मेगावाट	-9.7649
▁दा	-9.76535
▁ढंगले	-9.76559
▁समाजको	-9.76666
▁अतिरिक्त	-9.76719
▁दो	-9.76762
डो	-9.76801
▁क्रियाकलाप	-9.77017
▁सहायता	-9.77017
▁पाल्पा	-9.77018
▁नक्कली	-9.77051
▁कप्तान	-9.77086
▁विधान	-9.77114
्याउने	-9.77196
▁प्राधिकरण	-9.77242
▁खोल	-9.77295
▁अधिवेशन	-9.77315
▁खारेज	-9.77341
▁पुराना	-9.77444
▁त्रि	-9.77512
▁खासै	-9.77558
▁घुम	-9.77578
ाव	-9.77614
▁अभिनेता	-9.77614
▁हाउस	-9.77692
▁खुट्टा	-9.77769
▁कार्यक्रमका	-9.77769
▁आदिवासी	-9.77784
र्म	-9.77877
▁लैजान	-9.77901
▁वडाध्यक्ष	-9.77928
▁भिडियोमा	-9.77963
▁ठीक	-9.77994
▁३९	-9.78001
▁तीव्र	-9.78028
▁विभागका	-9.7805
▁दोश्रो	-9.78065
▁अवरोध	-9.78068
▁छुट्टै	-9.78115
▁राखे	-9.78266
▁मुल	-9.78296
▁देखा	-9.78338
▁सङ्ख्या	-9.78352
औँ	-9.78353
▁कुकुर	-9.78379
▁स्वीकृत	-9.78381
▁भइरहेका	-9.78479
यर	-9.78508
ुहुन्छ	-9.78527
▁पति	-9.78603
▁बढाएको	-9.7863
▁सञ्चालित	-9.78675
ल्ड	-9.7872
▁एप	-9.78781
▁नेप्से	-9.78805
▁निरीक्षक	-9.7882
▁रुपन्देही	-9.7882
▁मद्दत	-9.78821
▁चाहे	-9.78827
▁माछा	-9.78828
▁उसलाई	-9.78849
▁परिषद्	-9.7886
▁पर्दैन	-9.78978
▁माथिल्लो	-9.7898
पक्ष	-9.79068
कल	-9.79185
▁अलग	-9.79255
▁जोडिएको	-9.79372
▁चलाउने	-9.79381
▁कसैको	-9.79408
▁ज्ञानेन्द्र	-9.79447
▁बढेर	-9.79461
▁निकट	-9.79467
▁साथमा	-9.79487
▁चल	-9.79616
हरूका	-9.79652
▁पुर्व	-9.7971
▁दौड	-9.79735
▁तार	-9.79739
]	-9.7975
▁बिकास	-9.79755
यू	-9.79765
ाहा	-9.79778
▁अवरुद्ध	-9.79887
▁फोहोर	-9.79887
▁५६	-9.7989
जना	-9.79918
पो	-9.7992
▁भाडा	-9.79926
▁विहान	-9.80109
▁एक्स	-9.80181
▁परिचय	-9.80183
▁बजेसम्म	-9.80194
▁अभिव्यक्ति	-9.80242
करण	-9.80242
▁साहित्यकार	-9.80245
▁जलविद्युत्	-9.80254
संगै	-9.80288
▁निवासी	-9.80316
▁उपहार	-9.80361
▁बनाई	-9.80389
▁मदन	-9.80392
▁समाप्त	-9.80505
▁नाकाबन्दी	-9.80506
▁भेटघाट	-9.80516
▁स्वरुप	-9.80516
शील	-9.80578
कालीन	-9.80602
▁शारीरिक	-9.80656
मेन्ट	-9.80662
हार	-9.80699
▁जग	-9.80725
▁हुनेछन्	-9.80787
▁रनको	-9.8079
स्थ	-9.80803
पानी	-9.8085
▁परिवारका	-9.80855
▁हातमा	-9.80882
▁अभियानमा	-9.80961
▁नो	-9.81122
▁नष्ट	-9.81252
▁अग्रता	-9.81318
▁जाँदै	-9.81331
▁कार्यमा	-9.81335
▁सेनाले	-9.81353
▁अवस्थित	-9.81356
▁जोड्ने	-9.81366
▁सिजन	-9.8143
▁पृथ्वी	-9.81465
▁युग	-9.81468
▁विश्वका	-9.81476
▁आकार	-9.81486
▁चीनले	-9.81487
▁मिश्र	-9.81554
▁सम्झ	-9.81635
▁प्रष्ट	-9.81641
▁वर्षका	-9.81651
▁मधेशी	-9.81755
▁बै	-9.81776
▁विगतमा	-9.81804
▁सन्तोष	-9.81897
▁दृष्टिकोण	-9.81909
▁विशेषज्ञ	-9.81931
पर्	-9.81934
▁शैली	-9.81947
▁परिस्थिति	-9.81949
▁बलिउड	-9.81988
▁युएई	-9.82025
▁गयो	-9.82025
▁पशुपति	-9.8205
▁तथ्याङ्क	-9.82059
▁खर्ब	-9.82068
▁अनुहार	-9.82154
▁फेरी	-9.82193
ऊ	-9.822
र्ष	-9.8222
▁मिल्ने	-9.82221
▁तयारीमा	-9.8225
▁मुटु	-9.82278
▁४४	-9.8232
▁दीपक	-9.8233
▁आशंका	-9.8237
▁क्षेत्रलाई	-9.82404
▁महिलाहरु	-9.82416
▁युरोप	-9.82423
▁मनाउने	-9.82435
▁४१	-9.82513
▁सालको	-9.82563
▁बहु	-9.82592
▁चेक	-9.82724
गढी	-9.82757
्त	-9.82808
सार	-9.82835
▁पठाउन	-9.82856
▁चलेको	-9.82993
▁कुखुरा	-9.83
▁लगभग	-9.83
▁संस्थापक	-9.83011
क्रम	-9.83017
▁पुलिस	-9.83027
ँदा	-9.83044
▁सुरक्षाकर्मी	-9.83054
▁शुरू	-9.83161
▁खत्री	-9.83168
▁दिन्छ	-9.83237
स्ता	-9.83268
▁पोस्ट	-9.83278
▁पारे	-9.83382
▁मासिक	-9.83391
▁प्राधिकरणले	-9.83433
▁सेक्स	-9.83477
▁हि	-9.8352
▁कोठा	-9.83563
्यू	-9.83613
▁नियमावली	-9.83639
▁गरिए	-9.83667
▁एमालेका	-9.83673
▁जनाए	-9.83711
ामा	-9.83723
▁ध्यानाकर्षण	-9.83794
▁मदिरा	-9.83794
िकरण	-9.83842
▁लिखित	-9.83911
र्त	-9.8395
वान	-9.83953
▁भन	-9.83959
▁भनि	-9.84001
▁आयोगका	-9.84036
▁गजल	-9.84116
भो	-9.84157
रहेका	-9.84198
▁रचना	-9.84209
▁नायब	-9.84273
▁छनौट	-9.84273
▁सधैं	-9.84334
▁देखाउन	-9.84377
ल्याण्ड	-9.84502
▁काठ	-9.84517
▁है	-9.84518
▁परामर्श	-9.8459
▁रमाइलो	-9.84594
▁नगर्न	-9.84608
▁प्रस्तुति	-9.84616
▁देख	-9.84723
▁झन्	-9.84892
जो	-9.84895
▁चल्ने	-9.84924
▁थालिएको	-9.84936
दु	-9.84945
▁थापाको	-9.84985
▁धनी	-9.85026
ेन्ट	-9.85078
▁न्यूनतम	-9.8508
▁आएकी	-9.85121
▁कर्मचारीको	-9.85135
▁संघले	-9.85173
ोप	-9.85192
▁एकीकरण	-9.85296
▁भगवान	-9.85327
▁४३	-9.85328
▁पोल	-9.85336
▁जुम्ला	-9.85342
▁यसपटक	-9.85355
▁तरिका	-9.85366
▁आकर्षक	-9.854
▁दायित्व	-9.854
▁बार्सिलोना	-9.854
▁यथार्थ	-9.85402
▁नभएका	-9.85428
ेट	-9.8549
थि	-9.85538
▁भिसा	-9.85597
ाङ	-9.85601
▁लेखेका	-9.85603
▁४६	-9.8564
▁बालक	-9.85641
▁राना	-9.85644
▁बिच	-9.85714
▁आकर्षण	-9.85725
िसकेको	-9.85725
▁अञ्चल	-9.85725
▁सीप	-9.85731
▁गर्नेछन्	-9.8579
▁तारा	-9.85877
▁कार्यसमिति	-9.85887
सर	-9.85965
्जा	-9.85989
मिन	-9.86009
▁कैद	-9.86014
▁सर्वाधिक	-9.86032
▁विश्लेषण	-9.8605
▁आत्महत्या	-9.86051
▁धनुषा	-9.86051
▁आउँदा	-9.86052
▁बुढा	-9.86055
धा	-9.86061
न्न	-9.86083
पटक	-9.86121
▁मण्डल	-9.86151
▁संस्थान	-9.86199
▁हस्तक्षेप	-9.86213
▁बुद्धि	-9.86224
▁व्यक्तित्व	-9.86259
▁लगानीकर्ता	-9.8629
▁इन्	-9.86333
▁पढाइ	-9.86392
▁जर्मनी	-9.86509
▁रह्यो	-9.86528
▁पढ	-9.86579
▁महानगरीय	-9.8658
▁विभेद	-9.86716
▁त्यतिबेला	-9.86716
इन	-9.86737
▁संख्यामा	-9.86743
▁सामना	-9.8675
▁प्रिमियर	-9.86868
▁चलचित्रको	-9.86876
▁४९	-9.87036
▁केसीको	-9.87077
▁कार्यदल	-9.87078
▁किरण	-9.8713
▁पहिलोपटक	-9.87275
▁हुदै	-9.87306
▁भाषामा	-9.87312
▁आमाको	-9.87369
▁अगुवा	-9.87373
▁चेतना	-9.874
▁मनाङ	-9.87423
टन	-9.87502
निया	-9.87532
ध्य	-9.87538
▁पक्षले	-9.87559
▁पाठ	-9.87593
▁प्रधानमन्त्रीको	-9.87662
ाउँछन्	-9.87672
ुन	-9.87685
▁अत्यधिक	-9.87693
▁जापानी	-9.87803
▁एमालेले	-9.87871
▁बनाउनु	-9.87884
▁खनालले	-9.87992
▁बासिन्दा	-9.88049
▁परिषद	-9.88104
्रे	-9.88134
▁मित्र	-9.88146
▁औ	-9.88179
▁संसदमा	-9.88189
▁गाउँपालिकाका	-9.88268
सभा	-9.88272
▁भोजपुर	-9.88386
▁नवलपरासी	-9.88406
▁डिजाइन	-9.88475
▁आधारभूत	-9.88534
▁स्मृति	-9.88549
सकेका	-9.8855
▁भारतबाट	-9.88597
▁लागत	-9.88629
▁हुनसक्ने	-9.88643
▁असफल	-9.88671
▁विपक्षी	-9.88693
▁बारा	-9.88701
▁जसलाई	-9.88741
▁५८	-9.88756
▁खाली	-9.88793
▁कठिन	-9.88824
▁छोड	-9.8886
▁जरिवाना	-9.8886
▁शक्तिशाली	-9.88866
▁बुबा	-9.88893
▁कार्यालयको	-9.88928
▁यसबारे	-9.88953
▁चौकी	-9.88979
▁चिन	-9.89022
▁समायोजन	-9.8904
ीक	-9.89049
्ति	-9.89119
▁बाँध	-9.89138
▁स्मार्ट	-9.89194
▁सङ्कलन	-9.89196
▁कुवेत	-9.89196
▁मैदान	-9.89215
▁खालको	-9.89248
▁निर्	-9.89307
वत	-9.89315
▁तोकेको	-9.89325
▁निक्षेप	-9.89372
▁तरिकाले	-9.89377
▁लागु	-9.89469
▁केन्द्रिय	-9.89486
▁गरिब	-9.89494
▁इन	-9.89495
▁आउट	-9.89517
▁खट	-9.89541
▁ल्याइएको	-9.89546
मात्रै	-9.89573
जर	-9.89575
▁खण्डमा	-9.89579
▁किसिमको	-9.89617
▁बरामद	-9.89702
▁ल्याएर	-9.89708
▁दरबार	-9.89715
▁सूची	-9.89744
▁राती	-9.89901
▁पर्सा	-9.89932
ते	-9.90065
▁रुस	-9.90086
▁रणनीति	-9.90099
▁माध्यमिक	-9.90102
बजार	-9.90174
देश	-9.90284
▁फाइनलमा	-9.90303
▁५३	-9.90315
▁थारु	-9.90393
▁पछिल्ला	-9.90422
उन	-9.90472
▁रहन्छ	-9.90526
▁समाजका	-9.90532
▁०६	-9.90557
▁प्रकट	-9.90558
▁मुद्दामा	-9.90633
आइ	-9.90716
▁सम्	-9.9077
बो	-9.90794
▁लेखा	-9.90839
▁लकडाउन	-9.90892
▁सेवाग्राही	-9.90892
००	-9.90911
▁पुस्ता	-9.90973
▁सायद	-9.91066
▁४७	-9.91161
▁गुण	-9.91161
▁विद्यार्थीहरु	-9.91185
▁राजधानीमा	-9.91246
▁कम्पनीका	-9.91249
चे	-9.91261
थी	-9.9128
▁रियल	-9.91296
नेकपा	-9.91304
▁खड्काले	-9.91304
▁फु	-9.91318
सक्ने	-9.91371
▁आवास	-9.91376
▁गरिसकेका	-9.91399
▁अस्थायी	-9.91407
▁ठाकुर	-9.91407
▁५४	-9.91409
▁सिन्धुपाल्चोक	-9.91501
चन	-9.91532
कुल	-9.91549
▁आधिकारिक	-9.91579
▁कुटपिट	-9.9158
▁भेटिएको	-9.91607
▁आन्दोलनमा	-9.91659
▁रोज	-9.91688
▁भारी	-9.91743
▁बिहिबार	-9.91751
▁विकसित	-9.91763
▁सन्दीप	-9.91766
वाला	-9.91819
िभ	-9.91823
▁भएमा	-9.91856
स्व	-9.91867
▁स्वीकृति	-9.91911
्ड	-9.91923
▁बार	-9.91936
तामा	-9.92
▁आफैँ	-9.92036
धान	-9.92093
▁छायांकन	-9.92097
▁देखेर	-9.92109
▁फरार	-9.92117
▁समारोह	-9.92123
▁मनाउन	-9.92127
▁२०१६	-9.92129
▁सिक	-9.92144
िला	-9.92184
▁एनआरएन	-9.92185
▁मस्यौदा	-9.9227
▁रुपियाँ	-9.9227
▁श्रीलंका	-9.9227
▁उपन्यास	-9.92275
▁प्रतिभा	-9.92295
▁खुलेको	-9.92329
▁प्रक्रियामा	-9.92349
िनी	-9.92411
ाएका	-9.92468
क्त	-9.926
▁ब्राजिल	-9.92618
▁विसं	-9.92627
▁भोग	-9.92643
▁प्रमाणित	-9.9272
▁माधव	-9.92738
▁कूल	-9.92778
▁अवधारणा	-9.92792
यल	-9.92856
▁तस्करी	-9.92901
▁गोर्खा	-9.92923
▁देखिए	-9.9293
▁विश्वभर	-9.92933
▁दोषी	-9.92945
▁पार्क	-9.93045
▁उनीहरूलाई	-9.93115
बास	-9.93119
▁गल्ती	-9.93142
ल्ला	-9.93167
▁धु	-9.93272
▁ओभरमा	-9.9333
▁दायर	-9.93342
▁ओम	-9.93404
▁परिसर	-9.93407
नमा	-9.93408
▁समझदारी	-9.93481
▁परराष्ट्र	-9.93493
▁रोल्पा	-9.93493
दान	-9.93524
▁नेपालगञ्ज	-9.93552
▁लगाए	-9.9363
▁बन्यो	-9.93716
▁कलाकारहरु	-9.93774
▁रेखा	-9.93789
▁टे	-9.93819
ज्ञ	-9.93827
▁शंकर	-9.93832
▁देखियो	-9.93901
▁सम्मानित	-9.93987
▁श्रमिक	-9.93991
▁परिवारको	-9.9404
▁राजेश	-9.94047
तु	-9.94052
▁नगरपालिकामा	-9.94056
▁बाटोमा	-9.9409
्री	-9.94097
▁इन्द्र	-9.94114
क्षेत्र	-9.9412
▁घरको	-9.94174
▁समानुपातिक	-9.94341
▁तारिख	-9.94374
▁इटहरी	-9.94374
▁वास्तविक	-9.94399
▁दिनुभएको	-9.94457
▁हेरेर	-9.94482
क्र	-9.9452
▁केन्द्रको	-9.94545
▁डिजिटल	-9.94551
▁लगाइएको	-9.94567
▁स्वस्थ	-9.94603
▁नागरिकलाई	-9.94711
▁युवक	-9.94729
▁सस्तो	-9.94742
▁सापकोटा	-9.94848
▁सम्बन्धि	-9.94873
▁मात्रा	-9.94875
▁यहाँको	-9.94946
ोस	-9.94958
▁सप्तरी	-9.94959
बारी	-9.94963
थ्यो	-9.95131
▁रेग्मी	-9.95209
▁सङ्घीय	-9.95265
▁प्रधानमन्त्रीले	-9.95294
▁उठ	-9.95298
▁दियो	-9.95341
▁दिल	-9.95342
पूर्वक	-9.95389
▁जनयुद्ध	-9.95443
▁कल्पना	-9.95443
चो	-9.95447
▁भुटान	-9.95469
▁ट्रम्पले	-9.95597
▁सामूहिक	-9.95622
▁ग्रामीण	-9.95622
▁विज्ञप्तिमा	-9.9566
▁तौल	-9.95723
▁श्रेष्ठको	-9.95728
चौर	-9.95729
▁संकट	-9.95734
साथ	-9.95739
▁दिनदेखि	-9.95784
▁पुग	-9.95795
▁मृत	-9.95802
क्षा	-9.95876
▁विशिष्ट	-9.95981
▁जिम्मेवार	-9.96075
मुखी	-9.9611
▁स्प	-9.96117
▁कार्यकाल	-9.96126
▁टाउको	-9.96127
मूलक	-9.96142
योग	-9.96147
▁वर्षे	-9.96157
▁युवराज	-9.96177
▁बज	-9.96186
▁कसले	-9.96215
▁प्रयोगकर्ता	-9.9624
▁रह	-9.96255
▁काल	-9.96263
▁पाल	-9.96354
्व	-9.96408
▁निवास	-9.96422
▁महीना	-9.96523
१९	-9.96538
▁बिशेष	-9.96704
▁ब्याज	-9.9674
▁चर्चामा	-9.96832
▁सरकारमा	-9.96855
िर	-9.96876
▁सक्षम	-9.96885
▁कमजोरी	-9.96894
▁घन्टा	-9.96997
▁महान	-9.96998
▁नमुना	-9.97067
▁नकारात्मक	-9.97249
▁मङ्सिर	-9.97249
▁विनोद	-9.97249
▁समितिमा	-9.97306
▁प्रो	-9.97309
▁किशोरी	-9.97329
▁पेशा	-9.97329
▁सेल	-9.97404
▁मुक्ति	-9.97419
▁निकुञ्ज	-9.97432
ाना	-9.97517
तः	-9.97552
▁दिइ	-9.9759
▁शिविर	-9.97601
▁छिट्टै	-9.97615
▁थाल्यो	-9.97636
▁नम्बरको	-9.97656
▁उता	-9.97666
गे	-9.97673
▁चाप	-9.977
▁नेताहरू	-9.97774
▁व्य	-9.97798
▁शिशु	-9.97801
रहेको	-9.97857
▁केन्द्रले	-9.9792
▁बौद्ध	-9.97947
रहित	-9.97965
व्य	-9.98022
▁राखी	-9.98042
ल्स	-9.98087
लिन	-9.98114
▁परम्परागत	-9.98194
▁सन	-9.98232
▁विना	-9.98236
▁नपर्ने	-9.98237
पाल	-9.983
रत	-9.98307
▁कार्यान्वयनमा	-9.98313
▁घुस	-9.98347
▁अस्ट्रेलिया	-9.98349
▁नपाउने	-9.98364
▁सुनिश्चित	-9.98366
▁ओभर	-9.98387
▁खोज्ने	-9.98388
▁साम	-9.9839
▁विशेषता	-9.98429
लिया	-9.98451
ग्रा	-9.98453
▁मुल्य	-9.9846
▁सुशासन	-9.98543
▁प्राय	-9.98546
▁चाड	-9.98563
▁क्षेत्रबाट	-9.98566
▁बेल	-9.98579
▁हेटौंडा	-9.98719
▁संयन्त्र	-9.98724
▁खास	-9.98741
▁सुनाए	-9.98783
▁घाटा	-9.98844
▁कर्म	-9.98873
▁भेट्न	-9.98897
▁ठक्कर	-9.98904
▁ट्रक	-9.98947
▁पोष्ट	-9.98954
▁तल्लो	-9.98983
▁दे	-9.98994
▁साझेदारी	-9.9902
▁लैजाने	-9.99107
▁गुणस्तरीय	-9.99148
▁कर्मचारीले	-9.99242
▁साहित्यिक	-9.99242
▁स्रोतले	-9.99253
▁बेल्जियम	-9.99275
▁चलिरहेको	-9.99293
▁जित्न	-9.9942
▁पेस	-9.99478
थे	-9.9949
▁खुद	-9.99516
▁भीड	-9.99552
▁विमानस्थलमा	-9.99602
▁निकाल	-9.99613
▁प्रविधिको	-9.99637
▁मुस्ताङ	-9.9965
शु	-9.99673
▁ढकालले	-9.99751
▁चिनी	-9.99763
▁बर	-9.99803
▁चरित्र	-9.99835
ाे	-9.99849
सिस	-9.99862
▁उदयपुर	-9.99863
मय	-9.99912
▁राख्नु	-9.9992
च्छ	-9.9994
▁५७	-9.99945
▁न्यून	-9.99997
▁५९	-10
▁ईश्वर	-10.0003
▁कोइरालाले	-10.0003
▁वटै	-10.0007
▁विद्युतीय	-10.0008
▁काङ्ग्रेस	-10.0021
▁हैसियत	-10.0021
▁द्वारा	-10.0023
▁उठाउन	-10.0026
▁एसियाली	-10.0029
्ता	-10.0033
▁हावा	-10.0041
▁गुम	-10.0054
शास्त्र	-10.0055
▁जिते	-10.0056
▁किताब	-10.0059
▁बिमा	-10.006
▁दशैँ	-10.0062
▁फर्किए	-10.0064
▁व्यक्तिहरु	-10.0088
▁हल्ला	-10.0088
▁नदीमा	-10.0091
▁सूचीमा	-10.0092
▁समारोहमा	-10.0094
▁तनहुँ	-10.0096
▁परियार	-10.0097
▁नक्सा	-10.0097
▁टन	-10.0099
ट्	-10.0099
▁नागरिकको	-10.0111
िप	-10.0111
▁कांग्रेसको	-10.0112
▁क्रान्तिकारी	-10.0113
▁भैरहेको	-10.0116
▁आर्मी	-10.0117
▁आइरहेको	-10.0117
▁छौ	-10.0125
▁एन्ड	-10.0134
▁सञ्चारमाध्यम	-10.0134
▁चामल	-10.0135
▁बैंकिङ	-10.0139
▁बहिनी	-10.0145
▁उत्ति	-10.0146
▁फर	-10.015
▁ठेक्का	-10.0153
ल्ल	-10.0165
▁खडा	-10.0165
▁रुपैया	-10.0166
▁समीक्षा	-10.0172
▁सङ्गठन	-10.0172
▁एनसेल	-10.0173
्ध	-10.0174
सकेको	-10.0176
▁उड	-10.0177
▁टिका	-10.0179
▁हाफ	-10.0179
तर	-10.0185
▁एशिया	-10.0187
▁स्मरण	-10.0188
▁क्लव	-10.0195
▁खोल्न	-10.0205
▁विज्ञ	-10.0206
▁मतगणना	-10.0211
म्बर	-10.0211
▁सलमान	-10.0211
ियर	-10.0212
▁डट	-10.0218
कृत	-10.0227
▁नेत्र	-10.0227
▁सेप्टेम्बर	-10.023
▁दलले	-10.023
▁बोल्न	-10.0235
▁भाउ	-10.0236
▁कानूनी	-10.0256
▁वै	-10.026
▁पालना	-10.0263
▁पूँजी	-10.0267
▁अपहरण	-10.0267
▁भलिबल	-10.0268
▁विद्या	-10.0268
▁विशाल	-10.027
▁कट	-10.0278
िदै	-10.028
ुल	-10.0285
▁रहेकाले	-10.0287
▁पल	-10.0288
▁राउत	-10.0292
स्क	-10.0294
▁रोकिएको	-10.0297
▁लेखिएको	-10.0297
▁सू	-10.0299
▁प्रदर्शनी	-10.0299
▁लेखेको	-10.0301
१०	-10.0302
▁फाल्गुन	-10.0306
▁इन्धन	-10.0308
▁बेच	-10.0308
▁दिगो	-10.0309
▁प्रशंसा	-10.0326
▁बुवा	-10.0327
िड	-10.0328
चित	-10.033
▁फुट	-10.033
▁आत्म	-10.0338
▁उत्साह	-10.0339
▁पारस	-10.034
विद्	-10.0344
▁छोराछोरी	-10.0345
▁प्रचलन	-10.0345
▁सजिलै	-10.0345
▁उहाँलाई	-10.0346
▁बस्नेतले	-10.0347
▁मन्दिरमा	-10.0351
यौ	-10.0353
ेन्स	-10.036
▁रौतहट	-10.0365
ान्त	-10.0375
▁स्पेन	-10.0382
▁पुनःनिर्माण	-10.0385
▁उमेरमा	-10.0386
▁सकिनेछ	-10.0396
▁महत्त्वपूर्ण	-10.0405
▁सुदूरपश्चिम	-10.0421
▁स्वयं	-10.0423
िस्ट	-10.0423
▁सिरहा	-10.0425
▁क्रमशः	-10.0425
▁सेतो	-10.0425
▁फिचर	-10.0426
▁चालू	-10.0426
प्त	-10.0427
▁नगरे	-10.0433
▁सडकको	-10.0438
▁प्रधानन्यायाधीश	-10.0441
▁आउँदै	-10.045
▁श्याम	-10.045
▁सहितको	-10.0456
▁चोट	-10.0461
▁आश	-10.0469
▁तिनीहरू	-10.0471
▁हिमाली	-10.0472
▁लिई	-10.0473
यन	-10.0478
▁रुख	-10.0478
दल	-10.048
▁ठेकेदार	-10.0482
च्च	-10.0483
▁बोकेको	-10.0484
▁कामना	-10.0487
▁विद्यार्थीलाई	-10.0494
▁महत	-10.0497
▁अमर	-10.0507
▁चौधरीले	-10.0513
▁किनकि	-10.0514
▁आजै	-10.0516
न्द्र	-10.0518
▁अन्त	-10.0521
▁पढ्ने	-10.0521
▁सरोकारवाला	-10.0522
▁सरुवा	-10.0527
ठी	-10.0528
▁२०२०	-10.0534
▁जसका	-10.054
▁आकर्षित	-10.0541
▁दफा	-10.0546
▁निर	-10.0548
▁प्राथमिकतामा	-10.0551
▁निष्कर्ष	-10.0552
▁पश्चात	-10.0554
▁चुक्ता	-10.0562
िष्ट	-10.0564
विहीन	-10.0575
▁ड्र	-10.0576
ीन	-10.058
▁दोलखा	-10.0581
▁टी	-10.0586
▁आचार्यले	-10.0588
▁गरिबी	-10.0588
र्ण	-10.0589
▁सिम	-10.0589
▁शाक्य	-10.059
न्य	-10.059
चु	-10.0594
धार	-10.0596
▁टुंगो	-10.0601
▁महोत्तरी	-10.0601
▁मुलुकका	-10.0601
▁दोहोरो	-10.0601
अप	-10.0604
खे	-10.0609
▁राष्ट्रियसभा	-10.061
ङ्क	-10.061
▁परिवारले	-10.0611
▁आन्दोलनको	-10.0613
▁प्रदीप	-10.062
कला	-10.062
▁शंका	-10.0622
▁करिव	-10.0623
▁राजु	-10.0626
▁बर्दिया	-10.0628
▁संवाद	-10.0633
िच	-10.0635
▁सागर	-10.0636
▁देखिन	-10.0638
▁अस	-10.0639
▁तिम्रो	-10.0641
▁थिएनन्	-10.0648
ुर	-10.0653
▁भाव	-10.0653
पूर्व	-10.0656
▁स्क	-10.0657
▁शाहले	-10.0659
▁समूहका	-10.0666
ल्यान्ड	-10.0674
▁विज्ञप्ति	-10.0676
▁पुष	-10.0677
▁बयान	-10.0683
▁सेट	-10.0687
▁साविक	-10.0703
ेशन	-10.0705
▁सभामा	-10.0706
▁राजन	-10.0707
▁मङ्गलबार	-10.0712
▁सकेनन्	-10.0713
▁हाइ	-10.072
▁दिइने	-10.0724
▁०५	-10.0725
एच	-10.0737
द्द	-10.0738
▁काउन्सिल	-10.0741
▁निर्णायक	-10.0741
▁अफगानिस्तान	-10.0741
▁मेसिन	-10.0742
▁चाहने	-10.0745
▁खस	-10.0748
्थ्यो	-10.0751
▁पेट्रोलियम	-10.0762
▁नाच	-10.0762
भु	-10.0766
▁राय	-10.0771
▁दूरी	-10.0777
▁उनि	-10.0778
▁इन्जिनियर	-10.0781
▁जगत	-10.0783
▁अलपत्र	-10.0784
▁अस्पतालका	-10.0784
▁शरीरमा	-10.0788
▁दुइ	-10.0793
▁तेज	-10.0795
रुप	-10.0797
▁उपप्रमुख	-10.0802
▁बजेदेखि	-10.0803
▁संस्थाहरु	-10.0805
▁अरुण	-10.0807
▁मार	-10.0814
▁अर्याल	-10.0814
▁सत	-10.0822
▁काभ्रे	-10.0822
▁तस्वीर	-10.0822
▁विद्यालयको	-10.0824
▁डाटा	-10.0825
▁सोचे	-10.083
वाल	-10.0831
▁आफुले	-10.0832
▁वर्षभित्र	-10.084
▁बानी	-10.0842
▁खराब	-10.0853
▁सामाग्री	-10.0856
▁नदिन	-10.0856
▁मार्च	-10.086
▁उत्तरी	-10.086
▁प्रकृति	-10.0862
▁नसकिने	-10.0864
▁थाल	-10.0864
द्	-10.0867
ल्ट	-10.0868
▁दिनेश	-10.0869
▁राजकुमार	-10.0872
▁जुनसुकै	-10.0883
▁साथीहरु	-10.0885
▁प्रोत्साहन	-10.089
▁खोप	-10.0891
▁उत्तम	-10.0891
▁पुग्छ	-10.0895
▁सिंहदरबार	-10.0904
▁मुद्रा	-10.0904
▁खालका	-10.0907
▁माओवादीले	-10.0909
▁दलहरु	-10.0911
ाइन	-10.0916
▁बोलको	-10.0917
▁मनमा	-10.0923
▁संयोजकत्वमा	-10.0925
▁कार्यविधि	-10.0925
▁स्वाद	-10.0937
▁तपाईंले	-10.094
▁परा	-10.0943
▁पेट्रोल	-10.0945
▁जनसङ्ख्या	-10.0945
▁खानेकुरा	-10.0946
ंस	-10.095
▁जोगाउन	-10.0951
▁जुलाई	-10.0951
▁दिशा	-10.0951
▁८५	-10.0954
▁मनोरञ्जन	-10.0966
▁दान	-10.097
▁रिट	-10.0972
▁अंश	-10.0973
▁रहनेछ	-10.0978
▁दरले	-10.098
िँदा	-10.0985
▁शताब्दी	-10.0986
▁ठगी	-10.0986
▁शून्य	-10.0986
▁सहसचिव	-10.0987
▁बेनी	-10.0988
लाइन	-10.0991
▁बर्षको	-10.0997
▁मानिसले	-10.0998
▁गौरव	-10.1003
▁पारी	-10.1004
स्तर	-10.1004
▁खाद्यान्न	-10.1007
▁ट्रेलर	-10.1007
▁गाउँपालिकामा	-10.1008
▁राजश्व	-10.1008
▁सरल	-10.1009
िटी	-10.1013
▁भीम	-10.102
▁प्राध्यापक	-10.1028
▁च्यानल	-10.1029
▁राख	-10.103
▁पोखरी	-10.1031
▁बिक	-10.1032
▁किन्न	-10.1032
▁औषधी	-10.1034
▁दिएपछि	-10.1036
▁समयसम्म	-10.1048
▁बनेर	-10.1048
▁रिस	-10.1048
▁पारिश्रमिक	-10.1049
भरि	-10.1053
▁शा	-10.1059
ाली	-10.107
▁गर्थे	-10.1078
▁सरकारसँग	-10.1091
घात	-10.1091
्म	-10.1099
▁फैल	-10.1101
ानी	-10.1103
▁केजी	-10.1105
▁अचम्म	-10.1111
▁आईतवार	-10.1111
▁निर्धारित	-10.1111
▁दैलेख	-10.1111
▁विस्फोट	-10.1112
▁६४	-10.1113
▁बलमा	-10.1114
▁प्रहरीलाई	-10.1116
नाम	-10.1117
▁बाघ	-10.1123
▁दमक	-10.1126
प्रधानमन्त्री	-10.1126
▁गौतमले	-10.1128
▁भे	-10.1132
▁पद्धति	-10.1132
▁हकप्रद	-10.1132
म्बा	-10.1133
▁राष्ट्रसंघ	-10.1134
▁निम्न	-10.1134
▁२०१९	-10.1139
७५	-10.114
्याउन	-10.1146
ाक	-10.1157
▁जीवनको	-10.1159
पात	-10.116
▁भार	-10.1163
▁एकपटक	-10.1166
▁विधा	-10.1166
▁लिइएको	-10.1175
▁दिदै	-10.1176
र्ज	-10.1177
▁राम्रा	-10.1178
▁सिमेन्ट	-10.1179
▁छठ	-10.1181
ोन	-10.1191
खबर	-10.1195
▁खोज्न	-10.1196
▁अधिकतम	-10.1196
▁ब्या	-10.1197
▁तपाइँ	-10.12
टु	-10.1205
▁ल्याएका	-10.1214
▁आश्विन	-10.1216
▁संयोजन	-10.1218
▁दिदी	-10.1219
▁७६	-10.122
▁भर्खरै	-10.1221
▁दिई	-10.1222
▁दैनिकमा	-10.1226
▁नर	-10.1226
ढी	-10.123
▁भरत	-10.123
▁भइसकेका	-10.1233
▁प्रारम्भ	-10.1234
हाल	-10.1234
▁अनशन	-10.1238
▁व्रत	-10.1238
▁स्कूल	-10.1239
▁हराएको	-10.124
▁भ्रम	-10.1244
▁छाडेर	-10.1247
लय	-10.125
▁००	-10.1255
▁कारोवार	-10.1259
▁आसपास	-10.1259
▁पक्कै	-10.126
▁संग्रह	-10.1269
▁नेपालबाट	-10.1272
▁०७	-10.1273
▁रिहा	-10.1275
▁लगत्तै	-10.1277
▁नोभेम्बर	-10.128
▁लघुवित्त	-10.128
▁चाडपर्व	-10.128
▁दसैं	-10.128
ोल	-10.1282
्रि	-10.1286
▁अनिल	-10.1287
▁तत्व	-10.1288
▁स्याउ	-10.1296
▁बास	-10.1298
▁शनिवार	-10.1302
▁मोड	-10.1302
▁किशोर	-10.1304
▁लेख्न	-10.1304
▁प्रायः	-10.1305
▁उभ	-10.1311
ट्टा	-10.1314
▁राजनैतिक	-10.1323
▁लाभांश	-10.1323
▁भन्यो	-10.1327
ार्थ	-10.133
▁सम्झना	-10.1331
▁अधिकारीको	-10.1339
▁देशलाई	-10.134
एफ	-10.1341
▁स्वामित्व	-10.1344
▁खरीद	-10.1345
ँच	-10.1348
▁केशव	-10.1351
▁अशोक	-10.136
▁दास	-10.1362
▁बराबर	-10.1366
▁क्षेत्रफल	-10.137
▁जुट	-10.1374
▁अधिक	-10.1377
▁नेताहरुले	-10.1384
▁इजरायल	-10.1387
▁अस्तित्व	-10.1387
▁प्रबन्ध	-10.1394
▁गराउनु	-10.1398
लगत्तै	-10.1404
▁एक्लै	-10.1409
▁वीरगञ्ज	-10.1409
्दी	-10.141
▁युवाहरु	-10.1411
▁कारागार	-10.1414
एक	-10.1416
▁त्यसरी	-10.142
▁विश्वमा	-10.1421
▁वीर	-10.1425
विन	-10.143
▁खण्ड	-10.1435
▁पिता	-10.1438
▁शु	-10.1439
▁चढ	-10.1446
▁६३	-10.145
▁तब	-10.145
▁जोन	-10.1451
▁पारिवारिक	-10.1452
ंगा	-10.1456
▁ब्याटिङ	-10.1462
▁समूहको	-10.1466
▁आफूहरु	-10.1471
▁क्षतिपूर्ति	-10.1474
▁हार्दिक	-10.1474
▁प्रसिद्ध	-10.1474
उँ	-10.1479
खर	-10.1479
▁एफ	-10.1482
▁तिनै	-10.1487
▁मानवीय	-10.1488
▁चौ	-10.1493
▁पठाइएको	-10.1496
▁छैन्	-10.1496
▁भुसाल	-10.1496
▁हात्ती	-10.1498
▁रामचन्द्र	-10.1498
▁बिल	-10.1501
▁पारेका	-10.1501
▁अफर	-10.1502
र्ने	-10.1504
▁मनो	-10.1508
ष्ठ	-10.1513
रूपमा	-10.1516
▁प्रतिपक्षी	-10.1521
▁अपराधी	-10.1523
▁पृष्ठ	-10.1527
▁रवि	-10.1537
▁ग्लोबल	-10.1539
ग्रस्त	-10.1542
▁कन्	-10.1543
स्थान	-10.1548
▁७२	-10.1551
▁एकेडेमी	-10.1561
▁पाएपछि	-10.1561
▁सिन्धुली	-10.1562
जित	-10.1563
▁एमाओवादी	-10.1564
▁बाली	-10.1568
▁अमेरिकाले	-10.1569
▁बनाउँछ	-10.1579
▁एल्बम	-10.1583
▁डिसेम्बर	-10.1583
▁प्रयत्न	-10.1583
▁बैतडी	-10.1583
▁विभाजन	-10.1583
ुस	-10.1585
▁नेकपाका	-10.1592
▁टिमले	-10.1594
पाटी	-10.1602
▁पूरै	-10.1605
▁भेटवार्ता	-10.1605
▁उपेन्द्र	-10.1607
▁विक्री	-10.1608
▁कागज	-10.1608
हरूसँग	-10.1612
ण्ट	-10.1613
▁हुनुभएको	-10.1613
▁हेरे	-10.1622
भाग	-10.1624
▁किसानले	-10.1631
▁लामाले	-10.164
ंश	-10.1644
▁भन्छ	-10.1647
गल	-10.165
५०	-10.165
▁बिषयमा	-10.165
▁बिश्व	-10.1653
त्ता	-10.1653
▁व्या	-10.1659
▁सेवामा	-10.1659
▁दुईवटा	-10.1659
सक	-10.1661
क्रममा	-10.1669
▁गएपछि	-10.1669
▁अखिल	-10.1671
▁गराइएको	-10.1674
▁भूमिकामा	-10.1674
▁खेलेको	-10.1676
▁सम्पादक	-10.1676
▁एसपी	-10.1677
▁सुनको	-10.1679
▁प्रकरण	-10.168
▁कुर	-10.1685
▁महासंघका	-10.1689
▁०९	-10.1689
हान	-10.169
▁विद्यालयका	-10.1691
▁आबद्ध	-10.1697
▁असन्तुष्टि	-10.1701
▁न्यूज	-10.1702
▁समाजले	-10.1705
▁स्वास्थ्यकर्मी	-10.1705
्सन	-10.171
▁संवेदनशील	-10.1715
▁प्रकोप	-10.1716
▁लक्षण	-10.1718
▁टो	-10.1719
द्वय	-10.1719
▁पढे	-10.1721
▁सोध	-10.1723
▁गरौं	-10.1725
▁ढल	-10.1736
▁नराम्रो	-10.1738
▁अस्वीकार	-10.1738
▁उर्जा	-10.1739
▁एकदमै	-10.1743
▁उपत्यकामा	-10.1744
▁अङ्क	-10.1748
▁संस्कृत	-10.175
▁यसैबीच	-10.1756
▁परेर	-10.1759
▁कब्जा	-10.176
▁रहँदा	-10.1765
िग	-10.177
वाइ	-10.1773
▁रामबहादुर	-10.1778
हरी	-10.1781
▁लमजुङ	-10.1782
▁स्मार्टफोन	-10.1783
▁पावर	-10.1785
▁ब्र	-10.1788
▁चिर	-10.1797
▁पार्दै	-10.1801
▁गाउँपालिकाले	-10.1801
बस	-10.1803
▁गंगा	-10.1806
▁अनुभूति	-10.1807
▁घिमिरेले	-10.1809
मार्फत्	-10.1815
▁०८	-10.1818
▁परिणत	-10.1827
▁मोह	-10.1828
मर	-10.1829
एर	-10.1831
▁पुग्दा	-10.1831
▁काँग्रेसका	-10.1831
▁स्ट	-10.1834
▁अस्पतालको	-10.1835
हन	-10.1838
ाम	-10.1839
▁न्युज	-10.1848
▁चाँडै	-10.185
▁पश्चिमी	-10.1853
▁कोरियाली	-10.1859
▁जनताका	-10.1863
▁जनवरी	-10.1873
▁विक्रम	-10.1875
▁चाहेको	-10.1879
▁पाण्डेले	-10.1882
▁गेट	-10.1883
▁ते	-10.1888
▁अक्टोबर	-10.1895
▁पाउनु	-10.1898
▁२०१५	-10.19
िसकेका	-10.1902
▁चाल	-10.1921
▁मन्त्रालयमा	-10.1922
▁पू	-10.1922
▁इरान	-10.1928
▁तपाईको	-10.193
▁फिट	-10.1931
▁रोगको	-10.1932
▁बनाउँदै	-10.194
▁अभियुक्त	-10.1942
▁उहाँका	-10.1942
▁भव्य	-10.1942
▁कोठामा	-10.1943
▁म्यान	-10.1944
▁अंग्रेजी	-10.1946
▁भ्रमणका	-10.1949
▁छक्का	-10.195
▁क्र	-10.1953
ाब	-10.1957
माओवादी	-10.1959
▁रहेछन्	-10.1963
▁बेलुका	-10.1963
▁बाह्य	-10.1964
▁बिरुवा	-10.1966
▁मान्ने	-10.1969
▁चाहन्छु	-10.1971
▁भय	-10.1984
▁असल	-10.1985
▁औसत	-10.1986
▁छात्रा	-10.2002
▁मिलन	-10.2007
▁मुस्लिम	-10.2009
▁अप्रिल	-10.201
▁उस्तै	-10.201
▁जनमत	-10.2011
▁सञ्चारकर्मी	-10.2012
म्म	-10.2017
ँड	-10.2018
▁कर्मचारीहरु	-10.2026
▁छलफलमा	-10.2028
▁निकाल्न	-10.2032
▁तु	-10.2041
ाड	-10.2046
मणि	-10.2047
▁अभियोगमा	-10.205
▁सुक	-10.2051
▁अर्	-10.2051
▁बराबरी	-10.2054
▁साप्ताहिक	-10.2055
▁सकिए	-10.2057
▁आर्जन	-10.2058
▁देखाउने	-10.2062
त्ति	-10.2062
▁मन्त्र	-10.2063
▁संगै	-10.2066
ँग	-10.2072
▁गतिमा	-10.2074
▁ल्याए	-10.2076
▁शुक्ल	-10.2078
▁अन्तरक्रिया	-10.2078
दाता	-10.208
▁चर्को	-10.2083
▁निगरानी	-10.2101
▁केटी	-10.2101
▁प्रसार	-10.2104
▁लेखनाथ	-10.2107
▁विद्यार्थीको	-10.2109
▁फैलिएको	-10.2109
▁कुराहरु	-10.2109
▁स्टक	-10.2111
▁श्र	-10.2114
▁त्रिवि	-10.2116
मुक्त	-10.2118
▁आउँदो	-10.2124
▁गुगल	-10.2125
▁मूल्यमा	-10.2126
▁प्राथमिक	-10.2128
मार्ग	-10.2134
निक	-10.2135
▁फलफूल	-10.2148
▁परिचयपत्र	-10.2149
गि	-10.2151
▁चित्त	-10.2152
▁वायु	-10.2154
ठे	-10.2155
हरुबाट	-10.2157
▁सन्धि	-10.2159
▁श्रीमान्	-10.2161
▁सिल	-10.2161
शिल	-10.2161
फे	-10.2164
हीन	-10.2165
न्ज	-10.2167
▁अन्तरिम	-10.2173
समक्ष	-10.2178
▁सारा	-10.2179
▁सिद्ध	-10.219
वती	-10.219
▁देवकोटा	-10.2191
▁निजामती	-10.2194
▁सवारीसाधन	-10.2194
▁राष्ट्रियता	-10.2194
▁सुरेन्द्र	-10.2195
▁सुब्बा	-10.2195
मुनि	-10.2195
▁साइकल	-10.2196
▁जवान	-10.2198
▁समुदायका	-10.2199
▁सतह	-10.2204
▁स्या	-10.2208
लर	-10.2208
▁लाग	-10.2217
▁बढिरहेको	-10.222
ोर	-10.2227
सू	-10.2237
▁क्षमताको	-10.2237
ात	-10.2238
्यौ	-10.2239
▁प्रशासक	-10.2241
▁सिंगापुर	-10.2241
▁संविधानले	-10.2245
▁टेक	-10.2246
▁नेताले	-10.2253
ोट	-10.2254
▁बुँदे	-10.2254
श्य	-10.2261
▁सरोकार	-10.2264
▁सरस्वती	-10.2264
▁लन्डन	-10.2264
▁ग्रुप	-10.2264
ौली	-10.2265
▁लाग्दा	-10.2265
▁बुझाइ	-10.2266
▁रोपनी	-10.2267
▁गुट	-10.2273
▁पराजुली	-10.2275
मैत्री	-10.2276
▁याएको	-10.2276
▁७७	-10.2278
▁पुनर्	-10.2281
▁दिवसको	-10.2282
्मा	-10.2285
खेल	-10.2285
▁जिन्दगी	-10.2288
▁सैन्य	-10.2288
▁शान्त	-10.2291
पू	-10.2293
▁छाड	-10.2302
▁प्रशस्त	-10.2306
▁इन्स्योरेन्स	-10.2311
▁उठाउने	-10.2312
स्टर	-10.2312
ुपरेको	-10.2313
▁पाँचथर	-10.2314
▁विद्यार्थीले	-10.2315
▁बृद्धि	-10.2317
▁गर्भ	-10.2322
▁पञ्च	-10.2323
▁योग्य	-10.2323
▁फो	-10.2326
▁खेल्दै	-10.2331
शक्ति	-10.2333
▁वास्तवमा	-10.2335
▁सक्नुहुन्छ	-10.2335
▁सर्लाही	-10.2335
▁लाइफ	-10.2335
▁मिलाउन	-10.2335
▁नेपालीहरु	-10.2336
▁हतार	-10.2338
▁साँ	-10.2338
▁रहनु	-10.234
▁मानिएको	-10.2342
▁पारिएको	-10.2343
दिने	-10.2344
▁भत्क	-10.235
▁आफुलाई	-10.2356
▁सृजना	-10.236
▁दस	-10.2364
▁बीउ	-10.2366
एमाले	-10.2366
▁घाम	-10.2367
िएपछि	-10.2369
▁सुनार	-10.2376
▁चाह	-10.2378
न्दा	-10.2381
▁अनुकूल	-10.2383
▁५००	-10.2384
▁६२	-10.2396
▁माने	-10.24
▁उज्यालो	-10.2406
▁आदर्श	-10.241
▁ग्राम	-10.2413
▁सुशील	-10.2416
▁२००	-10.2417
▁बिरामीको	-10.2418
▁माझ	-10.2419
▁स्वच्छ	-10.2421
▁संस्थामा	-10.2425
▁प्रदर्शनमा	-10.2426
▁प्रहरीका	-10.2428
▁बुझाउन	-10.2429
▁लगानीमा	-10.243
▁जित्ने	-10.2431
▁सञ्जालमा	-10.2436
)[	-10.2439
▁माला	-10.2452
▁निको	-10.2456
▁स्थानीयले	-10.2459
▁झु	-10.2461
▁गर्मी	-10.2461
▁गराई	-10.2462
▁सुरू	-10.2466
▁गुड	-10.2474
▁एनआरएनए	-10.2483
▁देउ	-10.2483
▁सुनिल	-10.2489
ेनी	-10.2493
लिक	-10.2498
०००	-10.2499
▁क्यामेरा	-10.2502
▁नेटवर्क	-10.2502
दैन	-10.2503
▁विस्थापित	-10.2503
▁अडान	-10.2503
चाहिँ	-10.2504
▁हकमा	-10.2509
▁आजदेखि	-10.2516
ाध	-10.2518
त्मक	-10.2522
▁महँगो	-10.2526
▁पवित्र	-10.2526
▁दरबन्दी	-10.2527
▁जलविद्युत	-10.2541
▁शल्यक्रिया	-10.255
▁प्रियंका	-10.255
▁निमित्त	-10.255
नल	-10.2552
केट	-10.2556
▁निकालेको	-10.2557
▁कपाल	-10.2559
्याएर	-10.2565
▁छोडेर	-10.2572
दुर	-10.2574
▁सत्तारुढ	-10.2574
▁अफ्रिका	-10.2574
▁गर्भवती	-10.2575
▁दलाल	-10.2576
▁दिपक	-10.258
▁खाडी	-10.2582
▁फ्ल	-10.2582
▁मनोज	-10.2587
▁सीता	-10.26
२५	-10.2606
▁त्यहाँका	-10.2608
▁एड	-10.2614
▁आपसी	-10.2616
▁हुन्न	-10.2618
▁सक्नेछन्	-10.2618
▁खासगरी	-10.2624
▁महेश	-10.2626
▁आस्था	-10.2629
▁घर्ती	-10.263
▁ऋषि	-10.2635
र्द	-10.2637
टिक	-10.2639
▁व्यापारिक	-10.264
छौं	-10.2645
▁निर्वाचनका	-10.2647
गन	-10.2647
▁ज्येष्ठ	-10.2647
▁डोल्पा	-10.2647
▁किसिमका	-10.2651
रू	-10.2659
▁काँ	-10.2662
▁ब्लग	-10.2662
▁कार्यक्रमहरु	-10.2663
▁आरोहण	-10.2673
▁बिषय	-10.2673
▁साइट	-10.2675
ाइरहेको	-10.2677
▁झि	-10.2678
▁बेलायती	-10.2678
▁जोखिममा	-10.2687
पथ	-10.2688
वटा	-10.269
▁काठमाडौंको	-10.2694
▁चे	-10.2703
स्तरीय	-10.2711
▁मार्	-10.2712
▁च्याम्पियनसिप	-10.2721
▁घोषित	-10.2721
▁राशि	-10.2722
▁निस्क	-10.2723
▁बत्ती	-10.2724
▁समावेशी	-10.2727
▁सक्नु	-10.2738
सम्मका	-10.2743
▁सुपर	-10.2744
▁भैरहवा	-10.2746
▁सर्वेक्षण	-10.2746
▁चोक	-10.2747
▁सुचना	-10.2748
▁मालिक	-10.2748
हित	-10.2752
स्य	-10.2754
▁लुक	-10.2756
▁विरोधी	-10.2757
▁अफिस	-10.2761
▁कान	-10.2762
▁बढे	-10.2767
▁तिर्न	-10.2769
कार्य	-10.2771
▁वैद्य	-10.2771
▁खाएर	-10.2771
▁नया	-10.278
घा	-10.2784
▁कर्तव्य	-10.2795
▁सरसफाइ	-10.2795
▁हेलिकप्टर	-10.2795
▁मुद्धा	-10.2795
पोखरी	-10.2796
▁विश्वव्यापी	-10.2797
▁अल्	-10.2798
▁चो	-10.2803
▁एयरलाइन्स	-10.282
▁भौगोलिक	-10.282
▁स्वाभाविक	-10.282
हरुसँग	-10.2823
डाँडा	-10.2824
▁माल	-10.2825
▁७४	-10.2825
ैं	-10.2828
▁प्राप्ति	-10.2833
▁म्या	-10.2835
▁बनाइ	-10.2844
▁वेबसाइट	-10.2845
▁महाकाली	-10.2845
ुहोला	-10.2847
▁घरमै	-10.2849
१५	-10.2857
▁उहा	-10.2859
▁आयुक्त	-10.286
▁प्या	-10.2867
▁अपडेट	-10.287
▁सुनुवाइ	-10.287
▁विद्यादेवी	-10.2871
▁केरा	-10.2873
▁उपचारको	-10.2875
▁सिके	-10.2885
▁किरात	-10.2892
▁गणना	-10.2893
▁व्याख्या	-10.2895
▁भाषण	-10.2895
▁सुरेश	-10.2895
▁पढ्नुहोस्	-10.2899
▁मान्न	-10.2901
▁सभाको	-10.2909
ग्र	-10.2914
▁गहिरो	-10.292
▁युनाइटेड	-10.292
▁घरबाट	-10.292
▁बढुवा	-10.2922
▁बोल्ने	-10.2928
प्रतिको	-10.2933
▁तत्कालिन	-10.2942
▁पाइए	-10.2944
▁नमूना	-10.2945
▁उत्सव	-10.2945
▁चाहिने	-10.2949
▁क्यान	-10.2955
▁बन्छ	-10.2959
▁निगमले	-10.296
▁हौं	-10.2964
र्य	-10.2965
▁व्यवसायिक	-10.2966
▁सिँचाइ	-10.297
▁सौन्दर्य	-10.297
▁रसुवा	-10.297
▁कर्ण	-10.2974
▁उनिहरु	-10.2978
११	-10.2978
▁वान	-10.2983
▁सेवाको	-10.2985
द्व	-10.2985
ाइरहेका	-10.2985
फल	-10.2987
▁तपाईंलाई	-10.2987
▁उद्योगी	-10.2994
▁प्रतिस्पर्धी	-10.2995
▁महामारी	-10.2996
▁भूभाग	-10.2996
▁विपन्न	-10.2997
▁नाग	-10.2998
वु	-10.3
▁प्रणालीमा	-10.3004
▁कूटनीतिक	-10.3006
ुस्	-10.3007
▁चोर	-10.3009
▁जात्रा	-10.3012
्दैन	-10.3016
▁कुरो	-10.3017
▁७८	-10.302
▁हाराहारी	-10.3021
▁विसारक	-10.3021
▁क्रियाशील	-10.3021
▁समापन	-10.3022
चक	-10.3024
▁खुलासा	-10.3029
श्री	-10.303
धर	-10.3039
▁सोधे	-10.3039
▁प्रतिपक्ष	-10.3043
▁वैकल्पिक	-10.3046
▁ढुवानी	-10.3046
▁निज	-10.3048
▁हजुर	-10.3048
▁अनुरुप	-10.305
▁स्तरीय	-10.3054
▁नवराज	-10.3055
▁घोषणापत्र	-10.3058
▁तीनै	-10.3058
▁बाढीले	-10.306
▁सद्भाव	-10.3067
फ्	-10.3069
▁मेलम्ची	-10.3071
वर्ष	-10.3072
▁ढिलो	-10.3072
▁परिचित	-10.3073
▁खोल्ने	-10.3075
▁परेपछि	-10.3075
▁फर्म	-10.3077
▁महतो	-10.3079
मिल	-10.3086
▁पुर्याउने	-10.3088
▁प्रशासनले	-10.3096
▁विदा	-10.3097
▁भुमिका	-10.3097
▁सङ्क्रमण	-10.3097
▁झण्डा	-10.3098
▁भन्छिन्	-10.3099
▁साइ	-10.3106
▁किम	-10.3116
▁डोनाल्ड	-10.3123
▁सुत्केरी	-10.3123
▁वीरगन्ज	-10.3123
▁७३	-10.3126
रिक	-10.3127
▁कार्यलय	-10.3128
▁संहिता	-10.3129
▁नपाएको	-10.3137
▁घो	-10.3141
▁विच	-10.3141
▁सेमिफाइनलमा	-10.3144
▁दोष	-10.3146
▁छानविन	-10.3148
▁पर्यटकको	-10.3152
▁भरमा	-10.3157
▁बालबालिकालाई	-10.3159
▁मध्यम	-10.3168
्नुपर्छ	-10.3172
▁भविष्यमा	-10.3173
▁फाइनान्स	-10.3174
▁शुक्रवार	-10.3174
लिङ	-10.3175
▁समूहमा	-10.3178
▁मूर्ति	-10.3183
▁सहभागि	-10.3186
▁जापानमा	-10.3188
बाबु	-10.3194
▁ज्ञवाली	-10.3198
▁महानिरीक्षक	-10.32
▁संघसंस्था	-10.32
▁अभावमा	-10.3204
▁शिक्षाको	-10.3205
ब्र	-10.3206
▁प्रालि	-10.3207
वाङ	-10.3215
▁पुर्याउन	-10.322
▁जाजरकोट	-10.3225
▁सांगीतिक	-10.3225
▁बनायो	-10.3229
योग्य	-10.3229
▁महाशाखा	-10.3231
▁प्रकार	-10.3235
बाद	-10.3237
▁कोशी	-10.324
वर्ग	-10.3245
▁क्ल	-10.325
▁बिग	-10.3251
▁प्रादेशिक	-10.3251
▁लिम्बू	-10.3251
▁झडप	-10.3251
▁जाडो	-10.3253
▁प्रस्थान	-10.3254
▁स्वदेशी	-10.3265
▁६८	-10.3268
▁लक्ष्मण	-10.3277
▁दी	-10.3278
▁परिक्षण	-10.3278
▁त्यसकारण	-10.328
्सा	-10.3284
वारी	-10.3291
▁अस्पतालले	-10.3299
▁बुधवार	-10.3304
▁धितोपत्र	-10.3304
▁डाँडा	-10.3304
▁लिनु	-10.3306
▁बिद्यालय	-10.3309
▁वाल	-10.331
▁एन्फा	-10.3314
▁एकताको	-10.3315
यस	-10.3318
▁हलमा	-10.332
्टा	-10.3328
▁धनकुटा	-10.333
▁देखे	-10.333
▁तालिका	-10.3332
ताल	-10.3334
्यौं	-10.3334
▁२०१४	-10.3335
▁हमाल	-10.3336
▁समा	-10.3338
▁पुजा	-10.3342
▁राईको	-10.3343
द्य	-10.3344
▁प्रतिवेदनमा	-10.3347
▁कपिलवस्तु	-10.3356
▁गइरहेको	-10.3356
▁सल्यान	-10.3356
▁गोप्य	-10.3357
▁थ्री	-10.3357
मुलक	-10.3363
▁सवार	-10.3366
▁जटिल	-10.3366
▁झनै	-10.337
▁रद्द	-10.3371
▁दिएकी	-10.3372
▁वाचन	-10.3373
▁केटा	-10.338
▁हिस्सा	-10.3382
▁पक्का	-10.3385
▁खिच	-10.3386
▁लिटर	-10.3386
▁बढ्यो	-10.3388
▁चरा	-10.339
▁स्वभाव	-10.3405
▁गैरआवासीय	-10.3408
बिना	-10.3412
▁दिँदा	-10.3413
▁कल्याण	-10.342
्प	-10.3425
ंच	-10.3426
▁गे	-10.3427
▁सक्रियता	-10.3427
यान	-10.3428
▁कुमारी	-10.3431
ाइने	-10.3432
▁मानिसलाई	-10.3434
▁६१	-10.3435
▁मुम्बई	-10.3435
▁काफ्ले	-10.3435
▁प्रतिवद्धता	-10.3437
▁अध्ययनरत	-10.3441
▁रुचि	-10.3446
▁गाली	-10.3454
▁ठिक	-10.3455
▁न्यू	-10.3457
▁कुँवर	-10.3461
▁सरसफाई	-10.3461
▁कागजात	-10.3462
▁काग	-10.3465
भक्त	-10.3467
▁पात	-10.3467
▁पार्टीमा	-10.3468
▁प्राधिकरणका	-10.347
▁धम्की	-10.347
▁मानिने	-10.3475
भएका	-10.3476
▁दुध	-10.3484
▁व्यक्तिहरू	-10.3485
▁६७	-10.3487
▁होटलमा	-10.3489
ट्र	-10.3491
▁समाजवाद	-10.3496
▁दिनुपर्छ	-10.3497
न्ध	-10.3502
हिन	-10.3504
▁निकायले	-10.3512
▁गिरफ्तार	-10.3514
▁हेटौँडा	-10.3514
▁साधारणसभा	-10.3516
▁बिरोध	-10.3517
▁६६	-10.3518
▁सट्टा	-10.352
▁चलाएको	-10.3523
▁जोडिएका	-10.3523
▁सुमन	-10.3525
▁भारतसँग	-10.3525
▁होइनन्	-10.3527
▁होलान्	-10.3527
ढा	-10.3533
▁चरम	-10.3533
ज्यू	-10.3534
प्प	-10.3539
▁झगडा	-10.3541
लले	-10.3541
बमोजिम	-10.3542
▁प्याकेज	-10.3542
▁अनियमितता	-10.3545
▁नेपालगन्ज	-10.3545
▁खो	-10.3547
▁बराल	-10.3552
▁गराउँदै	-10.3559
▁सदा	-10.3563
िक्स	-10.3564
▁घले	-10.3567
▁राम्रै	-10.3568
▁तिवारी	-10.3568
▁ब्याजदर	-10.3569
▁प्रज्ञा	-10.357
▁विविधता	-10.357
▁परिकार	-10.3573
षा	-10.3574
▁सुरक्षाको	-10.3578
▁ट्या	-10.3582
▁सुरुमा	-10.3588
▁चक्र	-10.359
▁परिसूचक	-10.3594
▁हल्का	-10.3595
▁टिभी	-10.3596
▁कार्ययोजना	-10.3596
हल	-10.3597
▁२०७१	-10.3597
▁महिनादेखि	-10.3598
▁ल्याइ	-10.3601
▁पै	-10.3603
फर	-10.3603
▁उत्साहित	-10.3603
▁भएकै	-10.3604
▁बल्ल	-10.3604
ैया	-10.3608
▁बसन्त	-10.3617
▁वृद्ध	-10.3617
▁तेश्रो	-10.3621
▁प्रेरणा	-10.3621
▁हराउँदै	-10.3623
▁वडामा	-10.3625
▁हजारौं	-10.363
▁सधै	-10.3631
▁टावर	-10.3638
▁स्याङ्जा	-10.3648
▁महानिर्देशक	-10.3648
▁गोठ	-10.3651
▁जितेका	-10.3657
यात्रा	-10.366
▁खोले	-10.3667
▁डान्स	-10.3668
ेकी	-10.3677
▁खोज्दा	-10.368
▁गई	-10.3682
▁गर्दैछ	-10.3693
▁उद	-10.3694
▁सिमा	-10.3694
▁जम	-10.3695
▁यात्रामा	-10.3696
▁हानी	-10.3702
▁बारम्बार	-10.3702
▁बाहिरिए	-10.3703
▁योग्यता	-10.3703
▁बोर्डले	-10.3706
▁लड	-10.3714
▁दक्ष	-10.3714
ुङ	-10.3717
▁नसके	-10.3724
▁जोशीले	-10.3731
▁सकियो	-10.3736
▁गाउँका	-10.3737
▁हुनुहुन्थ्यो	-10.3738
▁ठोस	-10.374
▁जनावर	-10.3744
▁काट	-10.3746
▁जीत	-10.3751
१२	-10.3752
▁दिनअघि	-10.3754
विक्रम	-10.3756
▁प्रचारप्रसार	-10.3757
▁संजाल	-10.3757
▁दाजु	-10.3759
▁दाइ	-10.376
ाइज	-10.3766
▁चाहिन्छ	-10.3779
▁संविधानसभाको	-10.3779
▁कोषाध्यक्ष	-10.3781
▁कता	-10.3781
सय	-10.3783
▁सदुपयोग	-10.3784
▁दिदीबहिनी	-10.3784
▁भईरहेको	-10.3787
▁मोटर	-10.3788
▁अटो	-10.3788
▁विकृति	-10.379
▁ब्यक्ति	-10.3791
▁खोलामा	-10.38
बद्ध	-10.3801
▁उल्लेख्य	-10.3807
▁उनकै	-10.3808
▁सुर	-10.381
▁अत्यावश्यक	-10.3812
▁कैसीनो	-10.3812
▁मन्तव्य	-10.3812
▁गाउ	-10.3813
▁शाहीले	-10.3814
्दछ	-10.3815
▁रोजगारीको	-10.3818
▁हिम	-10.3818
▁तीनवटा	-10.3819
▁मर्	-10.3825
▁त्यसबाट	-10.3827
याे	-10.383
लै	-10.3838
▁व्यवस्थापिका	-10.3839
▁हेक्टर	-10.384
▁त्रास	-10.384
पछी	-10.3842
▁समेटे	-10.3852
▁मन्त्रिपरिषद	-10.3857
▁कमाएको	-10.3859
जल	-10.3859
▁प्रशासनिक	-10.386
▁रुपैयाँमा	-10.3862
्ज	-10.3866
▁लाइसेन्स	-10.3867
▁अछाम	-10.3867
▁महासङ्घ	-10.3867
▁पर्यो	-10.387
▁कुट	-10.387
कालागि	-10.3872
▁कम्प	-10.3872
▁सुवास	-10.3874
्द	-10.3875
स्था	-10.3876
▁रहेकी	-10.3876
▁६९	-10.3877
क्ति	-10.3877
▁पाउँदा	-10.3877
▁बस्तु	-10.3879
▁आत्मा	-10.3883
▁बसे	-10.3889
▁गर्छौं	-10.3889
▁आफ्न	-10.389
▁रानी	-10.3892
▁उपचारमा	-10.3894
▁प्रजातान्त्रिक	-10.3894
▁शौचालय	-10.3894
▁समर्थक	-10.3894
▁ख्याल	-10.3897
▁पत्रमा	-10.3901
्ल	-10.3906
▁जंगल	-10.3906
सेवा	-10.3913
▁रोजगारीमा	-10.3915
▁च्याम्पियन	-10.3917
▁वसन्त	-10.3921
ाद	-10.3921
▁श्रेणी	-10.3922
▁सोलुखुम्बु	-10.3922
▁महाशाखाले	-10.3923
▁लाग्दैन	-10.3924
▁सार्क	-10.3926
४०	-10.3926
शे	-10.3926
▁रत्न	-10.3929
माई	-10.3929
▁गाउँले	-10.3942
▁वेद	-10.3943
▁नभएपछि	-10.3945
▁आराम	-10.3951
▁विश्वकर्मा	-10.3958
▁प्रि	-10.396
▁गाँउ	-10.3961
▁रोड	-10.3963
▁क्याम्प	-10.3964
▁गठित	-10.397
लोक	-10.3977
▁डु	-10.3978
▁खै	-10.3979
▁पैदा	-10.398
▁९५	-10.3982
▁तुलसीपुर	-10.3982
▁धेरैजसो	-10.3984
▁बढ्छ	-10.3986
▁देखिन्छन्	-10.3992
ेष	-10.3996
शो	-10.3997
▁लण्डन	-10.4005
▁पाटन	-10.4009
लेट	-10.401
▁त्यसबेला	-10.4011
बापत	-10.4013
▁चिप	-10.4015
▁दिलाए	-10.4017
सिन	-10.4021
छि	-10.4025
▁छवि	-10.4025
ासाथ	-10.4025
▁आमाले	-10.4029
▁फेसबुकमा	-10.4031
▁मूल्यांकन	-10.4033
▁थियौं	-10.4036
▁नागरिकले	-10.4039
▁सहमत	-10.4043
▁शैलीमा	-10.4053
▁जाम	-10.4056
▁स्तरमा	-10.4058
▁कटौती	-10.4062
▁सिस्टम	-10.4062
▁भाइरल	-10.4062
▁ढु	-10.4062
▁मानवअधिकार	-10.4062
▁आवद्ध	-10.4068
▁जात	-10.4069
▁नुन	-10.407
ाइट	-10.4074
▁उत्पादनमा	-10.4074
▁अधिकारको	-10.408
्याङ	-10.4083
▁ऐ	-10.4084
▁लगायतको	-10.4089
▁कौ	-10.4089
▁पुष्प	-10.4101
▁हेर्नुहोस्	-10.4102
▁खरेल	-10.4102
▁बिर	-10.4103
▁खसेको	-10.4105
▁सदन	-10.4111
प्रकाश	-10.4114
▁शास्त्र	-10.4114
▁२०७०	-10.4122
▁ठग	-10.4124
▁उनै	-10.4127
▁पुगेपछि	-10.4141
▁महरा	-10.4145
▁पहलमा	-10.4145
▁मानन्धर	-10.4146
▁रजत	-10.4148
▁प्रभु	-10.4149
▁उमा	-10.4152
▁उत्र	-10.4154
▁त्यहाँको	-10.4154
▁पुनले	-10.4155
▁ः	-10.4161
▁कमला	-10.4164
ाइदिए	-10.4167
▁शहरमा	-10.4167
भूत	-10.4169
▁सकिन	-10.4172
▁मनोनयन	-10.4175
▁आपत्ति	-10.4175
▁रेलमार्ग	-10.4176
▁भोक	-10.4177
▁बादल	-10.4178
उप	-10.4179
▁रक्त	-10.4182
▁आलु	-10.4185
▁तपाईँ	-10.4189
▁७१	-10.4189
▁सत्र	-10.4189
▁बुक	-10.419
▁सौ	-10.4194
्सले	-10.4197
▁बित	-10.4199
▁भिन्न	-10.42
▁प्रस्तावित	-10.4202
▁अनावश्यक	-10.4203
▁थाइल्याण्ड	-10.4203
▁वरिपरि	-10.4203
▁परिमार्जन	-10.4203
▁बधाई	-10.4203
▁बाबा	-10.4204
▁ग्राहकहरु	-10.4204
कम	-10.4205
्ली	-10.4206
ग्राम	-10.4209
▁समुदायमा	-10.4211
ण्डा	-10.4216
पान	-10.4218
▁मौन	-10.4228
▁गराएर	-10.4228
▁नब	-10.4229
भे	-10.4229
▁नायव	-10.4232
▁लिम्बु	-10.4232
▁सिलवाल	-10.4233
▁सरोज	-10.4233
▁पुरानै	-10.4238
▁पल्ट	-10.4241
ज्ज	-10.4248
▁रहर	-10.4252
▁गायन	-10.426
▁अभिवृद्धि	-10.4261
▁दीर्घकालीन	-10.4261
▁संचार	-10.4265
▁पोखराको	-10.4265
▁प्रव	-10.4266
▁बेर	-10.4271
▁सर्	-10.4273
▁अङ्ग	-10.4274
▁पेसा	-10.428
▁परिवारमा	-10.428
▁ट्याक्सी	-10.4289
▁बुझाएको	-10.4292
▁बचाउन	-10.4293
▁बीपी	-10.4296
टिन	-10.4297
▁हजारभन्दा	-10.4301
▁फर्किएका	-10.4301
्ती	-10.4302
खाल	-10.4303
▁पछी	-10.4306
▁विपरीत	-10.4307
▁बताएकी	-10.4311
िको	-10.4313
लन	-10.4315
▁अचानक	-10.4318
▁कारखाना	-10.4318
▁ब्राण्ड	-10.4319
िफ	-10.432
ंदा	-10.4321
▁सधैँ	-10.4325
▁बढेका	-10.4332
▁पण्डित	-10.4332
▁प्रेमी	-10.4335
▁उद्यमी	-10.4336
▁ज्योति	-10.4346
▁अक्षर	-10.4347
ढि	-10.4353
▁म्याच	-10.4354
परे	-10.4357
▁०३	-10.4358
वाह	-10.4359
▁जीप	-10.4361
▁ओटा	-10.4361
▁गुणा	-10.4363
ाका	-10.4366
▁भिड	-10.4373
▁संवाददाता	-10.4376
▁भुवन	-10.4379
▁मिल्दैन	-10.438
▁डोटी	-10.4381
▁हिन्दी	-10.4382
▁खोज्दै	-10.4382
्लो	-10.4384
▁झार	-10.4385
▁संसदको	-10.4386
▁घुम्न	-10.439
▁ब्य	-10.4402
▁एकातिर	-10.4406
▁अन्तरगत	-10.4411
र्व	-10.4413
श्व	-10.4422
ाङ्ग	-10.4424
▁विस्तारै	-10.4424
▁लिइ	-10.4424
▁आइतवार	-10.4434
▁दुबई	-10.4434
▁निर्देशिका	-10.4434
▁निवारण	-10.4434
▁टेलिफोन	-10.4434
दत्त	-10.4434
▁सङ्गीत	-10.4435
▁जितेर	-10.4436
▁उपप्रधानमन्त्री	-10.4436
▁गुफा	-10.4437
▁पर्नेछ	-10.444
▁कामदारको	-10.4446
डर	-10.4446
कृष्ण	-10.4449
▁पछ	-10.445
परि	-10.4457
▁केदार	-10.4459
▁हिमालय	-10.4462
▁नवीन	-10.4465
▁भनिने	-10.4466
दिए	-10.4467
छन	-10.447
▁उदय	-10.4472
मत	-10.4473
िदिए	-10.4477
रूप	-10.4481
▁आफैले	-10.4483
▁चीनमा	-10.4484
▁संविधानमा	-10.4488
ठो	-10.449
▁९९	-10.4491
▁मधुमेह	-10.4493
ाएपछि	-10.4495
▁मकै	-10.4501
▁फर्	-10.4502
▁सशक्त	-10.4513
▁मार्ने	-10.4517
▁विश्वको	-10.4519
▁आयल	-10.452
▁खेत	-10.4521
▁विद्यमान	-10.4522
▁सन्तुलन	-10.4522
▁तसर्थ	-10.4522
▁उच्चस्तरीय	-10.4526
▁शुद्ध	-10.4526
▁ट्रेड	-10.453
▁हुदैन	-10.4533
▁बाहिरी	-10.4534
▁इतिहासमा	-10.4539
▁कम्पनीहरु	-10.4547
▁नर्स	-10.4548
▁सहकार्यमा	-10.4548
▁तुलसी	-10.455
▁रामेछाप	-10.4552
▁मापन	-10.4552
▁गरेपनि	-10.4553
▁तपाइ	-10.4556
▁देख्दा	-10.4556
▁राष्ट्रको	-10.4557
▁विवेक	-10.4581
▁फराकिलो	-10.4581
▁दाजुभाइ	-10.4581
▁सर्प	-10.4582
▁समाजसेवी	-10.4582
▁बाख्रा	-10.4583
लगेर	-10.4585
▁दिनभित्र	-10.4595
▁नबन	-10.46
डिया	-10.4602
यौं	-10.4604
▁मंगल	-10.4608
्की	-10.4608
▁ओलीलाई	-10.4609
▁नेपालीहरुको	-10.4609
▁मेलामा	-10.461
▁अर्जेन्टिना	-10.4611
▁बैक	-10.4611
▁प्रत्यारोपण	-10.4611
▁तापक्रम	-10.4612
▁अमृत	-10.4618
▁अन्योल	-10.4619
▁विरोधमा	-10.462
▁गि	-10.4625
▁निकास	-10.463
▁मस्तिष्क	-10.4635
▁था	-10.4636
▁रोप	-10.4637
▁प्रकृया	-10.4641
▁भिटामिन	-10.4641
▁विरामी	-10.4641
राम्ररी	-10.4641
▁खुल	-10.4641
७६	-10.4645
▁गन	-10.4648
▁महोत्सवमा	-10.4648
▁मिल्छ	-10.465
▁संगीतकार	-10.4652
▁कृष्णप्रसाद	-10.4654
▁स्वास्थ्यमा	-10.4658
▁स्ट्र	-10.4664
▁राखिएका	-10.4664
ुम	-10.467
▁सफ्टवेयर	-10.467
रह	-10.4671
▁क्षण	-10.4671
▁जुत्ता	-10.4672
त्ती	-10.4673
▁प्रयोगशाला	-10.4674
▁फर्कन	-10.4679
▁पन्तको	-10.4684
▁ढुंगा	-10.4687
दर्श	-10.4688
सल	-10.4692
▁उपभोग	-10.4692
▁लय	-10.47
▁परिवेश	-10.4701
▁बजेर	-10.4706
▁हटाए	-10.4709
िब	-10.4712
▁महिलाहरू	-10.4712
▁पुरस्कृत	-10.473
▁हमला	-10.4733
▁पारि	-10.4738
▁बैंकिङ्ग	-10.4738
▁क्लबले	-10.4739
▁नाता	-10.474
▁हटाउने	-10.4741
ल्लो	-10.4743
इँ	-10.4746
▁मिलेको	-10.475
▁हस्पिटल	-10.4761
▁आत्मनिर्भर	-10.4761
▁आफनो	-10.4762
▁विशेषगरी	-10.4769
▁भोली	-10.4772
▁प्रस्ट	-10.4779
▁चितवनको	-10.478
▁करणी	-10.4781
▁बक्स	-10.4781
▁छापा	-10.4787
▁पब्लिक	-10.4791
▁एम्बुलेन्स	-10.4791
▁कम्तिमा	-10.4791
▁रेड	-10.4793
▁सिरिज	-10.4793
▁बजेटमा	-10.4793
▁गुमाएका	-10.4794
▁कसुर	-10.4795
▁मेगा	-10.4799
▁संसद्मा	-10.4799
१६	-10.4802
▁लुट	-10.4803
▁भाई	-10.4805
▁स्टोर	-10.4805
ब्	-10.4808
▁च्या	-10.4813
▁मोदीले	-10.4817
▁हालत	-10.4817
▁बुझ्ने	-10.4819
▁श्रोत	-10.482
▁राप्ती	-10.4821
▁आखिर	-10.4821
▁चाँदी	-10.4821
बन्दी	-10.4822
▁थु	-10.4827
▁खेलाडीहरु	-10.4829
▁खातामा	-10.4834
जंग	-10.4835
▁फर्कने	-10.4839
▁स्रोतका	-10.4839
▁वु	-10.484
▁०४	-10.484
▁गण	-10.4848
राष्ट्र	-10.4848
▁रोकथाम	-10.4851
▁चिन्तन	-10.4851
▁डटकम	-10.4853
▁तिहारको	-10.4854
▁रही	-10.4854
▁वस	-10.4855
कुण्ड	-10.4856
▁शीर्षक	-10.4858
▁महिनासम्म	-10.4866
▁समानता	-10.4867
वीर	-10.4874
▁मन्त्रिपरिषद्को	-10.4875
▁सहिद	-10.488
बिन	-10.488
▁नेपालीलाई	-10.488
▁घाँटी	-10.4882
▁ताप्लेजुङ	-10.4882
▁रेमिट्यान्स	-10.4882
▁सार्बजनिक	-10.4882
▁हुम्ला	-10.4882
▁रक्तदान	-10.4882
▁पुस्तकालय	-10.4883
▁राजतन्त्र	-10.4883
िव	-10.4892
माझ	-10.4893
▁जनाउँदै	-10.4894
▁पार्टीलाई	-10.4899
ट्ट	-10.4907
▁गीतकार	-10.4907
▁व्यवसायीहरु	-10.491
▁अस्	-10.4912
▁डडेल्धुरा	-10.4913
▁सैद्धान्तिक	-10.4913
▁अवतरण	-10.4913
▁शरणार्थी	-10.4913
▁अनलाईन	-10.4913
▁लुगा	-10.4916
▁मेरी	-10.4917
▁क्रि	-10.4919
▁फोहर	-10.4922
▁नेताहरूले	-10.4922
▁संचालक	-10.4922
▁बस्नु	-10.4928
▁देखाएर	-10.493
▁मेल	-10.4931
▁विवादमा	-10.4932
१८	-10.4934
झैँ	-10.4938
याँ	-10.4946
▁कक्ष	-10.4947
▁विश्वकपमा	-10.4948
▁रेग्मीले	-10.4953
▁ईन्	-10.4955
▁चाहन्छ	-10.4959
▁एच	-10.496
▁संसारमा	-10.4962
▁लेख्ने	-10.4962
बाहिर	-10.4964
▁मधु	-10.4971
▁०१	-10.4972
▁खानी	-10.4973
क्ट	-10.4974
▁नारायणगढ	-10.4975
▁पर्ख	-10.4975
▁८८	-10.4976
▁पोर्चुगल	-10.4977
जनक	-10.498
▁गरिदिए	-10.498
▁सरकारबाट	-10.4982
▁झोला	-10.4983
▁जोडेर	-10.4989
▁गरेमा	-10.4989
र्प	-10.4992
▁प्रान्त	-10.4995
▁प्रबन्धक	-10.4997
्टि	-10.4999
▁मोहम्मद	-10.5005
▁आर्	-10.5005
▁रोचक	-10.5005
▁ब्यापार	-10.5007
▁आफैंले	-10.5012
▁बिस्तारै	-10.5015
▁यिनै	-10.5019
क्ल	-10.5028
▁हिसाब	-10.5029
▁भाग्य	-10.503
▁प्रचलित	-10.5036
▁मेस्सी	-10.5036
▁समिती	-10.5036
▁रहँदै	-10.5036
क्रा	-10.5044
▁लोभ	-10.5049
▁स्थिर	-10.5053
ल्य	-10.5053
▁वेला	-10.5056
▁न्यु	-10.5058
▁सर्त	-10.5064
▁अर्काे	-10.5066
▁आकस्मिक	-10.5067
▁जिज्ञासा	-10.5067
▁ठकुरी	-10.5067
▁पाहुना	-10.5067
७४	-10.507
▁सडकखण्ड	-10.507
▁अनसन	-10.5072
▁महिनाअघि	-10.5072
▁८२	-10.5073
▁निस्के	-10.5073
▁सभ्यता	-10.5077
▁जानकार	-10.5078
▁बलि	-10.5078
▁ताजा	-10.508
लुङ	-10.5092
ारा	-10.5092
▁उठेको	-10.5094
भाष	-10.5095
▁सिमाना	-10.5095
▁कसै	-10.5096
बिच	-10.5098
▁सोमवार	-10.5099
▁बोहरा	-10.5099
▁निशुल्क	-10.5099
▁नदेख	-10.5101
▁सम्वन्ध	-10.5104
▁कोषमा	-10.5104
▁नपुगे	-10.5105
▁लगाई	-10.5106
▁शहरी	-10.5107
▁बैंकमा	-10.5108
▁राज्यमन्त्री	-10.5109
▁मिलाएर	-10.5114
▁बालबालिकाको	-10.5114
▁जिप	-10.5118
▁साफ	-10.5123
▁कुराको	-10.5123
▁टस	-10.5123
▁रक्सी	-10.5124
▁हेड	-10.5124
▁सुन्दा	-10.5127
▁अवकाश	-10.5129
▁भगवती	-10.5129
▁सहारा	-10.5131
▁त्यहि	-10.5131
▁खपत	-10.5131
▁तिब्बत	-10.5132
▁महामन्त्री	-10.5134
▁लगायतले	-10.5138
▁नच	-10.5144
थरी	-10.5145
ग्री	-10.5145
▁संस्कृतिको	-10.5146
▁८१	-10.5146
▁हिरासतमा	-10.5147
▁मेट	-10.5151
ृत	-10.5154
▁रोगी	-10.5158
▁डिएसपी	-10.5161
▁घोराही	-10.5161
▁स्थितिमा	-10.5161
▁संवत्	-10.5168
▁भाषाको	-10.5176
▁छोरीको	-10.5178
▁धो	-10.5179
झा	-10.5186
▁विभागको	-10.5191
▁प्रर्दशन	-10.5192
▁सामान्यतया	-10.5192
▁निरौला	-10.5192
▁सकिँदैन	-10.5192
▁काठमाडाैं	-10.5193
▁कस	-10.5194
▁महेन्द्रनगर	-10.5194
▁र्	-10.5195
▁समक्ष	-10.5196
▁बौद्धिक	-10.5198
▁महादेव	-10.5199
▁देशभरका	-10.5201
▁जोड्न	-10.5203
▁छोडे	-10.5214
▁सम्मको	-10.5216
▁०२	-10.5217
▁भट्टले	-10.5218
▁अर्घाखाँची	-10.5224
▁शुरुवात	-10.5224
याम	-10.5226
तिक	-10.5228
▁कुर्	-10.5229
▁साथीहरू	-10.5234
▁प्राधिकरणको	-10.5237
▁ब्यक्त	-10.5238
्दो	-10.5246
▁नेपालमै	-10.5249
▁विद्रोह	-10.5255
▁भिडन्त	-10.5256
▁बुहारी	-10.5256
▁खटिएका	-10.5258
उने	-10.5264
▁खेलेका	-10.5265
▁हरियो	-10.5271
▁भएकाे	-10.5275
▁हत्यारा	-10.5276
▁कमाउन	-10.5277
पर्ने	-10.5281
▁जन्मदिन	-10.5284
▁शासक	-10.5285
विरुद्धको	-10.5285
▁धुन	-10.5287
ाधीन	-10.5287
▁योजनामा	-10.5288
▁अर्यालले	-10.53
▁पाउनेछन्	-10.5306
गढ	-10.5308
▁चल्न	-10.5311
ग्न	-10.5313
▁निकाल्ने	-10.5317
▁कोरियामा	-10.5317
▁बार्षिक	-10.5319
▁दाँत	-10.5319
▁उत्पादित	-10.532
▁छाती	-10.5321
▁धेरैले	-10.5322
▁ठप्प	-10.5323
▁विष	-10.5324
▁लिमिटेडले	-10.5324
▁गगन	-10.5324
▁उड्डयन	-10.5324
▁९६	-10.5325
▁शान्तिपूर्ण	-10.5329
▁किसानलाई	-10.5332
▁गरिन	-10.5333
▁सहजै	-10.5334
र्ब	-10.5336
▁असन्तुष्ट	-10.5339
अर	-10.5343
▁लगाउनु	-10.5343
▁सिलसिलामा	-10.5346
कालमा	-10.535
▁गच्छदार	-10.5351
▁गैरसरकारी	-10.5351
▁जनकपुरधाम	-10.5351
▁ब्रान्ड	-10.5352
▁जनस्वास्थ्य	-10.5352
▁अपिल	-10.5353
▁सुरुङ	-10.5362
▁जीव	-10.5364
▁९१	-10.5367
कर्म	-10.5376
पार	-10.5376
▁आन्दोलनका	-10.5381
▁अन्तर्वार्ता	-10.5382
▁भैसकेको	-10.5382
▁अनौठो	-10.5383
▁वन्यजन्तु	-10.5383
▁नसक्नु	-10.5384
गार	-10.539
▁भित्री	-10.5392
▁एमालेको	-10.5393
▁रुपैयाँको	-10.5397
▁बाग	-10.5399
ज्	-10.5402
▁झापाको	-10.5403
▁तपाईले	-10.5411
४५	-10.5412
▁महर्जन	-10.5414
▁निरीक्षण	-10.5415
▁गोष्ठी	-10.5415
▁पदार्थको	-10.5415
▁न्यूनीकरण	-10.5417
▁धार	-10.5417
▁निर्देशनमा	-10.5418
▁घरपरिवार	-10.5418
्चे	-10.542
▁कुशल	-10.542
▁रुट	-10.5425
ङ्गा	-10.5428
▁मरे	-10.543
▁बच्न	-10.5432
भरी	-10.5434
ुहोस	-10.5437
र्च	-10.5437
▁तिमीलाई	-10.544
▁कम्पनीलाई	-10.5443
▁उपविजेता	-10.5447
▁कफी	-10.5451
▁त्याग	-10.5452
▁प्लस	-10.5452
ध्या	-10.5453
ाइएका	-10.5456
▁अण्डा	-10.5456
▁भिम	-10.5457
▁बाधा	-10.5457
काजी	-10.5463
▁नीतिगत	-10.5464
▁नसकेपछि	-10.5465
▁पक्षको	-10.5471
▁ह्या	-10.5472
टिङ	-10.5473
▁भेटे	-10.5474
▁कार्यालयबाट	-10.5475
▁आदानप्रदान	-10.548
▁क्यापिटल	-10.548
▁छिन	-10.548
▁बझाङ	-10.548
▁माल्दिभ्स	-10.5481
▁रसिया	-10.5482
▁ढङ्ग	-10.5482
▁गर्नुहुन्छ	-10.5483
▁हाे	-10.5489
▁राजधानीको	-10.549
▁पीडितको	-10.5492
▁नन्द	-10.5494
कान्त	-10.5495
विना	-10.5495
▁राज्यका	-10.5502
▁दुईजना	-10.5504
▁पोख	-10.5508
▁बाजुरा	-10.5512
▁परमेश्वर	-10.5512
▁पिडित	-10.5512
▁छात्रवृत्ति	-10.5512
▁पुरुषको	-10.5518
▁जीवित	-10.5519
▁लिगमा	-10.5525
▁कोरियाको	-10.5525
▁शिकार	-10.5525
▁समयको	-10.5528
छा	-10.5532
▁बेच्ने	-10.5537
▁होस	-10.5543
▁लागुऔषध	-10.5545
▁सिटौला	-10.5545
▁समेटिएको	-10.5547
▁रोशन	-10.5547
वश	-10.5549
▁ओलम्पिक	-10.5549
▁बाँच्न	-10.555
▁नभएकाले	-10.5552
▁टप	-10.5552
▁सदस्यहरू	-10.5555
हरि	-10.5557
वृ	-10.5561
▁विदेशबाट	-10.5563
▁पाई	-10.5572
▁प्रसंग	-10.5574
▁ग्रह	-10.5575
▁अभिलेख	-10.5578
▁सदस्यता	-10.5579
▁हिट	-10.5581
पश्चात्	-10.5586
▁प्रिय	-10.5588
▁दक्षिणी	-10.559
▁गरिदिन	-10.5595
सिया	-10.5598
▁यिन	-10.5605
शमशेर	-10.561
▁ढिलाइ	-10.5614
▁देशले	-10.5617
▁लाग्नु	-10.5618
▁निराश	-10.5624
▁आफूहरू	-10.5629
्याए	-10.5631
्ना	-10.5632
▁उम्	-10.5639
▁उपाध्याय	-10.5644
▁बेलायतमा	-10.5645
▁ज्ञवालीले	-10.5645
तालाई	-10.5647
लाग्दो	-10.5649
▁घडी	-10.5652
ोज	-10.5661
▁शि	-10.5662
▁महत्त्व	-10.5675
▁दार्चुला	-10.5676
▁बुढाथोकी	-10.5676
▁एप्पल	-10.5676
▁सेन	-10.5676
▁रोक्ने	-10.5677
▁लागतमा	-10.5677
▁स्वरूप	-10.5684
▁पार्किङ	-10.5689
▁कोरियाले	-10.5691
▁होईन	-10.5691
▁धा	-10.5693
▁बेच्न	-10.5701
▁बाह्र	-10.5703
क्वा	-10.5705
▁अन्यत्र	-10.5709
▁रुपान्तरण	-10.5709
▁पाठ्यक्रम	-10.5709
▁राजविराज	-10.5709
▁मेहनत	-10.5709
▁देखिँदैन	-10.571
▁२००७	-10.5714
▁रूपले	-10.5717
विपरीत	-10.5721
▁लाखौं	-10.5728
▁फेसन	-10.5731
▁पौडेलको	-10.5731
▁उत्पादक	-10.5731
▁मनाए	-10.5732
▁बर्षा	-10.5732
▁शिर	-10.5733
▁पार्टीभित्र	-10.5736
▁स्टे	-10.5737
▁माई	-10.5741
पक्षीय	-10.5741
थो	-10.5742
▁प्रशोधन	-10.5742
▁भक्तजन	-10.5743
▁हिँड	-10.5744
▁क्यानडा	-10.5745
▁कोभिड	-10.5745
▁गुप्ता	-10.5745
▁भवनमा	-10.5748
▁भेटमा	-10.5749
▁लगिएको	-10.5749
हिर	-10.575
▁घेरा	-10.575
ेस्ट	-10.575
पाइ	-10.5752
▁सचेतना	-10.5757
देखी	-10.5761
▁खि	-10.5762
▁लगाएत	-10.5766
▁उपराष्ट्रपति	-10.5776
▁विषादी	-10.5776
▁सम्भावित	-10.5776
▁सहुलियत	-10.5776
▁उसका	-10.5776
▁पहिरोले	-10.5779
▁हिरो	-10.5779
▁नामावली	-10.578
▁पढाई	-10.5781
हाङ	-10.5785
▁करार	-10.579
्यान	-10.5798
कप	-10.5803
▁आँधी	-10.5809
▁ज्वरो	-10.581
▁साग	-10.5812
▁मनाइने	-10.5815
▁२०१३	-10.5815
▁पाइप	-10.5818
▁तमु	-10.5822
▁शोक	-10.5826
जान	-10.5827
▁परिसरमा	-10.5827
▁जयन्ती	-10.5833
▁मुनाफा	-10.5843
▁खाँदा	-10.5846
छिन्	-10.5848
▁सेमिफाइनल	-10.5848
▁हुन्थे	-10.5853
▁सफाइ	-10.5855
मेल	-10.5855
▁उस	-10.5857
▁ज्योतिष	-10.5861
▁८३	-10.5867
▁जमीन	-10.587
▁सुचारु	-10.5876
▁बरिष्ठ	-10.5877
▁फ्यान	-10.5878
▁पुरै	-10.588
▁ब्ल	-10.5881
▁रिजाल	-10.5882
▁लभ	-10.5883
बाजी	-10.5893
अल	-10.5895
न्च	-10.5908
▁अभियन्ता	-10.591
▁आप्रवासी	-10.591
▁मिर्गौला	-10.591
▁शुभारम्भ	-10.591
▁नम्वर	-10.591
▁छोरो	-10.5911
▁स्टेशन	-10.5911
▁मुक्तिनाथ	-10.5913
▁डुब	-10.5914
▁अग्लो	-10.5915
हरा	-10.5918
▁प्रस्तुती	-10.5918
▁खन	-10.5918
▁मिच	-10.592
▁किन्ने	-10.5923
िमा	-10.5924
▁जाग	-10.5924
▁अर्कै	-10.5925
स्वरुप	-10.5931
चल	-10.5938
▁शै	-10.594
▁काली	-10.5943
▁जनचेतना	-10.5944
▁न्युयोर्क	-10.5944
▁सङ्क्रमित	-10.5944
▁स्नातक	-10.5944
▁शरद	-10.5944
▁दुर्गम	-10.5944
▁युके	-10.5951
▁नियमन	-10.5953
▁पत्रकारहरु	-10.5954
▁अग्र	-10.5956
▁लगाउँदै	-10.5965
▁तोड	-10.5966
जू	-10.5966
▁चौका	-10.5968
▁खोजे	-10.5972
▁निकासी	-10.5975
▁भाडामा	-10.5975
▁अज्ञात	-10.5978
▁कीर्तिमान	-10.5978
▁घाईते	-10.5978
▁पेनाल्टी	-10.5978
▁जैविक	-10.5978
▁परिमाण	-10.5978
▁भर्न	-10.5979
▁फार्म	-10.5979
पक	-10.5983
▁खोजिएको	-10.5985
▁महिनाभित्र	-10.5986
म्व	-10.5987
िद	-10.5995
्मी	-10.5999
▁बिगत	-10.6008
▁थपे	-10.6009
▁आइएमई	-10.6012
▁जनआन्दोलन	-10.6012
▁बङ्गलादेश	-10.6012
▁यतिखेर	-10.6013
▁अन्ततः	-10.6015
▁कालिका	-10.6021
▁झुक	-10.6021
नौं	-10.6026
▁चीनका	-10.6029
▁दृष्टिले	-10.603
▁नख	-10.6031
▁ढाका	-10.6032
▁नेपालीले	-10.6034
्छौं	-10.604
क्षक	-10.6041
▁आस	-10.6042
▁उपयोगी	-10.6042
▁तालीम	-10.6044
▁बेइजिङ	-10.6046
▁घटेर	-10.6046
▁पहिरन	-10.6046
▁बताउनुहुन्छ	-10.6047
▁सिद्धार्थ	-10.6047
▁पेरिस	-10.6047
▁गर्दैन	-10.605
▁खल	-10.6055
▁रङ	-10.6059
र्भ	-10.6059
▁पौष	-10.6059
▁बढेपछि	-10.6061
▁रोम	-10.6062
ेक्स	-10.6065
▁नहुनु	-10.6066
▁जनतामा	-10.6076
▁निस्किए	-10.608
्याउँदै	-10.6081
▁एसोसिएसन	-10.6081
▁सुनुवाई	-10.6081
▁सोसाइटी	-10.6081
▁पाइलट	-10.6081
▁अध्यक्षमा	-10.6084
▁नहुन	-10.6088
▁स्वर्ग	-10.6092
▁बैंकहरु	-10.6094
▁नसकेका	-10.6096
▁याे	-10.61
▁देवता	-10.61
वीच	-10.6102
▁काठमाण्डौं	-10.6104
जति	-10.6105
▁फ्री	-10.6107
भार	-10.6107
▁संचालनमा	-10.6107
▁शरीरको	-10.611
▁फर्किन	-10.6115
▁वकिल	-10.6115
▁अतिक्रमण	-10.6116
▁गुठी	-10.6117
सुर	-10.6118
▁नानी	-10.6119
▁ब्रा	-10.612
▁बालुवा	-10.6122
▁थर	-10.6123
▁हेरिएको	-10.6123
मेट	-10.6127
▁किस्ता	-10.6131
▁सक्दैनन्	-10.6134
▁आयोगमा	-10.6138
▁सेनाका	-10.6142
▁बोट	-10.6142
पना	-10.6145
बाह	-10.6146
▁ठान	-10.6147
▁हृदय	-10.6149
▁नमिल्ने	-10.615
ेश्वरी	-10.615
▁आगमन	-10.6153
श्र	-10.6154
▁सामेल	-10.6158
▁पटकपटक	-10.616
▁छात्र	-10.6161
डेल	-10.6162
फी	-10.6168
हुने	-10.617
तम	-10.6175
पल्ट	-10.6177
चना	-10.6177
ंड	-10.6178
▁सुत	-10.6179
▁विद्रोही	-10.6184
▁अनुमोदन	-10.6185
▁गम्भिर	-10.6185
▁तर्जुमा	-10.6185
▁नेविसंघ	-10.6185
▁सम्पुर्ण	-10.6185
▁डिग्री	-10.6187
ेरी	-10.619
दश	-10.6193
▁बेस	-10.6194
▁सिकार	-10.6197
▁विमल	-10.6197
दूत	-10.62
पुरमा	-10.6203
पुल	-10.6203
▁रारा	-10.6204
▁संस्थालाई	-10.6204
▁अपनाउन	-10.6204
▁बिष्ट	-10.6207
▁८६	-10.6207
▁सकेसम्म	-10.621
चाल	-10.6215
▁लिँदै	-10.6218
▁राहदानी	-10.6219
▁पैदल	-10.622
झैं	-10.6221
▁हौ	-10.6221
▁जिवन	-10.6226
नेछ	-10.6229
▁पम्प	-10.6233
मती	-10.6236
▁खेलाडीलाई	-10.6239
▁खर	-10.6239
ख्या	-10.6243
▁बिस्तार	-10.6243
क्षण	-10.6248
▁परीक्षामा	-10.625
मल	-10.6252
▁बनेपा	-10.6253
▁निलम्बन	-10.6254
▁लम्साल	-10.6255
▁समस्याको	-10.6255
▁भोलिपल्ट	-10.6255
▁तोक	-10.6256
▁दिशामा	-10.6259
सम्बन्ध	-10.6261
▁नपा	-10.6265
▁जनामा	-10.627
▁दूर	-10.6271
सचिव	-10.6274
▁बिरामीलाई	-10.6282
हरूबाट	-10.6284
▁समुद्र	-10.6285
३०	-10.6285
▁गाडीमा	-10.6287
इल	-10.6288
▁डाउनलोड	-10.6289
▁निर्मित	-10.6289
▁ग्रन्थ	-10.629
▁लगाइ	-10.6291
▁एजेन्ट	-10.6291
िदा	-10.6291
▁८४	-10.6295
▁सम्मेलनको	-10.6299
ेग	-10.6299
▁उही	-10.6299
▁सेती	-10.6301
▁इन्टर	-10.6302
▁काण्ड	-10.6305
▁छोड्न	-10.6307
सक्यो	-10.6308
▁महिनापछि	-10.6309
▁बिन्दु	-10.6313
▁दिइन्	-10.6314
▁लहर	-10.6323
▁ढिला	-10.6324
ल्क	-10.6324
▁स्रष्टा	-10.6325
▁शहीद	-10.6325
▁नेवार	-10.6325
▁मर्म	-10.6326
▁थालनी	-10.633
▁टेवा	-10.6331
▁२०१२	-10.6332
▁हेम	-10.6334
र्ती	-10.6335
▁सहरमा	-10.6335
▁सापकोटाले	-10.6336
▁बीचको	-10.634
▁नप	-10.6343
र्दै	-10.6345
▁पालिका	-10.6351
▁बिस्तृतमा	-10.6351
ल्ली	-10.6353
▁लामिछानेले	-10.6353
▁अध	-10.6355
▁रुपैयाँसम्म	-10.6356
▁रक्तचाप	-10.636
▁एजेण्डा	-10.636
▁सुन्तला	-10.636
▁शरिर	-10.636
▁गोल्डकप	-10.636
▁पृष्ठभूमि	-10.636
▁किनारमा	-10.6361
पल	-10.6362
▁सुस्त	-10.6364
▁तीमध्ये	-10.6365
▁गीतहरु	-10.6366
▁फारम	-10.6367
▁राम्रोसँग	-10.6368
▁सिरिया	-10.6368
जुर	-10.6369
▁पदम	-10.6371
डक	-10.6372
रोग	-10.6375
▁सयौं	-10.6376
▁चन्द्रमा	-10.6377
भारत	-10.6381
्सी	-10.6381
▁न्यायिक	-10.6382
▁रेस	-10.6383
ालय	-10.6389
मुख	-10.6391
▁क्रोएसिया	-10.6395
▁राखिने	-10.6398
▁फिफा	-10.6398
▁भन्नुहुन्छ	-10.6399
ैँ	-10.6402
▁सालदेखि	-10.6404
▁७९	-10.6408
▁प्रश	-10.641
▁नत्र	-10.6411
▁घु	-10.6412
▁अनुसन्धानमा	-10.6414
▁काँग्रेसले	-10.6415
▁अन्न	-10.6416
स्तु	-10.642
▁कलम	-10.642
▁कम्पनीमा	-10.6427
▁पस	-10.6428
▁पसलमा	-10.6429
▁एसएलसी	-10.6431
▁बेवास्ता	-10.6431
▁हुदा	-10.6432
▁टोकियो	-10.6433
फ्ट	-10.6433
▁अनुवाद	-10.6435
▁पूर्णिमा	-10.6435
▁देउसी	-10.6437
▁याद	-10.644
हाँ	-10.644
▁उठाएको	-10.6441
▁उद्योगमा	-10.6445
सम	-10.6448
▁कस्ता	-10.6448
▁अधि	-10.6449
बोध	-10.6454
▁यि	-10.6461
▁होटेल	-10.6462
▁इन्टरनेशनल	-10.6467
▁सेकेन्ड	-10.6467
▁वीरेन्द्र	-10.6467
▁घाँस	-10.6467
▁थपिएको	-10.6468
▁बसपार्क	-10.6468
ाइयो	-10.6468
परराष्ट्रमन्त्री	-10.6469
▁आफुहरु	-10.6469
▁दुर्	-10.647
▁मसान्तसम्म	-10.6472
▁मगरले	-10.6474
▁विपद्	-10.6474
▁अजय	-10.6475
▁ल्याई	-10.6482
▁लिनुपर्ने	-10.6484
▁बड	-10.6486
▁पीडितलाई	-10.6494
तन्त्र	-10.6495
▁प्ल	-10.6497
▁कमाइ	-10.6498
▁अर्ध	-10.65
▁सङ्	-10.65
▁संसद्को	-10.6501
▁दीर्घ	-10.6502
▁अधिवक्ता	-10.6503
▁जीवनशैली	-10.6504
▁दिमाग	-10.6504
्याट	-10.6506
प्ट	-10.6508
▁ढुंगाना	-10.6509
▁आवासीय	-10.6509
▁ट्याग	-10.651
र्ग	-10.6512
▁बोली	-10.6512
णी	-10.6514
▁नेपालकै	-10.6515
▁बाँड	-10.6515
▁महासंघले	-10.6516
▁ब्रेक	-10.6521
▁फस	-10.6522
सन्	-10.6523
▁मलेसियामा	-10.6525
▁तिज	-10.6525
▁थि	-10.6528
▁रुपले	-10.653
▁हाँस	-10.6534
▁बिदेश	-10.6534
▁निस्कन	-10.6535
▁ग्या	-10.6538
▁इमान्दार	-10.6539
▁एजेन्डा	-10.6539
▁स्थायित्व	-10.6539
▁युरोपेली	-10.654
ट्स	-10.6543
▁मर	-10.6545
▁अपमान	-10.6545
▁गतेबाट	-10.655
▁जोग	-10.6551
▁रोनाल्डो	-10.6552
▁भोज	-10.6555
▁फाइल	-10.6556
माथिको	-10.6556
▁प्याक	-10.6556
ाउँथे	-10.6557
▁प्रम	-10.6557
▁विधेयकमा	-10.6558
▁रनमा	-10.6573
▁मौद्रिक	-10.6575
▁कमाउने	-10.6575
▁घाट	-10.6577
▁बालुवाटारमा	-10.658
▁विपरित	-10.6582
▁सङ्घीयता	-10.6586
▁तान	-10.6586
▁उप्रेती	-10.6589
▁फस्ट	-10.6589
द्वार	-10.6591
▁खेर	-10.6592
▁हिड	-10.6593
▁बोलाएर	-10.6593
▁वो	-10.6593
▁अन्याय	-10.6596
▁यम	-10.6599
▁९८	-10.66
▁भेटिए	-10.6601
टोल	-10.6603
▁ठाउ	-10.6609
▁उपसमिति	-10.6611
▁दोब्बर	-10.6611
▁धरौटी	-10.6611
▁वल्र्ड	-10.6611
▁प्रेरित	-10.6611
▁रहस्य	-10.6611
पश्चिम	-10.6612
▁बितरण	-10.6612
▁उखु	-10.6616
▁८७	-10.6618
▁पाकिस्तानी	-10.6619
▁सहजीकरण	-10.6619
▁तहले	-10.6625
▁केश	-10.6626
▁चीनसँग	-10.6627
सकेपछि	-10.6635
▁बनेपछि	-10.6637
▁एकाएक	-10.664
▁छुट्ट	-10.6647
▁आश्वासन	-10.6647
▁लोडसेडिङ	-10.6647
▁जान्न	-10.6648
▁निर्भर	-10.6649
▁बनाउँदा	-10.6651
▁गोकुल	-10.6652
▁चिन्ह	-10.6652
▁विदेशमन्त्री	-10.6655
▁आपस	-10.6659
▁जै	-10.6661
▁सदस्यमा	-10.667
▁चौर	-10.667
▁निकायमा	-10.6671
▁खानु	-10.6681
▁उहाँहरु	-10.6681
▁तस्विर	-10.6684
▁धमाधम	-10.6684
▁प्रधानाध्यापक	-10.6684
▁सर्भिस	-10.6684
▁कलेजमा	-10.6684
▁बताउदै	-10.6685
▁सदस्यको	-10.6686
▁उपाध्यक्षमा	-10.6688
▁व्यवहारमा	-10.6692
िन्छन्	-10.6698
▁चितवनमा	-10.6698
▁बाम	-10.6702
▁महासंघको	-10.6702
▁ढ	-10.6704
▁हास्य	-10.6707
तन	-10.6707
▁दीप	-10.6709
▁अन्	-10.671
▁मान्छेको	-10.6719
▁अध्यादेश	-10.672
▁निर्देशित	-10.6721
▁पार्वती	-10.6721
▁सामु	-10.6721
पालन	-10.6723
▁बर्खास्त	-10.6723
▁महिनावारी	-10.6724
यत	-10.6724
्टर	-10.6726
फु	-10.6729
्रिक	-10.673
▁समेट	-10.6733
▁अमेरिकाका	-10.6741
▁देखेको	-10.6741
▁मन्दिरको	-10.6744
▁पायो	-10.6748
▁नैतिक	-10.6751
▁सिक्न	-10.6752
▁अधिकारीहरुले	-10.6756
▁ओखलढुंगा	-10.6757
▁फेब्रुअरी	-10.6757
▁गाँउपालिका	-10.6757
▁ढुक्क	-10.676
▁मल्लले	-10.6761
▁त्यहाँबाट	-10.6763
▁जङ्गल	-10.6765
पट	-10.6772
सेन	-10.6774
▁परिक्षा	-10.6779
▁व्यवसायमा	-10.6779
▁माइ	-10.6782
▁डिल	-10.6783
▁प्रकरणमा	-10.6786
▁राइ	-10.6787
▁भोजन	-10.6789
▁सुदृढ	-10.6793
▁विमोचन	-10.6794
▁पसिना	-10.6795
▁एसएसपी	-10.6795
ञ्	-10.6796
▁बढ्नु	-10.6797
▁निकालिएको	-10.6799
▁मणि	-10.6801
▁भुल	-10.6802
्नुहोस्	-10.6805
▁बराबरीमा	-10.6805
▁नदिएको	-10.6809
▁आउँछन्	-10.6809
▁बिहानै	-10.6811
▁विर	-10.6811
▁बढाएर	-10.6811
▁उदार	-10.6812
ंदै	-10.6812
▁झन	-10.6822
▁प्रवासी	-10.6824
▁ढुङ्गा	-10.6827
ान्तर	-10.683
▁उमेश	-10.6831
▁मध्यनजर	-10.6831
▁सिधै	-10.6831
▁नजर	-10.6832
महा	-10.6835
क्रान्त	-10.6836
▁तुल	-10.684
▁ट्वीटर	-10.6846
ुद	-10.6847
षण	-10.6848
म्य	-10.6857
▁भनिए	-10.6861
▁मेची	-10.6862
▁ब्याक	-10.6863
षित	-10.6865
▁बृ	-10.6866
▁प्रशारण	-10.6868
▁मेलमिलाप	-10.6868
▁वक्तव्य	-10.6868
▁धर्ना	-10.6868
▁जनक	-10.6876
▁देशहरु	-10.6879
ालो	-10.6886
▁रंगशाला	-10.6888
▁हितमा	-10.6903
▁अप्ठ्यारो	-10.6906
▁इच्छुक	-10.6906
▁वामपन्थी	-10.6906
▁मेट्रिक	-10.6906
▁गरिँदै	-10.6906
▁तालमेल	-10.6907
▁निर्देशनालय	-10.6908
खो	-10.6909
▁बह	-10.6909
▁स्वयम्	-10.691
▁राख्दा	-10.691
▁नभएसम्म	-10.6911
ुहुन्थ्यो	-10.6913
तापूर्वक	-10.6922
पद	-10.6924
ालु	-10.6925
▁थिइन	-10.693
म्यान	-10.6931
ढो	-10.6933
▁राज्यमा	-10.6936
▁निष्काशन	-10.6943
▁दिनपछि	-10.6943
▁सर्वसम्मत	-10.6945
स्टा	-10.6946
▁फर्किने	-10.6948
कता	-10.6948
▁चर्क	-10.6948
▁नलाग्ने	-10.6949
▁दिवसका	-10.6962
▁असुल	-10.6963
ाउनुपर्ने	-10.6966
▁काटेर	-10.697
▁ज्या	-10.697
▁दृष्टि	-10.6974
त्रि	-10.6975
▁सुखी	-10.6979
▁साँस्कृतिक	-10.6981
▁आरम्भ	-10.6981
▁अवश्य	-10.6982
▁गृहकार्य	-10.6983
▁जुटाउन	-10.6983
▁पर्वको	-10.6984
▁सवाल	-10.6987
▁हिल	-10.6991
▁दुख्ने	-10.6992
▁भइन्	-10.6995
सक्छ	-10.6996
▁चन्दा	-10.6998
▁किसिम	-10.6998
स्टे	-10.6999
▁संलग्नता	-10.6999
▁पुग्नु	-10.7008
▁यसैले	-10.701
▁हिमालयन	-10.7013
थर	-10.7015
▁क्यु	-10.7017
▁गभर्नर	-10.7018
▁मूल्याङ्कन	-10.7018
▁इटाली	-10.7018
▁निमार्ण	-10.7019
▁गर्दछु	-10.7019
▁संगठित	-10.7019
▁आइडल	-10.702
▁धुलो	-10.7023
▁शर्त	-10.7024
▁सिर	-10.7034
▁घिसिङ	-10.7034
एनए	-10.7036
▁हिरा	-10.7042
▁गौरी	-10.7045
०५	-10.7045
▁नआए	-10.7047
▁पदका	-10.7048
▁भत्किए	-10.705
▁नियत	-10.7051
▁प्रणालीको	-10.7052
▁छेउमा	-10.7055
▁बडा	-10.7056
▁इन्टरनेसनल	-10.7056
▁ध्रुव	-10.7056
▁संबिधान	-10.7056
▁नपाइने	-10.7057
▁टोलीलाई	-10.7057
▁एक्कास	-10.7059
▁विषयवस्तु	-10.7059
▁लौ	-10.706
▁बन्नु	-10.7061
▁अड	-10.7062
▁सन्दर्भ	-10.7065
दास	-10.7068
▁पाप	-10.7071
िकल	-10.7074
स्टो	-10.7075
▁कोटा	-10.7076
▁बोक	-10.7078
▁एप्स	-10.7079
▁गेम	-10.7084
९९	-10.7087
वापत	-10.7088
▁दुरी	-10.7088
▁उर्	-10.7091
▁ब्यवस्था	-10.7093
८०	-10.7093
▁आंशिक	-10.7094
▁बिर्तामोड	-10.7094
▁प्राचीन	-10.7094
▁सुरक्षाका	-10.7096
▁पर्खाल	-10.7097
▁हामीसँग	-10.7106
▁बन्दुक	-10.7107
▁आयु	-10.7107
ँगा	-10.7112
▁नाक	-10.7116
हारी	-10.7118
केन्द्र	-10.7119
ाइड	-10.7123
▁सम्बद्ध	-10.7123
▁पर्नेमा	-10.7124
ैपर्ने	-10.7125
कालिन	-10.7128
सहितका	-10.7131
▁ज्ञापन	-10.7131
▁गैरकानुनी	-10.7132
▁थुनामा	-10.7133
▁ट्रयाक	-10.7134
▁९४	-10.7134
▁लोकसेवा	-10.7134
भएको	-10.7134
वहादुर	-10.7134
▁२०६८	-10.7137
धारी	-10.7138
▁तातो	-10.7139
▁संगठनको	-10.714
▁खाजा	-10.7141
▁दण्ड	-10.7144
▁जेलमा	-10.7145
▁माओवादीका	-10.7149
▁समृद्धिका	-10.7153
▁त्यसमाथि	-10.7153
१७	-10.7154
इज	-10.7154
▁जन्मिएका	-10.7155
▁प्रतिनिधिसभाको	-10.7155
▁बनाउनुपर्ने	-10.7157
▁युट्युब	-10.7157
▁नेतृत्वले	-10.7161
▁निषेध	-10.7164
्टन	-10.7167
▁उल्लंघन	-10.7171
▁परिकल्पना	-10.7171
▁सन्दिप	-10.7171
▁कुराहरू	-10.7176
खेती	-10.7178
▁याली	-10.7179
▁स्वा	-10.7183
▁मोर्चाले	-10.7186
▁जसो	-10.719
▁लियो	-10.719
▁मागेको	-10.7192
▁नदिए	-10.7206
▁सहरी	-10.7208
▁९३	-10.7209
▁उपमेयर	-10.7209
▁न्यूयोर्क	-10.7209
▁अनुशासन	-10.721
▁चुनावको	-10.7213
▁मारिए	-10.7217
▁फुटबलको	-10.7219
▁तला	-10.7223
▁सहन	-10.7223
▁हारे	-10.7225
सिप	-10.7225
▁ठुला	-10.7231
▁काट्ने	-10.7231
▁हस्त	-10.7232
▁आजसम्म	-10.7232
▁समुदायलाई	-10.7236
▁निधि	-10.7237
▁पालन	-10.7237
▁हाई	-10.7242
▁टिमको	-10.7242
▁स्तरोन्नति	-10.7248
▁भुकम्प	-10.7248
▁शेर्पाले	-10.7248
▁मृगौला	-10.7248
▁नहोस्	-10.7248
▁सङ्घर्ष	-10.725
▁प्रतिस्पर्धामा	-10.7251
▁भनेपछि	-10.7253
▁हेर्नुहोस	-10.7256
▁प्रयोगमा	-10.7256
▁थापालाई	-10.7257
▁रहि	-10.7258
▁चेली	-10.7261
▁पाउँछन्	-10.7262
▁क्लिक	-10.7262
▁पक्षलाई	-10.7266
▁भावी	-10.7267
७३	-10.7267
▁भित्रै	-10.7273
▁कायमै	-10.7276
▁समाधानका	-10.7277
ियम	-10.7277
साइड	-10.7278
व्र	-10.728
▁पेज	-10.7282
्छिन्	-10.7282
▁प्रचण्डको	-10.7283
वेश	-10.7285
▁साई	-10.7286
▁एभरेष्ट	-10.7287
▁दिक्तेल	-10.7287
▁सार्थक	-10.7287
▁चलखेल	-10.7288
▁नवीकरण	-10.7291
!!	-10.7293
▁टाइम्स	-10.7295
▁गर्नुका	-10.73
▁खाए	-10.73
रोध	-10.7303
▁अनुसन्धानका	-10.7303
▁भगवान्	-10.7305
▁अन्त्यमा	-10.7306
▁दायरामा	-10.731
▁रङ्ग	-10.731
सिए	-10.7311
▁स्टल	-10.7317
▁लगेको	-10.7318
▁परिवर्तनको	-10.7318
ाङ्क	-10.732
▁कलाकारको	-10.7322
▁पाउ	-10.7324
▁टोलीका	-10.7325
▁अनमोल	-10.7326
▁उपकुलपति	-10.7326
▁तोडफोड	-10.7326
▁सामुहिक	-10.7326
▁प्रोजेक्ट	-10.7326
▁शत्रु	-10.7326
▁माइक्रो	-10.7326
▁गहुँ	-10.7328
गृह	-10.7328
ब्य	-10.7331
▁अन्तरले	-10.7334
▁मतपत्र	-10.7338
▁निवासमा	-10.7338
▁कार्यलाई	-10.7343
स्तरमा	-10.7343
▁देखिएपछि	-10.7345
हत	-10.7347
▁मैत्री	-10.7349
▁देखाउँछ	-10.7349
▁गरेँ	-10.7353
▁गर्व	-10.7356
ाश	-10.736
▁किनकी	-10.7361
फि	-10.7364
इन्ट	-10.7364
▁मालपोत	-10.7365
▁यातना	-10.7365
▁उति	-10.7366
▁बिक्रि	-10.7368
क्का	-10.7368
▁यसकारण	-10.7372
रियो	-10.7376
वाई	-10.7382
▁सुनेर	-10.7388
▁कृष्णबहादुर	-10.739
▁मान्छेले	-10.7393
▁गौ	-10.7396
दायी	-10.7397
▁बुझाउने	-10.7403
▁साँच्चै	-10.7404
▁कैलाश	-10.7404
▁प्रदायक	-10.7404
▁पाइँदैन	-10.7404
▁पोशाक	-10.7404
▁अग्रवाल	-10.7404
▁ट्रफी	-10.7405
▁अदुवा	-10.7405
▁अलिकति	-10.7405
▁प्रतिशतसम्म	-10.7407
यक	-10.7409
इरहे	-10.7413
▁तिनका	-10.7413
▁२०११	-10.7413
▁झैं	-10.7417
▁कार्यान्वयनका	-10.7419
▁बिताए	-10.742
दन	-10.7424
▁उन्नत	-10.7424
▁महान्	-10.7425
▁उहाँहरू	-10.7425
▁रुम	-10.7426
▁दिलाउन	-10.7427
्थ	-10.743
नियम	-10.7438
▁गर्भपतन	-10.7443
▁घरधुरी	-10.7443
▁भानुभक्त	-10.7443
▁लाइभ	-10.7444
ङ्गे	-10.7444
▁ओरालो	-10.7445
▁पोषण	-10.7446
▁दोहोरी	-10.7446
▁ठेगाना	-10.7448
▁साहले	-10.7448
▁हिँड्न	-10.7456
▁टेस्ट	-10.746
▁फलाम	-10.7462
लास	-10.7468
ँदो	-10.7469
▁हेर्दै	-10.7469
ष्टि	-10.7471
▁भेटिएका	-10.7472
▁जस्	-10.7476
▁जग्गामा	-10.7478
▁स्तरको	-10.7479
क्षित	-10.748
▁चिन्तित	-10.7483
▁धरहरा	-10.7483
▁गरिनु	-10.7484
▁अगस्ट	-10.7486
▁एसिड	-10.7486
बन	-10.7487
▁डाइ	-10.7489
▁खोलेर	-10.7491
▁हदसम्म	-10.7491
▁कालोपत्रे	-10.7494
निस	-10.7495
▁नहर	-10.7502
न्तु	-10.7504
▁१५०	-10.7505
▁सस्था	-10.7506
▁नबुझ	-10.7506
▁ल्या	-10.7507
▁युरो	-10.7512
▁फर्केर	-10.7515
▁तिमिल्सिना	-10.7522
▁बेलुकी	-10.7522
▁दूरसञ्चार	-10.7522
▁रोहित	-10.7523
▁फौज	-10.7523
▁उद्दार	-10.7523
▁सास्ती	-10.7524
▁जोडे	-10.7524
▁बाक्लो	-10.7524
▁इस्लाम	-10.7525
▁तोला	-10.7529
▁सँगसँगै	-10.7532
▁तापनि	-10.7533
▁सभासद	-10.7537
▁सकिन्न	-10.7539
िन्थ्यो	-10.7542
▁अम	-10.7543
प्रा	-10.7544
▁खेलाडीको	-10.7554
▁उचाइ	-10.7554
▁आयुर्वेद	-10.7562
▁जथाभावी	-10.7562
▁निष्कासन	-10.7562
▁पठनपाठन	-10.7562
▁बाग्लुङ	-10.7563
▁शिक्षामा	-10.7563
▁शोषण	-10.7563
▁सम्पर्कमा	-10.7563
७०	-10.7567
▁चारवटा	-10.7569
▁टर्की	-10.7569
राख्न	-10.7572
▁लेखेर	-10.7572
▁प्रतिष्ठानका	-10.7578
▁सुन्दरता	-10.7579
▁चीनबाट	-10.7581
▁गर्छन	-10.7582
▁सुधारका	-10.7583
देन	-10.7584
▁अद	-10.7586
▁टुक्रा	-10.7591
▁धामी	-10.7593
▁खुब	-10.7595
▁बालुवाटार	-10.7597
त्तर	-10.76
▁औचित्य	-10.7602
▁सिक्किम	-10.7602
▁सिड्नी	-10.7602
▁फौजदारी	-10.7602
▁भ्या	-10.7603
▁भण्डारण	-10.7604
▁शपथ	-10.7604
▁इमेल	-10.7606
▁सास	-10.7608
▁शिविरमा	-10.7608
▁ग्र	-10.7609
▁पाइ	-10.761
▁व्यवस्थापनमा	-10.7612
भित्रको	-10.7614
▁गफ	-10.7615
साल	-10.7617
दोहोर	-10.7618
▁वित्त	-10.7622
ैपर्छ	-10.7637
▁राखि	-10.7639
▁भात	-10.7641
▁म्यूजिक	-10.7642
▁मेक्सिको	-10.7642
▁सौर्य	-10.7643
▁पृथ्वीनारायण	-10.7644
▁लड्न	-10.7646
▁लहान	-10.7646
▁स्थलगत	-10.7648
▁चाहन्छन्	-10.7649
▁अडियो	-10.765
▁कुश	-10.765
▁हुर्क	-10.7652
सामु	-10.7653
▁देखेपछि	-10.7658
▁अन्तर्	-10.7659
▁लाखभन्दा	-10.766
▁भानु	-10.7661
▁कस्	-10.7666
▁आरोपित	-10.7666
▁९२	-10.7669
िश	-10.767
२७	-10.7675
ाचार्य	-10.7677
▁सद	-10.7678
वेद	-10.768
▁पानीमा	-10.7682
▁अत्याधुनिक	-10.7683
▁साउथ	-10.7683
▁छोरीलाई	-10.7683
▁युनिभर्सिटी	-10.7683
▁विधामा	-10.7685
थान	-10.7685
▁बढाइएको	-10.7686
▁नम्बरमा	-10.7686
▁बाँस	-10.7686
▁प्रतिफल	-10.7687
▁शाखाका	-10.7688
▁जर्मन	-10.769
▁भारतलाई	-10.7692
गंगा	-10.7697
जिन	-10.7698
▁खुल्ने	-10.7705
▁८९	-10.7707
▁लागेपछि	-10.7708
म्भ	-10.7708
▁नाराका	-10.771
▁वेस्ट	-10.7711
▁वंश	-10.7714
ाउछ	-10.7717
ण्डी	-10.7722
▁सुर्य	-10.7723
▁अनौपचारिक	-10.7723
▁रूपैयाँ	-10.7723
▁हिमपात	-10.7724
▁खे	-10.7724
▁राशी	-10.7725
▁लघु	-10.7725
्याम्प	-10.7725
▁बालकृष्ण	-10.7725
▁कुर्सी	-10.7729
स्कार	-10.7729
रेट	-10.7731
▁थाप	-10.7731
▁चिज	-10.7737
विद	-10.7737
▁लोप	-10.7742
छो	-10.7743
▁काट्न	-10.7747
▁महाशाखाका	-10.7754
▁अवलम्बन	-10.7764
▁भूगोल	-10.7764
▁रवीन्द्र	-10.7764
▁थारू	-10.7764
क्सन	-10.7765
▁दीपिका	-10.7765
▁गरीएको	-10.7765
दारी	-10.7766
▁शर्माको	-10.7768
▁अनुप	-10.7768
चित्र	-10.7768
▁चुन	-10.7769
बित्तिकै	-10.777
▁मुगु	-10.7771
ग्रह	-10.7772
ङग	-10.7775
▁प्रश्नको	-10.7776
▁सदस्यले	-10.7778
▁पञ्चायत	-10.7785
▁छाड्ने	-10.7788
▁पार्छ	-10.7793
२६	-10.7799
▁वर्षभन्दा	-10.7799
▁अपनाए	-10.7801
्चर	-10.7801
▁असुरक्षित	-10.7805
▁हेलिकोप्टर	-10.7805
▁निष्पक्ष	-10.7805
▁कान्छी	-10.7805
▁चाँडो	-10.7805
▁सहभागीता	-10.7809
▁हिउँद	-10.781
फाइ	-10.781
▁स्वरमा	-10.7813
१४	-10.7817
▁अधिकारकर्मी	-10.7817
▁सँ	-10.7818
▁उसै	-10.7819
▁पुर्ण	-10.7821
▁जानुपर्ने	-10.7822
हुन	-10.7825
▁आमालाई	-10.7827
▁रामप्रसाद	-10.7827
ल्ने	-10.783
▁रनले	-10.7836
▁खाएको	-10.7838
▁हद	-10.7843
▁प्रदूषण	-10.7846
▁मुआब्जा	-10.7846
बादी	-10.7847
▁हुँदाहुँदै	-10.7848
▁उठ्न	-10.7849
▁श्रेष्ठलाई	-10.7849
▁मार्न	-10.7849
▁प्रतिष्ठा	-10.7851
▁पाइला	-10.7853
बहाल	-10.7855
▁यूरोप	-10.7855
▁प्रथा	-10.7855
ानुसार	-10.7857
संघ	-10.7859
▁दिन्छन्	-10.7859
▁मानसिकता	-10.7859
▁कार्यपालिकाको	-10.786
▁घटाउन	-10.7868
पास	-10.7876
▁युनिट	-10.7877
▁दया	-10.7883
▁छोट	-10.7885
▁बदल	-10.7885
▁स्कुटर	-10.7887
▁कँहा	-10.7887
▁जिकिर	-10.7887
▁बुँदा	-10.789
▁अदालतका	-10.7891
▁टीम	-10.7891
िस्	-10.7897
▁नौलो	-10.7899
ुहुन्न	-10.7903
▁देशबीच	-10.7906
▁रंगशालामा	-10.7907
▁आउ	-10.791
▁जिसी	-10.7914
▁विद्यालयले	-10.7914
जेन	-10.7918
▁मुर्	-10.792
▁त्यहीँ	-10.7922
▁घाउ	-10.7924
गान	-10.7926
▁इन्जिनियरिङ	-10.7926
▁दशै	-10.7928
▁प्रवर्द्धन	-10.7928
▁इन्जिन	-10.7928
▁श्रीकृष्ण	-10.793
▁निकायका	-10.7931
▁मोडेल	-10.7932
ाईएको	-10.7933
▁टंक	-10.7933
▁आर्ट	-10.7933
▁खुल्न	-10.7934
▁खटिएको	-10.7934
▁बनाइने	-10.7936
ाऊ	-10.7936
सान	-10.794
▁२०१०	-10.794
िरहे	-10.7942
▁मानेर	-10.7944
जसो	-10.7946
▁भजन	-10.7946
▁तपाईलाई	-10.795
▁वर्षाका	-10.7951
▁भारु	-10.7958
तान्त	-10.7958
ँदैछ	-10.796
▁छिरे	-10.7961
मिर	-10.7962
▁पसे	-10.7962
▁याम	-10.7963
▁सकिरहे	-10.7963
वस्तु	-10.7968
▁मुस्किल	-10.797
▁आचारसंहिता	-10.797
▁दवाव	-10.797
▁उपत्यकाका	-10.7971
▁वरपर	-10.7971
▁२०६४	-10.7973
▁निक्कै	-10.7973
▁हरायो	-10.7973
▁सोच्न	-10.7973
▁पाटो	-10.7978
सिल	-10.7981
▁पर्छन्	-10.7994
▁निराशा	-10.7994
अन	-10.7994
▁उठाएका	-10.7996
▁बिरुद्ध	-10.7999
▁दिनभर	-10.8
▁आक्रोश	-10.8005
▁दिनमै	-10.8008
▁एकअर्का	-10.8011
▁सिन्डिकेट	-10.8011
▁रहनुभएका	-10.8012
▁प्रकृतिको	-10.8012
▁भवानी	-10.8013
ष्ट्र	-10.8013
▁शेर	-10.8015
▁संस्थाहरू	-10.8016
▁आइरहेका	-10.8016
▁९७	-10.8016
▁सुटिङ	-10.8018
▁प्रताप	-10.8018
▁स्वभाविक	-10.8019
▁अमेरिकन	-10.8019
▁अन्र्तगत	-10.8021
लियन	-10.8024
▁उठाएर	-10.8027
▁डुबानमा	-10.8033
▁प्ले	-10.8036
▁तिल	-10.8039
▁गएराति	-10.8053
▁पक्की	-10.8054
▁वर्ल्ड	-10.8054
▁स्त्री	-10.8055
▁पं	-10.8055
ल्न	-10.8061
▁बस्तीमा	-10.8063
टल	-10.8069
▁सव	-10.8069
▁क्व	-10.8074
▁ग्राहकलाई	-10.8076
वेल	-10.8083
▁भेटेर	-10.8084
▁माथी	-10.8086
ेयर	-10.8087
▁बस्दा	-10.8089
▁कँडेल	-10.8095
▁झरना	-10.8095
▁रविन्द्र	-10.8096
▁रुद्र	-10.8102
▁स्पिन	-10.8102
▁सञ्चालनका	-10.8105
▁गहना	-10.811
▁गीता	-10.811
▁पप	-10.8111
त्रा	-10.8113
▁कदर	-10.8113
▁निकालेर	-10.8115
▁अध्यक्षता	-10.8117
▁सबल	-10.812
▁बजेतिर	-10.8121
▁सन्त	-10.8121
नुपर्ने	-10.8122
फो	-10.8123
▁तो	-10.8123
▁हिँडे	-10.8125
▁लिगको	-10.8126
▁भट्टराईको	-10.813
▁माथिको	-10.8136
गाड	-10.8137
▁भैरव	-10.8138
▁अन्तरराष्ट्रिय	-10.8138
▁पासपोर्ट	-10.8138
सह	-10.8141
▁पुर्न	-10.8142
हू	-10.8144
▁गराइ	-10.8144
▁दमन	-10.8146
▁नजाने	-10.8152
▁अध्ययनका	-10.8158
▁घा	-10.816
्पा	-10.8164
घु	-10.8169
६०	-10.8173
▁संचाल	-10.8173
ाउँ	-10.8175
बेद	-10.8177
▁अभियानलाई	-10.8177
▁आश्चर्य	-10.8179
▁प्रतिनिधी	-10.818
▁व्यावहारिक	-10.818
▁कच्चा	-10.818
▁पत्राचार	-10.818
▁अग्नि	-10.818
▁प्रमोद	-10.8181
▁अभियानको	-10.8182
▁बलात्कारपछि	-10.8184
▁तवर	-10.8195
गरि	-10.8196
ाधिकार	-10.8197
▁स्थिरता	-10.8199
▁नपरे	-10.8201
भित्रका	-10.8201
प्रदेश	-10.8202
▁नियन्त्रणका	-10.8202
▁गठबन्धनले	-10.8203
्टी	-10.8206
खी	-10.8206
वै	-10.8212
▁मुलुकभर	-10.8213
▁छेउ	-10.8218
▁त्रैमास	-10.8219
▁अध्यापन	-10.8222
▁अपरिहार्य	-10.8222
▁पारदर्शी	-10.8222
▁बन्दरगाह	-10.8222
▁मड्रिड	-10.8222
▁लिभरपुल	-10.8222
▁सम्मिलित	-10.8222
▁मिथिला	-10.8222
▁आईतबार	-10.8222
▁पोख्रेल	-10.8222
ारी	-10.8224
▁नरेश	-10.8224
▁प्रयोजनका	-10.8225
▁आश्रम	-10.8226
▁बलिङ	-10.8228
▁खुलेर	-10.8228
▁सकेर	-10.8231
▁जिल्लाबाट	-10.8231
▁सज	-10.8235
▁साझेदार	-10.8238
त्री	-10.8239
पती	-10.8239
▁थाल्छ	-10.824
▁चिकित्सकले	-10.824
▁मुलुकले	-10.8241
२४	-10.8242
▁वर्षिय	-10.8242
▁मच्च	-10.8245
▁शाक्यले	-10.8246
▁तस्कर	-10.8248
िंदै	-10.8249
न्थ्यो	-10.825
▁ललितपुरको	-10.8254
▁अत्याधिक	-10.8265
▁निमन्त्रणा	-10.8265
▁मुग्लिन	-10.8265
▁लाग्थ्यो	-10.8266
▁कार्यसम्पादन	-10.8267
▁कोड	-10.8268
▁हुनुको	-10.8271
▁तीर्थ	-10.8275
▁डिजेल	-10.8278
गति	-10.8278
▁सिमित	-10.8279
▁बताइन्छ	-10.8283
▁कठ	-10.8287
▁अधिकारीलाई	-10.8292
▁क्याम्पसमा	-10.8297
▁डिसी	-10.83
▁हालेर	-10.8304
▁कमै	-10.8306
▁मैनाली	-10.8308
▁पूर्वराजा	-10.8308
▁पिसाब	-10.8308
▁हाले	-10.8309
पूर	-10.8309
▁जनजीवन	-10.831
▁स्थानबाट	-10.8311
▁दिंदै	-10.8312
▁जग्गाको	-10.8318
▁लाग्दै	-10.8327
▁निष्कर्षमा	-10.8328
रहने	-10.8329
कुरा	-10.833
▁बिचार	-10.8332
▁राष्ट्रपतिको	-10.8337
▁रोके	-10.8337
▁दाल	-10.8339
▁सत्तामा	-10.8343
▁भनिएका	-10.8344
थु	-10.8347
▁अर्कोतिर	-10.8349
▁अध्यागमन	-10.8351
▁गोदावरी	-10.8351
▁मर्यादा	-10.8351
▁उत्खनन	-10.8351
▁सर्जक	-10.8351
▁वस्ती	-10.8353
▁सञ्जय	-10.8354
▁वी	-10.8357
▁आयोजनाका	-10.8358
ावली	-10.8359
टेन	-10.8362
▁देखाएका	-10.8362
▁सम्ममा	-10.8366
▁सुने	-10.8368
▁बचाउ	-10.837
▁उमेरका	-10.837
▁पठाए	-10.8371
▁गार्ड	-10.8371
तै	-10.8375
▁हौँ	-10.8376
▁विकेटले	-10.8378
▁माता	-10.8392
७२	-10.8393
▁क्यालिफोर्निया	-10.8394
▁गिरावट	-10.8394
▁लडाकु	-10.8394
▁लागूऔषध	-10.8394
▁स्मारक	-10.8394
▁हेल्थ	-10.8394
२८	-10.8396
ाइन्छ	-10.8402
ेष्ट	-10.8402
स्वा	-10.8403
▁लम्	-10.8404
प्रो	-10.8405
्नुभएको	-10.8406
▁पाँचौ	-10.8407
स्थापन	-10.841
▁रेशम	-10.8411
इन्	-10.8413
हवा	-10.8414
▁पुत्र	-10.842
▁बताउने	-10.8421
ांग	-10.8421
▁यात्री	-10.8424
▁मारेको	-10.8428
▁सां	-10.8433
▁सै	-10.8434
▁मर्न	-10.8437
▁जबरजस्ती	-10.8438
▁जलवायु	-10.8438
▁धुलिखेल	-10.8438
▁यूएई	-10.8438
▁गान्धी	-10.8438
▁घरदैलो	-10.8438
▁डेभलपमेन्ट	-10.8438
केश	-10.8438
▁जलस्रोत	-10.8438
▁बोकेका	-10.844
▁ओझा	-10.844
▁गाउन	-10.844
▁वार्ड	-10.8443
सेर	-10.8443
▁यूके	-10.8445
२३	-10.8446
▁जसमध्ये	-10.8446
र्ता	-10.8448
▁सुते	-10.8453
▁जुवा	-10.8456
▁पदबाट	-10.8457
चौ	-10.8458
▁प्रवास	-10.8465
▁रहेन	-10.8465
▁पद्म	-10.8468
▁सयभन्दा	-10.8471
▁फर्केका	-10.8477
▁कृ	-10.8478
▁हिउँ	-10.8478
▁आवतजावत	-10.8481
▁व्यायाम	-10.8482
यम	-10.8483
▁भन्	-10.8483
▁दुनियाँ	-10.8486
▁सिधा	-10.849
▁सोम	-10.8492
▁तराईका	-10.8494
▁दर्शकको	-10.8495
▁किसानहरु	-10.8498
▁भित्र्याउने	-10.8501
▁प्रतियोगीता	-10.8501
▁दाना	-10.8505
न्युज	-10.8506
सके	-10.8509
आज	-10.851
▁तिनले	-10.8513
▁जागरण	-10.8513
टेर	-10.8514
▁बेग्लै	-10.8515
▁स्टेट	-10.8516
ाज	-10.8517
▁जानकी	-10.8517
▁पुरी	-10.8518
▁भएँ	-10.8519
▁खोजीमा	-10.8519
ुअघि	-10.852
▁विश्वस्त	-10.8523
▁उपाधी	-10.8525
▁राशिफल	-10.8526
▁तिथि	-10.8528
▁बोलपत्र	-10.853
ुत	-10.8531
▁ज्याला	-10.8531
▁भैलो	-10.8532
खण्ड	-10.8533
▁अभियोग	-10.8535
▁परिरहेको	-10.8537
▁सारेको	-10.8539
▁सकिएपछि	-10.8543
प्ले	-10.8543
▁महराले	-10.8552
▁सुन्ने	-10.8564
▁इन्चार्ज	-10.8569
▁उत्तीर्ण	-10.8569
▁खुकुरी	-10.8569
▁अर्पण	-10.8569
▁जाल	-10.8574
िदिएको	-10.8575
वद्ध	-10.8576
जन्म	-10.8576
▁अस्थिरता	-10.8577
▁गरेनन्	-10.8581
▁मारिएका	-10.8587
▁३००	-10.8589
म्बु	-10.8589
पुरा	-10.8592
ीम	-10.8595
▁एक्सन	-10.8596
पिङ	-10.8598
स्ती	-10.8598
▁देखाउँदै	-10.8603
▁प्रतीक	-10.8605
ियल	-10.861
्याम	-10.8612
▁पाउँछ	-10.8613
▁सिफारिश	-10.8614
▁न्यानो	-10.8614
▁स्तन	-10.8618
▁अपाङ्गता	-10.8621
▁समस्यामा	-10.8628
▁कार्यकर्ताले	-10.863
▁दिइरहे	-10.8631
ार्इ	-10.8633
▁उठेर	-10.8633
▁पर्नु	-10.8633
▁कामहरु	-10.8636
▁भूकम्पपछि	-10.8636
▁पन्छ	-10.8641
▁रणनीतिक	-10.8643
िटि	-10.8646
▁सिकाइ	-10.8646
▁वढ	-10.8648
▁सरह	-10.8648
▁बोध	-10.8655
▁मिहिनेत	-10.8658
▁स्वाभिमान	-10.8658
▁एपीएफ	-10.8658
▁वली	-10.866
▁युथ	-10.8669
▁जाहेरी	-10.8672
जीले	-10.8674
▁डलरको	-10.8677
▁बृहत	-10.8678
▁कार्	-10.8678
▁अग्रसर	-10.8682
मण्डल	-10.8682
▁मोर	-10.8682
▁दर्शकहरु	-10.8687
▁रावल	-10.8689
▁कुरै	-10.8689
▁लडे	-10.869
स्तरको	-10.8692
▁रिमाल	-10.8693
▁द्वितीय	-10.8695
▁ठोक	-10.8696
भूमि	-10.8696
▁घटे	-10.8696
ुँ	-10.8699
▁त्रिपाठी	-10.8703
▁तेह्रथुम	-10.8703
▁म्यानमार	-10.8704
▁पचास	-10.8704
▁सूत्र	-10.8706
▁समाचारमा	-10.8706
▁स्वतः	-10.8707
▁सतर्कता	-10.871
ेन्ड	-10.8714
▁नह	-10.8714
▁आँट	-10.8716
टेल	-10.8727
▁नारायणी	-10.8727
▁इजलासले	-10.8735
१३	-10.8736
सेक	-10.8738
प्राप्त	-10.8743
▁दम्पती	-10.8748
▁मोवाइल	-10.8748
▁रायमाझी	-10.8748
▁लडाइँ	-10.8748
▁बानेश्वर	-10.8748
▁निजगढ	-10.8748
▁बाइक	-10.8748
▁यसपालि	-10.8751
▁पशुपतिनाथ	-10.8752
▁प्रतियोगिताका	-10.8753
ेरा	-10.8755
ून	-10.8757
▁नभन	-10.8759
▁साटो	-10.876
▁ध्यानमा	-10.8766
▁नसकिएको	-10.8766
न्डा	-10.8768
▁समाजलाई	-10.8771
ाला	-10.8771
▁बेलायतको	-10.8774
साई	-10.8775
▁ठाउँबाट	-10.8777
▁छोराको	-10.8779
▁बर्षिय	-10.8789
ध्यक्ष	-10.8789
▁अरुलाई	-10.8789
▁वित	-10.879
▁अङ्ग्रेजी	-10.8792
▁फर्के	-10.8792
▁रेडक्रस	-10.8793
▁जनगणना	-10.8793
र्के	-10.8796
▁गणित	-10.8802
बेर	-10.8804
▁मिसन	-10.8805
सरा	-10.8807
▁बिते	-10.8809
▁विद्यार्थीहरू	-10.881
▁बेरोजगार	-10.881
▁विश्वविद्यालयको	-10.881
क्ता	-10.8811
▁सुरज	-10.8813
रेन	-10.8814
▁पूर्णता	-10.8814
▁मुनि	-10.8816
ग्रेस	-10.8818
▁उनीसँग	-10.8826
▁बुझेर	-10.883
▁बिस	-10.8831
▁दलीय	-10.8834
व्यक्ति	-10.8836
▁खड्काको	-10.8837
▁केटाकेटी	-10.8838
▁दस्तावेज	-10.8838
▁मजबुत	-10.8838
▁प्रभावशाली	-10.8839
▁मनसुन	-10.8843
▁तिर्नुपर्ने	-10.8844
▁च्याम्पियन्स	-10.8845
▁भेगमा	-10.8847
▁गाविसमा	-10.8848
▁आइपुगेको	-10.885
▁फुटबलमा	-10.8851
▁प्रस	-10.8857
▁पुर्याएको	-10.8857
लगायतले	-10.8859
▁सहि	-10.8863
▁आइपुगेका	-10.8864
▁तोकिए	-10.8865
▁झल्क	-10.8866
▁सन्तुष्ट	-10.8867
▁चितवनका	-10.8868
▁समयपछि	-10.8869
▁देशहरू	-10.8869
वाज	-10.8875
▁छाड्न	-10.8879
▁हाल्ने	-10.8881
▁कानुनको	-10.8881
प्रमुख	-10.8881
▁पठाइ	-10.8882
▁खेलकूद	-10.8883
▁विज्ञप्ती	-10.8883
▁अपराह्न	-10.8883
▁छुट्टाछुट्टै	-10.8883
▁विभाजित	-10.8883
▁मञ्जु	-10.8884
▁सूचक	-10.8884
▁नेशनल	-10.8884
▁देशैभर	-10.8886
भेन	-10.8886
▁च्याउ	-10.8887
▁रिक्त	-10.8894
लायक	-10.8896
रेर	-10.8896
▁साताको	-10.8896
▁बेड	-10.8902
प्रिय	-10.8903
▁नाइट	-10.8904
▁माफी	-10.8907
▁कुना	-10.8908
फाई	-10.8909
्याएको	-10.8915
▁शिक्षकको	-10.8915
▁बदली	-10.8916
▁तुरुन्त	-10.8917
▁अध्ययनले	-10.892
ाण	-10.8921
▁झिक	-10.8922
▁टुट	-10.8924
▁सावित	-10.8928
▁निम्तो	-10.8929
▁बाणिज्य	-10.8929
▁संरक्षक	-10.8929
▁राजिनामा	-10.8929
▁विपक्षमा	-10.8929
▁पत्रपत्रिका	-10.893
▁हैरान	-10.8934
्जि	-10.8934
▁पाँचौं	-10.8937
▁किनेर	-10.8938
▁होली	-10.8944
▁सवालमा	-10.8945
िरहन	-10.8945
▁समग्रमा	-10.8949
▁अर्थमा	-10.8951
▁क्रिकेटमा	-10.8952
▁निर्मल	-10.8953
▁गरें	-10.8954
▁कडाइ	-10.8955
▁महानगरपालिकाका	-10.8956
ब्ल	-10.8956
▁अन्यथा	-10.8956
▁गठबन्धनको	-10.8956
▁संसारका	-10.896
▁बच्चाको	-10.8962
▁दिल्लीमा	-10.8966
▁फ्रि	-10.8973
▁उत्थान	-10.8975
▁समर्पित	-10.8975
▁ध्वस्त	-10.8975
▁भेदभाव	-10.8975
▁अन्तरिक्ष	-10.8975
▁लायन्स	-10.8975
▁विश्लेषक	-10.8975
▁आत्मसात	-10.8975
६३	-10.8975
▁ज्ञापनपत्र	-10.8976
▁चोकमा	-10.898
▁भग	-10.8987
▁यज्ञ	-10.8989
▁मेडल	-10.899
▁काज	-10.8992
▁पाएर	-10.8993
▁गरेन	-10.8995
▁उपस्थितिमा	-10.8998
▁उडे	-10.9003
▁राष्ट्रपतिले	-10.9003
▁थाह	-10.9007
▁वार्तामा	-10.901
▁कामदारलाई	-10.9011
▁देउवाको	-10.9016
▁पुग्नेछ	-10.9019
▁रेस्टुरेन्ट	-10.9021
▁उचाई	-10.9021
▁जबर्जस्ती	-10.9021
तृ	-10.9025
▁गोरखापत्र	-10.9025
▁२०६३	-10.9026
▁टोलीमा	-10.9029
▁सपथ	-10.903
▁माग्न	-10.9031
▁हाने	-10.9034
▁सुनुवार	-10.9035
अस	-10.9036
सिक	-10.904
▁लाज	-10.9041
सेयर	-10.9041
▁गरेकाे	-10.9042
▁प्लेट	-10.9042
▁काठमाडौँमा	-10.9043
▁सातौं	-10.9044
▁बैठकको	-10.9045
न्थ	-10.9059
▁वास्तविकता	-10.9061
▁सेन्ट	-10.9065
्नी	-10.9065
▁आउँदैन	-10.9067
▁इन्डोनेसिया	-10.9067
▁तिहाई	-10.9068
▁खाँचो	-10.9068
▁न्यायालय	-10.9069
▁लम्ब	-10.907
नीति	-10.9071
▁मान्दै	-10.9075
▁लेन	-10.9077
▁स्टेज	-10.9077
▁एशियाली	-10.9078
▁भरिएको	-10.908
▁नम	-10.9083
रिस	-10.9083
▁उद्यम	-10.9085
▁यहा	-10.9087
▁आक्रमणमा	-10.9089
▁विवाहित	-10.9089
खर्क	-10.9089
जिव	-10.9089
▁वर्ण	-10.909
▁सहमतिमा	-10.9091
▁हटे	-10.9094
्चा	-10.9096
सेना	-10.9097
▁देखाए	-10.9098
▁सुन्दरी	-10.9099
▁ट्रान्स	-10.91
▁पुगेकी	-10.9105
▁मुसा	-10.9107
▁बोले	-10.9107
▁हर्	-10.9112
▁सफलताको	-10.9113
▁ढाँचा	-10.9114
▁पाठेघर	-10.9114
▁वनस्पति	-10.9114
▁विराटनगरमा	-10.9114
▁दसैँ	-10.9114
▁आइफोन	-10.9115
▁तैपनि	-10.9115
▁मुख्यालय	-10.9118
▁वर्	-10.9121
▁ग्रेड	-10.9121
▁भर्ने	-10.9124
▁बाजा	-10.9124
ेत	-10.9124
ेप	-10.9128
▁वर	-10.913
▁हस	-10.9131
हम	-10.9131
▁फेल	-10.9137
प्रेमी	-10.9138
▁वृत्त	-10.9139
▁खेतमा	-10.9148
▁गर्नाले	-10.9155
▁आगजनी	-10.916
▁बीबीसी	-10.916
▁शारदा	-10.916
▁कोरियन	-10.9161
▁अविरल	-10.9161
▁सक्नुपर्छ	-10.9162
▁चार्ज	-10.9162
▁पदयात्रा	-10.9163
श्च	-10.9163
पट्टि	-10.9164
द्धि	-10.9165
▁राजनीतिज्ञ	-10.9165
▁माइती	-10.9171
खेर	-10.9175
▁दायरा	-10.9176
▁२००८	-10.9176
▁माग्ने	-10.9177
▁गराउँछ	-10.9177
▁मुक्तक	-10.9177
▁सक्दो	-10.9179
्दैनन्	-10.9181
▁ओमान	-10.9188
▁गुमाउने	-10.919
▁नगर्दा	-10.9197
▁पनी	-10.9198
▁भी	-10.9199
ेण्ट	-10.9203
▁आतंक	-10.9204
▁सर्वसाधारणको	-10.9204
२९	-10.9205
▁कपिल	-10.9206
०६	-10.9207
▁जडीबुटी	-10.9207
▁वैचारिक	-10.9207
▁चिह्न	-10.9207
▁बाँदर	-10.9207
▁उकालो	-10.9208
▁पराजय	-10.9208
▁कालिकोट	-10.9209
▁नगरप्रमुख	-10.921
▁घोडा	-10.9211
▁कार्यशाला	-10.9211
▁सभाका	-10.9212
पश्चात	-10.9212
रहन्छन्	-10.9214
▁किरा	-10.9215
▁देख्ने	-10.9216
▁एन्ज	-10.9216
▁दिनहुँ	-10.9219
▁मौसममा	-10.9223
▁गराइने	-10.9227
▁गरीब	-10.9227
▁कटान	-10.9234
▁तुलना	-10.9237
▁आङ	-10.9237
▁अर्व	-10.9239
लाख	-10.9239
▁तिहाइ	-10.9255
▁धर्मावलम्बी	-10.9255
▁बंगाल	-10.9255
▁आवको	-10.9255
▁होमस्टे	-10.9255
▁आँसु	-10.9256
३८	-10.9257
▁सरिता	-10.926
क्षी	-10.9261
▁इन्ड	-10.9264
▁वचन	-10.9265
क्री	-10.9266
▁सुखद	-10.9271
्यौँ	-10.9273
्दि	-10.9273
▁तीनजना	-10.9275
▁माझी	-10.9277
गामी	-10.9279
▁लाइट	-10.9283
▁निकायलाई	-10.929
▁मुखमा	-10.929
▁थाम	-10.9295
▁विरुद्धको	-10.9296
▁स्कुलमा	-10.9301
▁परीक्षाको	-10.9302
▁ठूलै	-10.9302
▁असहज	-10.9302
▁भुजेल	-10.9302
▁शिलान्यास	-10.9302
▁वार्षिकोत्सव	-10.9302
▁चियापान	-10.9303
▁प्रजनन	-10.9306
▁परेकी	-10.9307
▁टुङ्गो	-10.9307
चुक	-10.9312
▁लोकप्रियता	-10.9312
▁जीवनका	-10.9317
▁परीक्षणका	-10.9319
▁घटनाका	-10.932
०७६	-10.9321
▁कथामा	-10.9326
▁घटनास्थल	-10.9329
▁नर्सिङ	-10.9332
▁श्रोता	-10.9338
▁राउतले	-10.9338
▁लेखे	-10.9339
▁गीतलाई	-10.9344
ाउँन	-10.9347
▁आपराधिक	-10.935
▁काउन्टर	-10.935
▁तेक्वान्दो	-10.935
▁सुख्खा	-10.935
▁ऋतु	-10.935
▁अभिलेखालय	-10.935
▁आँगन	-10.935
▁छायाँकन	-10.935
▁यादवको	-10.935
▁दीपेन्द्र	-10.9351
▁प्रतिकूल	-10.9352
▁लिंग	-10.9353
▁मास	-10.9353
▁गर्दैछन्	-10.9357
िष्ठ	-10.9357
राह	-10.9359
▁पढेर	-10.9359
▁प्रतिष्ठानले	-10.9362
घन	-10.9363
▁तीव्रता	-10.9366
▁०७४	-10.937
▁कक्षामा	-10.9375
▁केसीलाई	-10.9375
लग	-10.9376
▁संसारभर	-10.9377
िइ	-10.9378
▁विरुद्धमा	-10.9379
कहाँ	-10.938
▁प्राण	-10.938
खल	-10.9382
▁पाएँ	-10.9383
▁वर्णन	-10.9386
▁फाले	-10.9388
पालिका	-10.9388
टेक	-10.939
▁कोट	-10.9391
▁अपन	-10.9391
▁माइल	-10.9391
▁मातृ	-10.9392
ाने	-10.9396
▁प्रक्षेपण	-10.9397
▁रासायनिक	-10.9397
▁तुलनात्मक	-10.9398
▁भन्नेबारे	-10.9398
▁सृष्टि	-10.9399
▁ज्यादै	-10.9399
▁मनमोहन	-10.9401
▁मिलियन	-10.9402
▁एकमात्र	-10.9405
▁त्यसअघि	-10.9407
▁आफूहरुले	-10.9408
▁टुर	-10.9411
▁नजिकैको	-10.9411
▁भरि	-10.9411
▁इजलास	-10.9411
▁सानै	-10.9415
▁मू	-10.9415
▁महानगरपालिकाले	-10.9417
▁गौर	-10.9419
र्जन	-10.9421
यी	-10.9422
धारा	-10.9425
बन्ध	-10.9426
द्घ	-10.9427
▁ताज	-10.9428
सक्नु	-10.9429
▁गरिदिने	-10.9429
▁करोडौं	-10.9429
▁सक्छौं	-10.9435
▁दलहरुले	-10.9435
ब्ब	-10.9437
▁लाखौँ	-10.9438
▁सक्छु	-10.9439
▁त्यहा	-10.9439
▁गाए	-10.9441
▁मिडियामा	-10.9443
▁धुर्मुस	-10.9445
▁रेष्टुरेन्ट	-10.9445
▁वञ्चित	-10.9445
▁सुमधुर	-10.9445
▁बिजेता	-10.9445
▁फुर्सद	-10.9446
▁स्विकार	-10.9446
स्तै	-10.9446
▁ढुंगेल	-10.9449
▁पुलको	-10.9451
▁पञ्जा	-10.9451
▁सप्ताह	-10.9453
▁दशकमा	-10.9458
▁इन्च	-10.9459
▁टाँस	-10.946
▁पुरुषले	-10.9461
▁खाका	-10.9472
▁उल्लेखित	-10.9475
राज्य	-10.9476
ोङ	-10.9479
उँदै	-10.948
छैन	-10.9484
▁हाइड्रो	-10.9484
▁सेनालाई	-10.9485
रेन्स	-10.949
▁सिप	-10.9493
▁इंग्ल्यान्ड	-10.9494
▁ग्रामिण	-10.9494
▁दुर्लभ	-10.9494
▁चुरोट	-10.9494
▁प्रदिप	-10.9494
▁फिलिपिन्स	-10.9494
▁पछाडी	-10.9494
३५	-10.9495
क्रिया	-10.9496
▁दाता	-10.9497
▁सङ्ख्यामा	-10.9499
▁सिंगो	-10.9499
▁बेचेर	-10.9503
▁डबल	-10.9504
▁कोहि	-10.9506
▁पवन	-10.9511
पाई	-10.9511
▁जातिको	-10.9517
▁शोभा	-10.9517
▁आग	-10.9518
▁झरेको	-10.9522
▁जलेर	-10.9523
▁बुझे	-10.9525
ुपर्यो	-10.9527
▁विन्दु	-10.9529
▁मसँग	-10.953
▁बच्चालाई	-10.9541
▁अलैँची	-10.9542
▁सुनचाँदी	-10.9542
▁हावाहुरी	-10.9542
▁हनुमान	-10.9542
▁रूपान्तरण	-10.9543
▁व्यवसायीको	-10.9544
▁सर्ब	-10.9544
▁ढाड	-10.9544
▁मध्यरात	-10.9545
▁चलचित्रका	-10.9549
▁छापिएको	-10.9551
▁मार्क	-10.9552
▁थलो	-10.9554
▁किमी	-10.9558
▁टिमलाई	-10.9562
ह्र	-10.9564
▁मोरङको	-10.9568
याल	-10.9572
्याई	-10.9576
शान	-10.9582
भाइ	-10.9583
▁लेक	-10.9585
▁सक्दछ	-10.9588
▁संसारको	-10.9589
▁सम्झौतामा	-10.9589
▁भ्रष्ट	-10.959
▁उपसभापति	-10.9591
▁पश्चिमाञ्चल	-10.9592
यात	-10.9592
हाल्छ	-10.9594
▁भक्त	-10.9596
▁सेटमा	-10.9597
▁टाइम	-10.9598
प्य	-10.9598
▁प्रेमिका	-10.9602
▁बहानामा	-10.9605
६८	-10.961
▁केन्द्रबाट	-10.961
▁विश्वविद्यालयमा	-10.9612
▁खसी	-10.9613
▁विकट	-10.9614
▁चिल	-10.9615
▁बिर्सन	-10.9615
▁निल	-10.9616
निय	-10.9617
▁संरचनामा	-10.9618
▁रोका	-10.9618
▁गाउँको	-10.962
▁प्यारा	-10.9621
▁वर्षयता	-10.9623
वाहिक	-10.9635
▁निम	-10.9637
▁लगानीकर्ताले	-10.964
▁एकदिवसीय	-10.964
▁खतरनाक	-10.964
▁कठोर	-10.9641
▁आईसीसी	-10.9641
▁एयरपोर्ट	-10.9641
▁आइपुग्दा	-10.9641
▁राजदुत	-10.9641
▁ललित	-10.9642
▁स्क्रिन	-10.9642
▁राख्छ	-10.9642
▁बनाइएका	-10.9643
दिनु	-10.9643
▁२००९	-10.9646
▁तात	-10.9648
वस्था	-10.965
▁नबढ	-10.965
▁क्रमश	-10.9651
्याक	-10.9655
▁मास्क	-10.9658
▁चढेर	-10.9658
▁एकसाथ	-10.9663
▁छाडेको	-10.9665
▁हान	-10.9672
▁जानेछ	-10.9677
▁बट	-10.9688
▁घट्दै	-10.9689
▁भरपर्दो	-10.9689
▁भाइटीका	-10.9689
▁सङ्कट	-10.969
▁कहिलेकाहीँ	-10.9691
▁प्रगतिशील	-10.9692
▁वहाँ	-10.9696
▁लिङ्ग	-10.9697
्फ	-10.9705
कृति	-10.9709
▁युवाहरू	-10.9716
०८	-10.9717
समाचार	-10.9718
▁जटिलता	-10.9719
डोल	-10.9721
▁लोड	-10.9724
ुपर्दछ	-10.9726
▁भर्खर	-10.9728
धे	-10.9729
र्इ	-10.973
▁क्रस	-10.9731
▁किसानको	-10.9731
▁दुर्भाग्य	-10.9739
▁निवर्तमान	-10.9739
▁जुलुस	-10.9739
▁स्तम्भ	-10.9739
▁मीठो	-10.9739
▁स्वरोजगार	-10.9739
▁उपसचिव	-10.9741
▁सम्भाव्यता	-10.9741
▁स्थलमा	-10.9742
▁दुर्इ	-10.9745
▁जुटेको	-10.9746
भल	-10.9748
▁साधना	-10.9749
वृत्ति	-10.9749
▁सुनिता	-10.9751
▁आदान	-10.9754
दुई	-10.9754
▁बदल्न	-10.9755
▁बुझाए	-10.9756
पोर्ट	-10.9756
वाहक	-10.9758
▁अष्ट्रेलियामा	-10.9759
▁तपाईहरु	-10.9766
▁लड्ने	-10.9767
▁चर्च	-10.9768
▁प्रजाति	-10.9772
्नुभयो	-10.9772
३९	-10.9772
▁ढाल	-10.9775
▁बित्तिकै	-10.9782
▁शीर्षकमा	-10.9784
▁रावलले	-10.9785
▁कतारमा	-10.9785
फोर	-10.9786
ेटर	-10.9787
निर्देश	-10.9788
▁गरिदिएको	-10.9788
▁विघटन	-10.9789
▁द्विपक्षीय	-10.9789
▁ब्युरो	-10.9789
▁वाग्ले	-10.9789
▁राधा	-10.9792
▁पदमार्ग	-10.9793
▁आइसकेको	-10.9794
▁बनिरहे	-10.9796
▁केरुङ	-10.9796
▁बालकको	-10.9798
▁गोरु	-10.9805
▁मन्त्रालयलाई	-10.9807
▁तिरेर	-10.9812
▁पराजुलीले	-10.9816
णि	-10.9823
सरकार	-10.9825
▁विभागमा	-10.9828
▁सार्ने	-10.9829
▁हल्ल	-10.9831
▁प्रजिअ	-10.9839
▁प्लास्टिक	-10.9839
▁बेचबिखन	-10.9839
▁संभावना	-10.9839
▁फड्को	-10.9839
▁एसएमएस	-10.9839
▁युगमा	-10.984
मुल	-10.984
▁भूकम्पपीडित	-10.984
▁रसुवागढी	-10.984
▁लालबाबु	-10.984
▁प्रतिनिधिमण्डल	-10.984
▁भद्रपुर	-10.9842
▁निबन्ध	-10.9843
▁शाहको	-10.9844
▁ब्लक	-10.9849
▁आजबाट	-10.9849
▁कार्यक्षेत्र	-10.9851
▁रोगबाट	-10.9853
ाही	-10.986
▁पिडा	-10.986
▁उम्मेद्वार	-10.9862
▁डेरा	-10.987
▁बालिकाको	-10.9878
फ्र	-10.9882
▁करण	-10.9882
▁बिन	-10.9884
▁दिइरहेका	-10.9887
▁संखुवासभा	-10.9889
▁गाउपालिका	-10.9889
▁उग्र	-10.9893
▁अनुमतिपत्र	-10.9896
▁उचाइमा	-10.9899
प्स	-10.9904
▁नगर्नु	-10.9904
▁कार्यकर्ताहरु	-10.9906
▁आँखामा	-10.9908
३१	-10.991
▁बदर	-10.9911
▁सुत्ने	-10.9913
ंद	-10.9913
▁कष्ट	-10.9916
▁प्रतिनिधिहरु	-10.9916
▁गाविसको	-10.9917
▁आउनुभएको	-10.9919
▁फिल्ड	-10.9922
▁सांसदले	-10.9923
भएन	-10.9923
▁रुसी	-10.9927
▁गोल्डेन	-10.9927
▁फेसबुकले	-10.993
्लि	-10.993
पत	-10.9938
▁इंग्ल्याण्ड	-10.9939
▁उजागर	-10.9939
▁चुनौति	-10.9939
▁मोक्तान	-10.9939
▁सिग्देल	-10.9939
▁हलिउड	-10.9939
▁वैठक	-10.9939
▁अचेल	-10.9939
▁इन्डियन	-10.994
▁चलान	-10.9941
लागि	-10.9942
▁अग	-10.9942
ल्या	-10.9947
▁संगित	-10.9947
▁आयाम	-10.995
▁दह	-10.995
▁देखिएन	-10.9952
▁गुमाएको	-10.9956
▁बलिउडमा	-10.9962
▁अबसर	-10.9962
▁शेख	-10.9969
▁उपस्थिती	-10.9971
▁प्रदेशसभाको	-10.9972
▁नस	-10.9973
▁पश्चिममा	-10.9975
पट्टी	-10.9977
नीय	-10.9978
ौला	-10.9984
▁वर्षकी	-10.9987
र्ति	-10.9988
▁मिलाउने	-10.9988
▁कार्कीको	-10.999
▁अनिश्चित	-10.999
▁सिभिल	-10.999
▁मजदूर	-10.999
▁ईलाका	-10.9991
▁तिब्र	-10.9992
▁परदेश	-10.9995
▁हिडे	-10.9995
बाहक	-10.9996
नेपाली	-10.9999
्थिन्	-11.0001
▁तिर्ने	-11.0002
▁तुरुन्तै	-11.0003
▁टीकापुर	-11.0011
▁ओपन	-11.0011
▁भण्डार	-11.0012
▁अम्	-11.0013
हेल	-11.0014
▁नागरिकहरु	-11.0015
▁छैनौं	-11.0019
▁प्राणी	-11.0022
▁वातावरणीय	-11.0023
▁खेल्नेछ	-11.0023
पीआर	-11.0032
▁खाले	-11.0035
▁अदालतबाट	-11.0035
▁उन्मुख	-11.0038
▁विराट	-11.0041
▁ब्रो	-11.0041
▁नयाँदिल्ली	-11.0041
▁म्यानपावर	-11.0041
▁स्थानान्तरण	-11.0041
▁साबित	-11.0042
सक्दा	-11.0042
▁ब्रोकर	-11.0043
▁डोजर	-11.0043
▁प्रालिले	-11.0044
▁नजान	-11.0046
न्डर	-11.0047
▁झ्याल	-11.0055
▁पठ	-11.0055
▁भरे	-11.0058
▁उत्रिएका	-11.0059
▁आठौं	-11.0061
▁हुनुका	-11.0066
▁यथा	-11.0067
▁प्रत्य	-11.0067
▁उदास	-11.007
▁टर्	-11.0072
▁खोजेका	-11.0072
▁तहलाई	-11.0077
▁अभियानका	-11.0078
३६	-11.0078
▁बिर्स	-11.0078
साङ	-11.0079
फोन	-11.0081
▁स्कोर	-11.0084
▁एकदिन	-11.0087
सुन	-11.0087
▁संगठनका	-11.0092
▁थाइल्यान्ड	-11.0092
▁निर्दोष	-11.0092
▁रिसोर्ट	-11.0092
▁तृतीय	-11.0092
▁नेम्वाङ	-11.0092
▁कमरेड	-11.0093
▁पाइपलाइन	-11.0093
▁गौचन	-11.0093
▁बालबालिकाहरु	-11.0093
▁दैनिकी	-11.0093
▁साथीभाइ	-11.0093
▁कार्यालयहरु	-11.0094
▁मिठो	-11.0094
▁बिद्यार्थी	-11.0095
▁सम्ब	-11.0095
▁२०६२	-11.0096
▁गाँजा	-11.0098
▁कमिटि	-11.0098
▁नभइ	-11.0101
▁जनाउन	-11.0102
▁मित्रता	-11.0106
सरी	-11.0108
▁ताक	-11.0108
▁आतिथ्यता	-11.011
०७	-11.0113
▁पोस्टर	-11.0115
▁फोर	-11.012
स्की	-11.0123
▁अना	-11.0128
मेन	-11.0129
डल	-11.0136
▁मन्त्रीहरु	-11.0138
▁दही	-11.014
▁उद्धृत	-11.0144
▁फाउन्डेसन	-11.0144
▁प्रख्यात	-11.0144
▁बाल्यकाल	-11.0144
▁म्यानेजर	-11.0144
▁गुरुयोजना	-11.0144
▁फाल	-11.0145
▁२०६९	-11.0148
कस	-11.0149
▁पिट	-11.0154
▁खानपान	-11.0158
▁भेरी	-11.0159
स्कर	-11.0163
▁नामबाट	-11.0164
▁कम्पनीहरू	-11.0165
▁बाटा	-11.0167
र्फ	-11.0168
▁दाम	-11.0169
छे	-11.0171
ेक्ट	-11.0173
▁मेसी	-11.0174
▁बढ्नेछ	-11.0175
गं	-11.0176
▁बिमल	-11.0177
▁मान्छेलाई	-11.0177
▁बुटवलमा	-11.0178
▁संकटमा	-11.0181
▁पिउन	-11.0181
▁विभागीय	-11.0181
वडा	-11.0188
▁नसकेर	-11.0188
▁अष्ट	-11.0189
▁जोडेको	-11.019
▁उपसभामुख	-11.0196
▁एटिएम	-11.0196
▁एन्ड्रोइड	-11.0196
▁लडाकू	-11.0196
▁शम्भु	-11.0196
▁श्रृंखला	-11.0196
▁कमिसन	-11.0196
▁सयपत्री	-11.0196
▁तातोपानी	-11.0197
▁फ्र	-11.0198
▁जन्मिए	-11.0198
▁धिताल	-11.02
▁पर्दै	-11.0201
ेक्सन	-11.0201
रहँदा	-11.0201
▁उत्रिए	-11.0202
▁व्यवस्थापक	-11.0202
▁सहकर्मी	-11.0203
▁जबकि	-11.0205
▁राष्ट्रका	-11.0206
▁सर्वसाधारणले	-11.0207
वत्	-11.0209
▁पुरिए	-11.021
▁तिमीले	-11.0212
▁गर्नुपरेको	-11.0214
▁मीन	-11.0218
्ट्र	-11.0222
▁मेगावाटको	-11.0226
▁यथावत	-11.0226
▁नआएको	-11.0227
▁कमाई	-11.023
▁थिएटर	-11.0239
भव	-11.024
पुर्ण	-11.0242
▁दाई	-11.0247
▁वारे	-11.0247
▁इजाजत	-11.0248
▁बिष्णु	-11.0248
▁रोपाइँ	-11.0248
▁वैधानिक	-11.0248
▁क्यामरा	-11.0248
▁बसी	-11.025
▁उल्लेखनीय	-11.0252
२१	-11.0255
▁पढ्दा	-11.0256
▁राख्नुपर्ने	-11.0263
▁नेताहरुको	-11.0264
▁गरौँ	-11.0265
सिम	-11.0265
डेर	-11.0269
▁हजारौँ	-11.027
▁भेग	-11.0271
ाइस	-11.0279
▁उद्देश्यका	-11.0279
▁नदि	-11.0279
ारो	-11.0282
▁बनाउनुपर्छ	-11.0288
▁रिजालले	-11.0293
▁लिंक	-11.0295
साहित्य	-11.0295
▁कञ्चन	-11.0296
▁मौ	-11.0299
▁चेकजाँच	-11.03
▁तुलाधर	-11.03
▁पूर्वानुमान	-11.03
▁बिराटनगर	-11.03
▁मृत्युदण्ड	-11.03
▁उब्ज	-11.03
▁राजदूतावास	-11.03
▁जहिले	-11.03
▁चक्रपथ	-11.0301
▁लागिरहेको	-11.0301
▁सूचीकृत	-11.0302
३२	-11.0302
▁सोहि	-11.0302
▁निद्रा	-11.0303
▁भब्य	-11.0303
▁प्यानल	-11.0303
▁अलमल	-11.0305
▁तिनीहरु	-11.0306
▁घटनाबारे	-11.0306
२२	-11.0308
▁पाएनन्	-11.031
च्	-11.0314
▁टोक	-11.032
▁चुरे	-11.0321
बजारमा	-11.0321
▁यसपछि	-11.0322
।[	-11.0327
▁खेलबाट	-11.0328
▁मेन	-11.0332
▁स्थानहरुमा	-11.0332
▁झापाका	-11.0338
स्कृत	-11.0338
▁निकायहरु	-11.0339
▁तोडे	-11.0339
▁मागे	-11.0341
ाह्रै	-11.0341
नायक	-11.0344
▁बन्दी	-11.0345
बुल	-11.0349
अनुरुप	-11.035
▁पालामा	-11.0351
▁मनोविज्ञान	-11.0353
▁ह्वाइट	-11.0353
भए	-11.0353
▁दिपेन्द्र	-11.0353
▁प्रशान्त	-11.0354
▁अधिकारीहरु	-11.0355
▁अस्वस्थ	-11.0355
▁पक्षधर	-11.0356
▁सम्झन	-11.0357
न्ह	-11.0358
▁विरुवा	-11.0359
▁साइत	-11.0359
क्षे	-11.0361
०१	-11.0361
ष्ण	-11.0362
▁जमरा	-11.0362
▁सक्यो	-11.0369
ग्रि	-11.037
▁जायज	-11.037
▁पश्चिमा	-11.0378
▁किनारा	-11.0383
▁सम्बन्धन	-11.0385
▁विल	-11.039
बाङ	-11.039
▁कारागारमा	-11.0393
ीकृत	-11.04
▁पट	-11.0402
ाडी	-11.0404
▁मेह	-11.0405
▁घनश्याम	-11.0406
▁प्रधानसेनापति	-11.0406
▁सोधपुछ	-11.0406
शीघ्र	-11.0406
▁झलनाथ	-11.0406
▁सङ्ग	-11.0407
▁सम्पति	-11.0408
▁स्पेनिस	-11.0409
▁जुटेका	-11.041
▁एफएम	-11.0412
▁भेलाले	-11.0413
▁रूस	-11.0414
▁आचार्यको	-11.0419
ग्लो	-11.0423
▁कपुर	-11.0424
▁रामपुर	-11.0427
च्छा	-11.0435
ेन्ज	-11.0441
▁ये	-11.0445
ित्त	-11.0445
▁ल्याउनु	-11.0448
▁अर्काको	-11.0448
कथा	-11.045
▁दम	-11.0451
▁व्यवस्थापनका	-11.0456
▁लगत	-11.0456
▁छान्न	-11.0457
▁उपमहानगर	-11.0459
▁डेब्यु	-11.0459
▁हाइड्रोपावर	-11.0459
▁मर्ने	-11.0459
विरोधी	-11.0459
अगाडि	-11.0459
▁मज्जा	-11.0459
▁सुरुआत	-11.046
▁रामकृष्ण	-11.0463
▁कसको	-11.0464
▁टोपी	-11.0464
अनु	-11.0467
▁नमाने	-11.0469
▁मुन	-11.0469
इस	-11.047
▁एकदम	-11.0471
▁साउद	-11.0472
▁थपलिया	-11.0473
्याल	-11.0474
▁सारिएको	-11.0474
▁जनही	-11.0474
▁छाया	-11.0475
▁बुझेको	-11.0479
▁निस्	-11.0483
▁ओढ	-11.0483
▁गुमाएर	-11.0484
▁दाग	-11.0486
िनेछ	-11.0486
▁सक्नेछ	-11.049
▁भोग्नु	-11.0491
▁उठ्ने	-11.0493
▁भित्रिएको	-11.0496
▁एब	-11.0498
भोज	-11.0501
पन्न	-11.0502
▁कैदी	-11.0507
ोदय	-11.0507
▁चाहिं	-11.0508
सक्नुपर्ने	-11.0512
▁कार्वाही	-11.0512
▁क्याप्टेन	-11.0512
▁साम्राज्ञी	-11.0512
▁पलायन	-11.0513
▁बताउँछिन्	-11.0513
▁खेले	-11.0514
▁संकल्प	-11.0515
▁हिंसात्मक	-11.0515
▁दिइयो	-11.0518
▁कत्ति	-11.0522
▁पूर्णरुपमा	-11.0525
०३	-11.0526
▁पुराण	-11.0532
▁साहित्यमा	-11.0535
▁मास्टर	-11.054
▁अज	-11.0542
ुप	-11.0542
▁जन्मेको	-11.0547
रत्न	-11.0547
▁नाप	-11.055
शल	-11.0552
▁जातको	-11.0553
मू	-11.0561
▁सहजता	-11.0561
▁विच्छेद	-11.0566
▁विष्फोट	-11.0566
नन्द	-11.0567
▁साइबर	-11.0568
अनुरूप	-11.057
▁अडिसन	-11.057
▁वातावरणमा	-11.0571
▁कठिनाइ	-11.0573
▁उल्टो	-11.0574
▁ऐरी	-11.0575
▁रोल	-11.0576
दीप	-11.0578
खाले	-11.0579
र्जी	-11.0581
यार	-11.0581
▁अली	-11.0581
▁सचिब	-11.0581
▁चिनिन्छ	-11.0585
▁यसवर्ष	-11.0591
▁प्रक्रियालाई	-11.0592
शाला	-11.0592
ेस्	-11.0593
▁खोर	-11.0595
▁ट्वीट	-11.0599
▁हिँड्ने	-11.06
हाले	-11.0601
▁लगे	-11.0604
▁गै	-11.0607
▁सोध्न	-11.0613
▁फोनमा	-11.0616
▁सुत्न	-11.0617
▁बार्	-11.0619
▁पढ्दै	-11.062
▁उत्तरदायित्व	-11.062
▁प्रतिद्वन्द्वी	-11.062
▁बागमती	-11.0621
▁बहुमुखी	-11.0622
नेस	-11.0622
▁आफूसँग	-11.0622
▁घातक	-11.0622
▁धक्का	-11.0622
▁ब्यवस्थापन	-11.0623
▁असहमति	-11.0623
▁२०५९	-11.0623
एजेन्सी	-11.0626
▁सानु	-11.0627
▁चाहिएको	-11.0627
▁एसियन	-11.0628
▁कालि	-11.063
▁नील	-11.063
▁छाता	-11.0634
निर्माण	-11.0634
▁खवर	-11.0636
न्यास	-11.0636
▁वेब	-11.064
▁ऐनमा	-11.0646
न्ती	-11.0646
▁कोमल	-11.0649
ायर	-11.065
▁लत	-11.0651
▁घटाउने	-11.0653
ाउदा	-11.0655
▁रूख	-11.0655
हुँ	-11.0662
▁बिमस्टेक	-11.0663
▁मामिलामा	-11.0663
सिङ	-11.0664
शक	-11.0664
▁गहन	-11.0664
▁चल्दै	-11.067
▁अपरान्ह	-11.0675
▁क्रेडिट	-11.0675
▁जोमसोम	-11.0675
▁गोकर्ण	-11.0675
▁वीरगंज	-11.0675
▁फेर	-11.0675
▁पूर्वाञ्चल	-11.0677
▁थियौँ	-11.0679
▁गस्ती	-11.0679
▁त्यसतर्फ	-11.0679
▁रक्षामन्त्री	-11.068
▁हूँ	-11.0681
▁पाइयो	-11.0683
▁परिषद्को	-11.0685
▁वृद्धिदर	-11.0686
▁नियोग	-11.0687
▁माउ	-11.069
िदिने	-11.0698
▁रियाल	-11.0699
तल	-11.0701
▁पारा	-11.0701
▁उल्ट	-11.0703
▁घट्ने	-11.0705
▁क्रु	-11.0705
सकेकी	-11.0706
▁बर्षीय	-11.0706
घट	-11.0706
▁फुक	-11.0708
मिक	-11.0709
▁चिनिने	-11.071
▁गाउने	-11.0711
▁बनेकी	-11.0712
७७	-11.0715
▁सङ्ग्रह	-11.0716
▁मार्केट	-11.0721
▁दशमल	-11.0726
शरण	-11.0726
▁धितो	-11.0728
▁खुलाउन	-11.0729
▁स्नातकोत्तर	-11.0729
▁कहीँ	-11.0729
▁परिक्रमा	-11.0729
▁घरघरमा	-11.073
▁परिभाषा	-11.073
▁महत्वपुर्ण	-11.073
▁यकिन	-11.073
▁छैटौं	-11.0731
▁२०४६	-11.0733
ंज	-11.0735
▁चिकित्सकको	-11.0735
▁सान	-11.0736
स्वरूप	-11.0738
०४	-11.0743
▁अघिल्ला	-11.0744
▁नलागे	-11.075
▁बोक्ने	-11.075
थ्य	-11.0753
▁शोध	-11.0759
▁महाराज	-11.076
▁बृहत्	-11.076
▁उपज	-11.076
▁आलम	-11.0761
▁विषयगत	-11.0762
िँदैन	-11.0767
▁जमिनमा	-11.0769
▁हुनेगरी	-11.0769
▁बिपी	-11.0772
▁बिहार	-11.0773
▁मनाउँदै	-11.0773
▁प्रतिवादी	-11.0777
▁उनीहरूका	-11.078
ँडा	-11.078
▁श्रद्धा	-11.0784
▁आराधना	-11.0784
▁षड्यन्त्र	-11.0784
▁चाइना	-11.0784
▁माननीय	-11.0785
▁त्यतिखेर	-11.0786
▁भित्रिने	-11.0786
ानन्द	-11.0787
▁वेष्ट	-11.0792
▁घटनाहरु	-11.0795
▁दर्जनौं	-11.0796
▁पार्	-11.0797
लम	-11.0797
▁उपभोग्य	-11.0799
▁बनाउ	-11.0799
हृ	-11.0804
रुवा	-11.0809
▁०७५	-11.0811
द्दा	-11.0811
▁बापत	-11.0812
▁अाज	-11.0815
रहेछ	-11.0818
▁सम्हाल	-11.082
▁खोज्नु	-11.0827
▁नलग	-11.0828
▁अट	-11.0829
▁रातभर	-11.0829
▁नाघे	-11.0832
▁त्यसमध्ये	-11.0835
▁एक्लो	-11.0835
▁काटे	-11.0837
▁इभेन्ट	-11.0839
▁चेल्सी	-11.0839
▁प्रतिष्ठित	-11.0839
▁भियतनाम	-11.0839
▁शंकास्पद	-11.084
▁नेतृ	-11.084
▁कैयौं	-11.084
▁ठमेल	-11.0841
्जे	-11.0843
▁इन्डिया	-11.0843
▁सजग	-11.0845
▁उक्ल	-11.0846
▁साइन्स	-11.0848
०२	-11.0848
▁पदाधिकारीहरु	-11.0849
▁आभार	-11.085
▁आन्दोलनलाई	-11.0853
▁थोक	-11.0856
▁बालिकालाई	-11.0857
पत्रिका	-11.0858
▁घेर	-11.0858
नपुग	-11.086
▁टिपर	-11.0861
▁फुटे	-11.0864
▁बोरा	-11.0866
्याइ	-11.0869
▁अप्	-11.0869
▁मोर्चाको	-11.087
गठन	-11.087
▁रोयल	-11.0872
▁बेन	-11.0873
रिएर	-11.0873
▁बसाई	-11.0877
ुहुँदैन	-11.0878
्रेस	-11.0878
▁तराईमा	-11.0879
▁भत्काए	-11.0885
▁झो	-11.0886
▁गदै	-11.0887
▁दरमा	-11.089
▁सकिएन	-11.0891
▁किनार	-11.0892
▁ढाक	-11.0895
▁अभिषेक	-11.0895
▁महासमिति	-11.0895
▁सुबिधा	-11.0895
▁बैदेशिक	-11.0895
माथी	-11.0895
▁वायुसेवा	-11.0896
▁विवेकशील	-11.0896
▁पुर्याए	-11.0896
▁महाभारत	-11.0897
▁यत्ति	-11.0898
▁एएफसी	-11.0898
▁जंगलमा	-11.0898
मगर	-11.0899
क्व	-11.09
▁हुन्छन	-11.0904
किन	-11.0905
▁घट्यो	-11.0906
▁बताउ	-11.0909
▁डरले	-11.091
कल्प	-11.0914
▁साहस	-11.0915
णा	-11.0917
▁डेटा	-11.0923
....	-11.0925
▁ब्लड	-11.093
▁खरेलले	-11.093
▁असुली	-11.0935
विधा	-11.0939
▁उपाध्यायले	-11.0949
▁आएन	-11.095
▁हाल्न	-11.095
▁खोलाको	-11.0951
▁ओसारपसार	-11.0951
▁यद्यपी	-11.0951
▁हाम्रै	-11.0951
▁परीक्षार्थी	-11.0951
▁एकजुट	-11.0951
▁मेशिन	-11.0951
▁पशुपालन	-11.0952
▁जनरल	-11.0952
▁निशान	-11.0953
▁साक्षी	-11.0953
्लु	-11.0953
▁पत्रिकामा	-11.0954
▁मिलाइएको	-11.0955
न्डो	-11.0956
▁बाउ	-11.0961
▁भन्नुभएको	-11.0962
▁पौ	-11.0963
विक	-11.0966
▁आन्दोलनकारी	-11.0968
उत्	-11.097
▁नग	-11.0971
▁तोक्ने	-11.0973
शिक्षा	-11.0973
▁शुक्रबारदेखि	-11.0974
▁वर्गका	-11.0975
नियाँ	-11.0975
▁समाचारपत्र	-11.0978
▁पर्यटकहरु	-11.098
क्यान	-11.0981
▁कारक	-11.0982
▁खाँ	-11.0985
▁सप्तरीको	-11.0995
▁त्रिशूली	-11.1007
▁मोबाईल	-11.1007
▁राजकीय	-11.1007
६६	-11.101
▁स्टेसन	-11.1011
▁दाउरा	-11.1012
ये	-11.1013
▁जुनियर	-11.1016
▁परेन	-11.1017
▁मेड	-11.1019
िएन	-11.1024
जस	-11.1025
▁ल्याइने	-11.1027
▁कलेजो	-11.1028
ज्य	-11.103
बाबा	-11.1037
▁एकाइ	-11.1038
▁चलेका	-11.104
▁कार्यपालिका	-11.1049
▁सिम्	-11.1062
टेड	-11.1063
▁आक्रामक	-11.1064
▁कीर्तिपुर	-11.1064
▁सन्तुलित	-11.1064
▁उपलक्ष्य	-11.1064
▁प्रलोभन	-11.1064
▁हौसला	-11.1064
विरूद्ध	-11.1064
▁साँचो	-11.1065
▁सांसदहरु	-11.1065
▁युरोपियन	-11.1066
▁महर्जनले	-11.1067
▁अनुपात	-11.1069
▁भूमिगत	-11.107
पाली	-11.107
▁इन्फ	-11.1071
▁घण्टामा	-11.1074
लाप	-11.1074
▁जन्मेका	-11.1083
▁मर्जर	-11.1084
बाँकी	-11.1085
▁एभि	-11.109
र्खा	-11.1096
▁झै	-11.11
नौ	-11.1105
▁चारै	-11.1109
▁खोजि	-11.1111
▁प्रदर्शनीमा	-11.1114
▁सातै	-11.1115
▁काउ	-11.1115
▁प्रतिबद्ध	-11.1116
▁एक्सचेन्ज	-11.112
▁बाँडफाँड	-11.112
▁सनराइज	-11.112
▁विश्वसनीय	-11.112
▁कराते	-11.112
▁सिनियर	-11.112
▁रणवीर	-11.1121
▁यूरो	-11.1121
▁पेन्सन	-11.1121
▁कटुवाल	-11.1121
▁कालापानी	-11.1121
▁न्यायपालिका	-11.1122
▁पठाएका	-11.1123
▁खुल्यो	-11.1125
▁विहार	-11.1126
▁च्याट	-11.1127
दह	-11.1134
▁गाडि	-11.1137
छौँ	-11.1141
▁बना	-11.1143
▁पढाउन	-11.1145
वरी	-11.1145
▁गोरे	-11.1146
देब	-11.1151
साम	-11.1152
▁पालो	-11.1153
६५	-11.1156
▁मुटुको	-11.1157
▁जान्छन्	-11.1162
म्बो	-11.1167
▁उपलव्ध	-11.1178
▁फाइबर	-11.1178
▁रौनक	-11.1178
▁सच्याउन	-11.1178
▁बोक्सी	-11.1179
▁इस्	-11.118
▁भित्र्याउन	-11.1181
▁एकैपटक	-11.1182
▁नआउने	-11.1184
▁अनन्त	-11.1184
लागी	-11.1186
खला	-11.1186
▁जातका	-11.1191
▁अनी	-11.1192
रिज	-11.1194
▁पिस	-11.1195
▁कसलाई	-11.1201
▁नभ	-11.1202
▁पढाउने	-11.1203
▁बृद्ध	-11.1205
▁संकल	-11.1205
▁महिलाहरुले	-11.1205
▁कामकाज	-11.1206
्रु	-11.1211
▁सञ्ज	-11.1211
▁लास	-11.1212
▁सुनाएको	-11.1215
▁वर्गको	-11.1218
वपूर्ण	-11.122
▁तुल्याउन	-11.1221
▁याङ	-11.1227
▁गुमाए	-11.1228
ुहुनेछ	-11.1229
बै	-11.1229
▁वाई	-11.1233
▁फाउण्डेशन	-11.1235
▁महायज्ञ	-11.1235
▁राजभण्डारी	-11.1235
▁प्रतिष्पर्धा	-11.1235
▁ओबामा	-11.1235
▁कुश्मा	-11.1236
▁वताए	-11.1237
जार	-11.1237
▁प्रयोजन	-11.1238
▁भेडा	-11.1241
▁सल	-11.1241
मन्त्र	-11.1242
▁गराउँदा	-11.1242
▁अलिक	-11.1248
क्कै	-11.125
जोग	-11.1252
▁रोकिए	-11.1253
▁नराख	-11.1254
व्यापी	-11.1255
▁टिमका	-11.1256
▁ताप	-11.1256
▁पिउने	-11.1257
▁कास्कीका	-11.1259
▁और	-11.1261
किशोर	-11.1262
वरण	-11.1262
▁सेनामा	-11.1274
क्रि	-11.1275
▁बुझेका	-11.1278
▁विज्ञहरु	-11.1283
परी	-11.1285
पुत्र	-11.1289
▁ओझेलमा	-11.1292
▁समकक्षी	-11.1293
▁अश्लील	-11.1293
▁दरखास्त	-11.1293
▁घरायसी	-11.1293
▁धमला	-11.1293
▁एकाउन्ट	-11.1293
▁इमानदार	-11.1293
▁माहोल	-11.1293
▁नामाकरण	-11.1293
▁हत्याकाण्ड	-11.1293
▁प्रवन्ध	-11.1293
▁फुटसल	-11.1294
▁मञ्चन	-11.1294
▁भइसक्यो	-11.1294
▁भित्ता	-11.1295
▁भावुक	-11.1295
▁भिज	-11.1297
▁साक्षरता	-11.1298
▁पाक	-11.1299
▁बगाएको	-11.13
▁कोरियाका	-11.1301
▁अग्रज	-11.1302
▁पकाउने	-11.1302
▁भारतबीच	-11.1304
▁उल्टै	-11.1305
▁मोडलिङ	-11.1306
▁बसिरहेका	-11.1307
▁पुस्तकमा	-11.1315
▁गर्छिन्	-11.1317
▁बनि	-11.1318
सेवक	-11.1319
▁सम्झनामा	-11.1325
विज्ञ	-11.133
▁तिनीहरूले	-11.1331
▁जलेश्वर	-11.1338
▁धोका	-11.1339
ङ्गो	-11.1341
ांक	-11.1341
▁व्	-11.1342
विन्द	-11.1343
▁सुनिश्चितता	-11.1346
३७	-11.1347
▁बाँस्कोटाले	-11.1351
▁घरजग्गा	-11.1351
▁नकआउट	-11.1351
▁लोहनी	-11.1351
▁दशरथ	-11.1351
▁कालीगण्डकी	-11.1351
▁यसबाहेक	-11.1354
▁रोजगारदाता	-11.1354
▁गुम्बा	-11.1354
▁जड	-11.1355
▁उभिन	-11.1356
▁मेघ	-11.1357
▁मार्क्स	-11.1359
▁लाभान्व	-11.1362
▁टायर	-11.1362
▁स्पेस	-11.1362
▁उद्	-11.1366
▁सोसल	-11.1367
▁एडि	-11.1367
▁भेटियो	-11.1371
.....	-11.1372
▁बदला	-11.1376
▁उन्नति	-11.1381
▁तिमीहरू	-11.1385
▁देवकोटाले	-11.1386
भू	-11.139
धाम	-11.1393
▁बाहुन	-11.1396
पिए	-11.14
▁छोए	-11.1401
▁बाहिरबाट	-11.1404
▁चुस्त	-11.1409
▁थप्न	-11.1409
▁किनबेच	-11.1409
▁डिस्चार्ज	-11.1409
▁महाप्रबन्धक	-11.1409
▁राष्ट्रवादी	-11.1409
▁विनिमय	-11.1409
▁वैदिक	-11.1409
▁भरोसा	-11.1409
▁भाँडा	-11.1411
▁शरण	-11.1411
▁वक्ता	-11.1412
▁शंख	-11.1412
▁नदिई	-11.1413
▁हँस	-11.1414
▁हाँस्य	-11.1418
▁युएस	-11.1419
▁विषयक	-11.1422
▁बुझाएका	-11.1423
▁बुझिएको	-11.1425
▁गाइ	-11.1427
▁गतवर्ष	-11.1428
७९	-11.1432
▁उन्	-11.1438
▁मिलाए	-11.1438
उड	-11.1438
▁भेलामा	-11.1438
▁सोलु	-11.1439
▁यस्	-11.144
▁भेट्ने	-11.1442
▁छुट्याए	-11.1444
इट	-11.1446
फिल	-11.1447
फिक	-11.1447
▁तोड्न	-11.1449
▁नवलपरासीको	-11.1452
▁भन्थे	-11.1455
जय	-11.1456
्युट	-11.1457
जीवन	-11.1459
▁झाले	-11.146
▁स्टुडियो	-11.1468
▁समिक्षा	-11.1468
▁कोलकाता	-11.1468
▁गुज्र	-11.1468
▁दमौली	-11.1469
▁प्रतीक्षा	-11.1469
▁दंग	-11.1469
ध्वज	-11.147
▁जोगिन	-11.147
▁लै	-11.147
▁शब्दमा	-11.1471
तह	-11.1472
▁अनुपस्थित	-11.1475
▁रिपोर्टर्स	-11.1475
▁आक्रोशित	-11.1477
▁भिर	-11.1478
▁मानिसमा	-11.1479
धु	-11.148
▁ट्रान्सफर	-11.1482
▁मोटो	-11.1482
रिन	-11.1483
▁चाही	-11.1484
▁पाउनुपर्ने	-11.1485
▁राख्नुपर्छ	-11.1487
▁महिने	-11.1488
▁गर्नुपर्नेछ	-11.1508
कट	-11.1509
सेल	-11.151
▁मरेको	-11.1513
▁अर्थतन्त्रमा	-11.1522
कुन	-11.1524
▁भेष	-11.1524
▁कभर	-11.1524
▁गोल्ड	-11.1525
गाई	-11.1526
▁ल्यापटप	-11.1527
▁शृंखला	-11.1527
▁श्रद्धाञ्जली	-11.1527
▁खगेन्द्र	-11.1527
▁पृथक	-11.1527
कण्ठ	-11.1527
▁टेक्नोलोजी	-11.1528
▁बज्राचार्य	-11.1528
▁तरुण	-11.1528
▁वामदेव	-11.1531
▁सहमती	-11.1534
▁विमानस्थलबाट	-11.1535
▁ज्यू	-11.1537
▁नापी	-11.1538
▁मान्छेहरु	-11.1541
▁भक्तपुरमा	-11.1541
होस	-11.1542
▁सबैजसो	-11.1542
▁जनाउने	-11.1543
▁गुरुङ्ग	-11.1544
▁प्रायोजन	-11.1546
िस्तान	-11.1548
▁सांसदहरुले	-11.1549
▁भीर	-11.1559
▁कार्यपत्र	-11.1562
▁जव	-11.1564
मह	-11.1566
तारा	-11.1566
▁ट्राभल	-11.1568
▁बाँचे	-11.1569
▁ताला	-11.157
▁देखाइ	-11.1575
केन्द्रित	-11.1576
▁मोल	-11.158
▁साइन	-11.1581
▁डाँ	-11.1581
▁सघ	-11.1584
▁ब्याट	-11.1585
विर	-11.1585
▁सेन्टरमा	-11.1586
▁उपप्रधान	-11.1587
▁ब्याट्सम्यान	-11.1587
▁जनमुक्ति	-11.1587
▁सञ्चय	-11.1587
▁पेस्तोल	-11.1587
▁कमेडी	-11.1587
डु	-11.1588
▁पहिल्यै	-11.159
▁यन्त्र	-11.1591
लिंग	-11.1591
▁हुनुभयो	-11.1593
▁क्रो	-11.1594
▁एअर	-11.1594
▁२०६०	-11.1595
▁उत्क	-11.1596
▁जन्माए	-11.16
▁फेस	-11.1603
बाल	-11.1603
दैछ	-11.1604
▁काला	-11.1606
्डी	-11.1607
▁तँ	-11.1608
७१	-11.1609
▁उत्त	-11.1612
▁बिजयी	-11.1613
साव	-11.1614
हिल	-11.1616
▁बीस	-11.1618
▁भिजन	-11.1618
श्रम	-11.162
▁निकासा	-11.1621
आफ्नो	-11.1622
▁गतिलो	-11.1622
डिङ	-11.1628
▁बोलेको	-11.1639
▁छोरालाई	-11.1644
▁कार्यतालिका	-11.1647
▁श्रीलङ्का	-11.1647
▁समसामयिक	-11.1647
▁नहोला	-11.1647
▁अब्बल	-11.1647
▁कान्छा	-11.1647
▁बाबुआमा	-11.1647
▁च्याप्टर	-11.1647
▁बुद्धिजीवी	-11.1647
▁नपाउँदा	-11.1648
▁गर्दैनन्	-11.165
▁लोकमार्ग	-11.1651
▁बोलाएको	-11.1651
▁निस्कने	-11.1652
▁स्वास्थ	-11.1652
▁आपूर्तिकर्ता	-11.1652
पञ्च	-11.1654
▁च्याप	-11.1655
पनी	-11.1657
▁हामि	-11.1658
▁निकाल्दै	-11.1659
▁टेलि	-11.166
▁अधिकारीहरू	-11.166
हिँ	-11.1665
▁रातको	-11.1665
▁पुगि	-11.1667
न्ना	-11.167
▁आँ	-11.1671
▁ब्रि	-11.1675
▁देवकोटाको	-11.1679
▁जुट्न	-11.1679
▁प्रतियोगी	-11.1681
ंगल	-11.1685
▁उठाउँदै	-11.1687
▁२५०	-11.1689
रहनु	-11.1689
▁टिममा	-11.1693
▁छुट्याउन	-11.1697
▁नेताहरूको	-11.1701
▁कोसिस	-11.1705
▁गएकी	-11.1706
!!!	-11.1706
▁अभिनन्दन	-11.1707
▁आव्हान	-11.1707
▁बास्कोटा	-11.1707
▁पार्टनर	-11.1707
▁बाँडे	-11.1707
▁अगष्ट	-11.1709
▁बेहोस	-11.1709
▁नेप	-11.171
▁२०६१	-11.1711
▁स्वर्गीय	-11.1713
▁२०६५	-11.1713
▁बताईए	-11.1713
▁परिपत्र	-11.1715
मिटर	-11.1715
▁चौधरीलाई	-11.1718
▁लज	-11.172
भ्	-11.1722
▁बढाएका	-11.1726
▁नशा	-11.173
▁सम्हाले	-11.1733
भिन	-11.1733
▁पौडेललाई	-11.1734
यदी	-11.1743
▁पूर्वमन्त्री	-11.1745
टपट	-11.1747
साधारण	-11.1753
फोटो	-11.1753
ब्रे	-11.1756
[	-11.1759
▁भरी	-11.1761
िन्द्र	-11.1762
सिसि	-11.1764
▁थम	-11.1766
▁अक्सिजन	-11.1768
▁इन्स्टाग्राम	-11.1768
▁उद्घोष	-11.1768
▁त्रुटि	-11.1768
▁मिलेमतो	-11.1768
▁लापरबाही	-11.1768
▁करिअर	-11.1768
▁एघार	-11.1768
▁बिग्रिए	-11.1768
▁नोबेल	-11.1768
५५	-11.1768
▁नविन	-11.1768
▁नचा	-11.1769
▁असम्भव	-11.177
रानी	-11.177
मरी	-11.177
▁बोक्न	-11.1771
भेद	-11.1771
▁प्रिन्ट	-11.1771
▁मिस्टर	-11.1772
▁तै	-11.1774
▁औंला	-11.1774
▁शास्त्रीय	-11.1775
▁असफलता	-11.1777
▁जीबी	-11.1777
जाइ	-11.1778
▁माग्दै	-11.1778
▁आरोही	-11.1778
ल्लाह	-11.1779
र्वा	-11.1779
▁सोलार	-11.1779
▁पाखा	-11.1781
▁मातहत	-11.1785
▁बैंकबाट	-11.1786
▁प्रचण्डलाई	-11.1788
▁गिर	-11.1795
गंज	-11.1805
ग्राह	-11.1806
▁उपलब्धी	-11.1807
▁बसाइ	-11.1816
▁फर्काए	-11.1818
▁अपाङ्ग	-11.1821
▁तोक्न	-11.1823
▁बिजय	-11.1824
▁प्रण	-11.1827
▁यौनसम्पर्क	-11.1829
▁परमाणु	-11.1829
▁सुगम	-11.1829
▁माओबादी	-11.1829
▁रङ्गशाला	-11.1829
▁ससुरा	-11.1829
▁जनमोर्चा	-11.183
▁अनुबन्ध	-11.183
▁अवतार	-11.183
▁बढाउँदै	-11.1834
▁अक्षय	-11.1834
▁याए	-11.1834
बर्ष	-11.1834
▁लडाई	-11.1835
▁युनि	-11.1835
▁चल्यो	-11.1838
▁मुखिया	-11.1841
▁सेल्फी	-11.1842
▁प्रधानले	-11.1843
ाधार	-11.1844
श्वर	-11.1846
युग	-11.1847
▁बढाउनु	-11.1848
▁चट्याङ	-11.1849
वटै	-11.185
्यै	-11.1854
▁चढेको	-11.1855
▁धन्दा	-11.1855
▁घटनास्थलमा	-11.1861
▁चिकित्सकहरु	-11.1863
▁इराक	-11.1866
ाकार	-11.1866
▁हराए	-11.1869
स्टार	-11.187
▁सिकाउन	-11.187
▁भद्र	-11.1874
दर्शन	-11.1877
▁राईलाई	-11.1882
छौ	-11.1883
डियो	-11.1886
▁मातहतका	-11.1887
▁अनुपातमा	-11.1887
्वे	-11.1888
▁रोए	-11.1888
▁आवागमन	-11.189
▁कोहलपुर	-11.189
▁क्यानाडा	-11.189
वर्त	-11.189
▁भड्क	-11.189
▁खोस	-11.189
▁गौशाला	-11.189
▁रचनात्मक	-11.1891
▁कोटेश्वर	-11.1891
▁वित्तिय	-11.1893
▁देखाइएको	-11.1894
▁आचरण	-11.1894
▁ल्यायो	-11.1894
▁जिताउन	-11.1895
निका	-11.1897
▁कयौं	-11.1898
▁गरेकै	-11.1899
▁त्योभन्दा	-11.19
▁करियर	-11.19
पंक्ति	-11.1901
▁चित्रण	-11.1901
▁खुवाउने	-11.1907
▁अनुहारमा	-11.1916
▁सर्ट	-11.192
▁दशकदेखि	-11.1927
ूँ	-11.1928
पर्व	-11.1929
▁नाकाबाट	-11.1936
▁मुना	-11.1937
▁उदेश्य	-11.1945
खिम	-11.1947
▁डेनमार्क	-11.1952
▁धैर्य	-11.1952
▁नवनिर्वाचित	-11.1952
▁रुघाखोकी	-11.1952
▁हिम्मत	-11.1952
▁रिचार्ज	-11.1952
▁डेंगु	-11.1952
▁सदैव	-11.1952
▁पुतली	-11.1952
▁राहुल	-11.1952
▁राजवंशी	-11.1952
▁कन्सर्ट	-11.1952
▁महालक्ष्मी	-11.1953
▁कार्यशैली	-11.1954
▁स्वामी	-11.1955
▁अनुसन्धानकर्ता	-11.1956
▁खासमा	-11.1957
▁मुलुकबाट	-11.1958
▁कार्यभार	-11.196
▁घटनास्थलमै	-11.196
▁२००६	-11.1961
▁मिलान	-11.1962
▁स्पष्टीकरण	-11.1963
▁बिहानैदेखि	-11.1964
जक	-11.1965
ासी	-11.1967
▁केयर	-11.1972
▁पोखे	-11.1973
पाद	-11.1973
▁मनाइएको	-11.1974
▁ग्रिन	-11.1974
▁नपाएर	-11.1974
▁नेताहरुलाई	-11.1977
▁भैसके	-11.1981
▁खण्डको	-11.1985
▁फाँट	-11.1989
४२	-11.1991
▁उपर	-11.1996
िरहने	-11.1999
▁दाउ	-11.1999
▁पक्षका	-11.2001
३४	-11.2004
भुत	-11.2004
काठमाडौं	-11.2006
▁पार्नु	-11.2007
▁किमि	-11.2013
▁टूर्नामेंट	-11.2014
▁पुनरावेदन	-11.2014
▁महशुस	-11.2014
▁वकालत	-11.2014
▁सङ्केत	-11.2014
ुपथ्र्यो	-11.2014
▁मन्द	-11.2015
▁हिजोआज	-11.2015
▁बन्धन	-11.2015
▁बोलाए	-11.2015
▁वेल	-11.2017
▁योगेश	-11.2018
▁नलिए	-11.2019
▁प्लान	-11.2019
▁सेफ	-11.2019
▁जुस	-11.2019
हट	-11.2019
▁मुहार	-11.2021
▁आँप	-11.2022
▁भूमिमा	-11.2028
▁महत्वका	-11.203
▁तथापि	-11.2031
चुली	-11.2033
▁कार्यकालमा	-11.2039
▁जानुपर्छ	-11.2044
▁ग्ल	-11.2047
▁कं	-11.2048
▁उनीमाथि	-11.205
त्क	-11.205
▁सिनेट	-11.2052
▁लाम	-11.2058
▁गर्नसक्ने	-11.2067
७८	-11.2068
▁बोर्डका	-11.207
साइ	-11.2076
▁अघिदेखि	-11.2076
घो	-11.2076
▁आत्मविश्वास	-11.2076
▁तम्घास	-11.2076
▁दिउसो	-11.2076
▁पन्ध्र	-11.2076
▁पुनरावलोकन	-11.2076
▁समुन्द्र	-11.2076
▁रुपैंया	-11.2076
▁नारायणकाजी	-11.2078
नेट	-11.2079
▁४००	-11.2079
▁चम्क	-11.2079
▁ब्ल्याक	-11.208
▁सप्त	-11.208
▁छायाँ	-11.2084
▁कोषाध्यक्षमा	-11.2085
▁अंकित	-11.2086
मिट	-11.2087
▁गरिरहेकी	-11.2087
▁क्लिनिक	-11.2094
▁अगावै	-11.2106
▁घटनाक्रम	-11.2113
▁हाजिर	-11.2115
▁रत्ननगर	-11.2117
▁परिस्थितिमा	-11.2119
▁रहेकाे	-11.212
ाइए	-11.2125
▁प्रसाई	-11.2139
▁इजिप्ट	-11.2139
▁दुव्र्यवहार	-11.2139
▁एकादशी	-11.2139
▁पुनःस्थापना	-11.2139
▁दुर्व्यवहार	-11.2139
▁बखत	-11.2139
▁हेरफेर	-11.214
▁महल	-11.214
▁संग्रहालय	-11.214
▁भूटान	-11.214
▁बलिदान	-11.2141
ट्टी	-11.2141
▁जिम	-11.2142
▁मनाइन्छ	-11.2146
छिरिङ	-11.2149
▁बोर्डिङ	-11.2154
▁दीपकराज	-11.2155
▁कुद	-11.2157
▁कलेजले	-11.2161
▁नाउँ	-11.2166
▁नाघ	-11.2168
▁सम्वन्धी	-11.2169
▁चन्दले	-11.217
यन्त्र	-11.217
▁लिनुपर्छ	-11.2173
▁योगी	-11.2175
बेल	-11.2179
▁दिनेछ	-11.2182
▁थप्ने	-11.2183
▁पिच	-11.2183
▁समस्याहरु	-11.2185
▁लीला	-11.2186
▁हुनै	-11.2187
▁सान्दर्भिक	-11.2191
▁दाङमा	-11.2195
▁बुझाई	-11.22
▁गैंडा	-11.2202
▁अरेबिया	-11.2203
▁कृत्रिम	-11.2203
▁प्रतिकृया	-11.2203
▁बहिष्कार	-11.2203
▁ब्यूरो	-11.2203
▁नवलपुर	-11.2203
▁अभिनित	-11.2203
▁नेसनल	-11.2203
▁सामसुङ	-11.2203
▁मारमा	-11.2204
▁डेस्क	-11.2206
▁सार्न	-11.2206
▁दिव्य	-11.2207
▁सीमाना	-11.2207
▁नेट	-11.2208
▁देशबाट	-11.2209
▁माडी	-11.2209
ँडी	-11.2209
▁विक्रि	-11.2209
▁गरिनुपर्ने	-11.2211
▁बर्ग	-11.2212
फेदी	-11.2218
▁जून	-11.2219
▁पुग्छन्	-11.2222
▁दुःखद	-11.2227
▁ताम	-11.223
▁साहु	-11.2231
खोलामा	-11.2232
▁शीतल	-11.2233
▁यिनीहरू	-11.2235
▁पण्डितले	-11.2236
▁कमेन्ट	-11.2238
विकास	-11.224
४७	-11.2241
शय	-11.2242
न्छन्	-11.2246
▁अक्	-11.2249
▁ओड	-11.225
रोल	-11.2251
▁पाइन	-11.2259
८५	-11.2263
एफए	-11.2263
▁०७३	-11.2264
रमण	-11.2264
▁त्रिवेणी	-11.2266
▁दार्जिलिङ	-11.2266
▁प्याराग्लाइडिङ	-11.2266
▁प्लाष्टिक	-11.2266
▁बोगटी	-11.2266
▁म्यासेज	-11.2266
▁कम्मर	-11.2266
▁शिक्षित	-11.2267
▁कर्मचारीहरू	-11.2267
▁माइतीघर	-11.2267
शङ्कर	-11.2267
▁राष्ट्रवाद	-11.2268
▁लिइन्छ	-11.2268
▁पितृ	-11.2268
▁तरलता	-11.2269
▁मैत्रीपूर्ण	-11.2269
▁आशिष	-11.227
▁मुड	-11.227
▁माओ	-11.227
▁कागती	-11.2272
ः३०	-11.2272
▁तहसम्म	-11.2272
सरह	-11.2274
गरे	-11.2276
▁सदर	-11.2278
▁दिइन्छ	-11.2279
ुला	-11.2279
▁लाग्नेछ	-11.228
▁पक्षबाट	-11.2282
▁धान्न	-11.2282
▁सग	-11.2282
▁बढाउँछ	-11.2284
▁जर्ज	-11.2287
▁गर्ला	-11.2289
▁जुम्लामा	-11.2289
▁छिर	-11.2292
▁जमे	-11.2293
९६	-11.2296
्स्	-11.2299
▁आहार	-11.2302
▁अन्तमा	-11.2303
▁बुलेट	-11.2304
▁मजा	-11.2306
▁मिल्नेछ	-11.2307
▁व्यास	-11.2308
▁कन्स	-11.2311
उद	-11.2317
▁गर्छौ	-11.2322
▁बरालले	-11.2324
दम	-11.2327
४४	-11.2328
▁मेलबर्न	-11.233
▁गल्कोट	-11.233
▁डीएसपी	-11.233
▁प्रसूति	-11.233
▁रक्सौल	-11.233
▁चौतारी	-11.233
▁एकिकृत	-11.233
▁अलावा	-11.233
▁टहरा	-11.2332
▁मिनी	-11.2336
▁फक	-11.2336
▁उदेश्यले	-11.2338
▁सन्ध्या	-11.2339
शासन	-11.2339
ट्टे	-11.234
▁निशा	-11.2342
िंदा	-11.2343
▁लागेन	-11.2348
सुम	-11.2349
▁सर्ने	-11.2349
▁भर्	-11.2351
लाङ	-11.2355
▁लक	-11.2356
भिडियोसहित	-11.2362
विच	-11.237
▁गर्नुपर्दछ	-11.2372
पिएस	-11.2373
▁ज्यु	-11.2378
मुनी	-11.2379
▁अरूलाई	-11.2384
डेन	-11.2388
▁राजमार्गमा	-11.2388
▁इन्दिरा	-11.2395
▁ग्यालेक्सी	-11.2395
▁बर्दिवास	-11.2395
▁एउटी	-11.2395
▁इञ्जिनियर	-11.2395
▁नाट्य	-11.2395
▁बद	-11.2395
▁रानीपोखरी	-11.2396
▁परिश्रम	-11.2396
▁फेर्न	-11.2396
▁भुइँ	-11.2397
▁सचेतक	-11.2397
▁समाजिक	-11.2398
व्यवस्था	-11.2398
▁देवेन्द्र	-11.24
▁प्रकृतिका	-11.2402
ुरो	-11.2402
▁द्वि	-11.2406
▁लिँदा	-11.2407
▁आमिर	-11.241
▁छानिए	-11.241
▁अधिकारीहरूले	-11.2413
टाउन	-11.2415
चोटि	-11.2415
▁रामेश्वर	-11.2417
वानी	-11.2418
▁नोक्सानी	-11.242
िसकेपछि	-11.242
▁लेखि	-11.2421
▁बस्छन्	-11.2422
▁गर्नुस्	-11.2422
पिट	-11.2424
▁बिदेशी	-11.2425
फिन	-11.2426
▁संघिय	-11.2432
ंध	-11.2436
िरहँदा	-11.2437
▁रुपा	-11.2437
▁सयौँ	-11.2438
स्त्र	-11.2438
▁क्रिया	-11.2449
फुल	-11.245
▁दृढ	-11.245
▁लेनिन	-11.2451
कुटी	-11.2455
▁क्वारेन्टाइनमा	-11.2456
▁कृषकलाई	-11.2457
▁गर्नुहोस	-11.2457
▁कुलमान	-11.2459
▁बोहोरा	-11.246
▁लाभग्राही	-11.246
▁बिनोद	-11.246
▁भ्वाइस	-11.246
एएफपी	-11.246
▁शायद	-11.246
▁बद्री	-11.246
▁चेपाङ	-11.2461
▁संचारकर्मी	-11.2462
▁पुगिसकेको	-11.2462
स्वास्थ्य	-11.2464
▁विज्ञहरू	-11.2464
▁छँदै	-11.2465
▁संयोग	-11.2467
▁देशकै	-11.2467
▁सांसदहरू	-11.2472
▁प्रदर्शनकारी	-11.2473
▁जीवन्त	-11.2474
▁भान	-11.2475
गीत	-11.2476
▁गर्नुहोला	-11.2478
३३	-11.2478
▁आशय	-11.2479
▁आर्यन	-11.248
▁हराएका	-11.2482
▁प्यालेस	-11.2483
▁गर्दछौं	-11.2486
न्दु	-11.2486
▁कक्षमा	-11.249
बुक	-11.2493
▁समयअघि	-11.2495
▁साङ्	-11.2495
▁समुहले	-11.2503
▁जेट	-11.2505
▁स्लट	-11.2506
्च	-11.2507
▁मलाइ	-11.2507
गाँ	-11.2508
▁बाँच	-11.2513
▁बासिन्दाले	-11.2516
औ	-11.2516
▁व्यव	-11.252
०९	-11.2523
▁सेकेण्ड	-11.2525
▁दुतावास	-11.2525
▁हड्डी	-11.2525
▁महंगो	-11.2525
▁सुलभ	-11.2525
▁राउण्ड	-11.2525
▁महालेखा	-11.2525
▁एक्सप्रेस	-11.2526
▁शिल्पा	-11.2526
▁सुडान	-11.2526
यि	-11.2526
▁छुट्याइएको	-11.2526
▁बानियाँ	-11.2528
▁उतै	-11.2529
▁मस्त	-11.2529
▁पटेल	-11.2532
▁सातादेखि	-11.2534
▁दोषीलाई	-11.2539
६९	-11.2548
मूल	-11.2549
▁भूकम्पबाट	-11.2553
▁बग्ने	-11.2554
गञ्ज	-11.2554
▁खुवाउन	-11.2555
▁गरौ	-11.2557
८८	-11.256
▁भत्काउन	-11.256
▁नाई	-11.2561
▁जनकपुरमा	-11.2561
▁घरभित्र	-11.2563
▁पुष्पा	-11.2564
▁खस्क	-11.2564
▁सान्	-11.2565
▁कन्या	-11.2568
बिज	-11.2571
इङ	-11.2571
बर्ग	-11.2573
▁सभ्य	-11.2573
▁नगरिएको	-11.2576
▁आइतबारदेखि	-11.2581
मणी	-11.2584
▁पढौ	-11.2591
▁महाभूकम्प	-11.2591
▁अप्ठेरो	-11.2591
▁कोरियोग्राफी	-11.2591
▁प्यूठान	-11.2591
▁हानिकारक	-11.2591
▁कालोबजारी	-11.2591
▁कलंकी	-11.2591
▁सम्प्रेषण	-11.2591
▁किराँत	-11.2591
▁टेनिस	-11.2592
▁प्रोटिन	-11.2592
▁शुन्य	-11.2592
▁सुरुवाती	-11.2596
▁पड्क	-11.2596
▁त्यत्तिकै	-11.2597
इला	-11.2598
▁गल्ली	-11.2598
▁परिवारजन	-11.2607
▁हितका	-11.2607
▁पेन्ट	-11.2607
क्सि	-11.261
▁भएछ	-11.261
▁मौसमी	-11.2611
जङ्ग	-11.2612
▁झर्	-11.2616
▁सिंग	-11.2617
▁कोर्ट	-11.2622
▁मन्त्रालयबाट	-11.2626
रोड	-11.2626
रास्ट्र	-11.2627
▁सकि	-11.2629
▁सबैतिर	-11.263
धर्म	-11.2633
▁नपाएका	-11.2639
▁नाला	-11.264
भने	-11.2641
स्तो	-11.2643
▁पुर्या	-11.2646
▁योजनाहरु	-11.2648
▁अड्क	-11.265
ेटिभ	-11.2654
▁अनुरूप	-11.2655
▁जरा	-11.2656
▁एनआईसी	-11.2657
▁पुडासैनी	-11.2657
▁संक्षिप्त	-11.2657
▁सौगात	-11.2657
▁हेटौडा	-11.2657
▁एसईई	-11.2657
▁झन्झट	-11.2657
▁जनार्दन	-11.2657
▁हलेसी	-11.2658
▁मेरै	-11.2658
▁बहाव	-11.2658
▁क्षेत्रिय	-11.2659
▁दिलिप	-11.2659
▁दक्षता	-11.2663
▁कार्यवाहक	-11.2663
▁आजीवन	-11.2663
▁भइसकेपछि	-11.2665
▁ढिलाई	-11.2668
योजना	-11.2669
बराबर	-11.267
▁सभासद्	-11.267
बोर्ड	-11.2673
▁पाईन्छ	-11.2674
▁चारजना	-11.2676
▁गइ	-11.2676
नगरपालिका	-11.2679
▁ह्व	-11.268
छाड	-11.268
▁चालकलाई	-11.268
ोलोजी	-11.2681
▁सन्तुष्टि	-11.2682
▁तोके	-11.2682
▁क्यास	-11.2683
▁दिवसीय	-11.2684
नोभ	-11.2685
ायत	-11.2691
▁खाइ	-11.2692
▁डुबान	-11.2692
्याइएको	-11.2694
▁गणेशमान	-11.2695
▁सोनाम	-11.2696
▁दिन्छु	-11.27
▁स्वायत्त	-11.2707
्दछन्	-11.2709
सागर	-11.2711
▁बोलेका	-11.2715
लू	-11.2715
र्श	-11.2721
▁अविश्वास	-11.2724
▁उर्लाबारी	-11.2724
▁चुहावट	-11.2724
▁पुरातात्विक	-11.2724
▁शृङ्खला	-11.2724
डब्लु	-11.2724
कूल	-11.2724
▁सल्	-11.2724
▁इकाई	-11.2725
▁थियाे	-11.2725
▁रावत	-11.2726
▁उखान	-11.2726
▁भावनात्मक	-11.2726
▁प्रिन्स	-11.2727
▁फ्रान्सेली	-11.2728
एक्स	-11.2728
▁मुहान	-11.2729
▁प्रमाणीकरण	-11.2731
वट	-11.2731
▁प्याज	-11.2733
गुप्त	-11.2733
▁न्या	-11.2734
सिद्ध	-11.2734
▁हेर्नु	-11.2734
▁पढिएको	-11.2734
▁बगर	-11.2735
▁खोलिएको	-11.2736
▁देशभरि	-11.2737
▁गन्ध	-11.2738
▁रोकियो	-11.2739
ह्य	-11.2742
▁थाल्न	-11.2744
▁यती	-11.2744
▁आयोगलाई	-11.2747
दाँ	-11.2751
▁भाका	-11.2755
शत	-11.2755
चू	-11.2756
▁बिचमा	-11.2759
▁संस्थापन	-11.2759
▁उध	-11.2763
▁हुँदो	-11.2768
▁फर्काउन	-11.277
▁तिलक	-11.277
▁विश्वकर्माले	-11.277
▁चढ्न	-11.2773
ाइन्	-11.2778
खि	-11.2781
▁निर्वा	-11.2785
ज्ञान	-11.2786
▁अनेरास्ववियु	-11.2791
▁काभ्रेपलाञ्चोक	-11.2791
▁चमत्कार	-11.2791
▁मर्यादित	-11.2791
▁सेयरधनी	-11.2791
▁माफिया	-11.2791
▁निष्ठा	-11.2791
▁गृहमन्त्रालय	-11.2791
▁इकाइ	-11.2792
▁दायाँ	-11.2792
▁भातृ	-11.2794
▁कागजपत्र	-11.2794
▁टेबल	-11.2794
▁२०५८	-11.2796
▁झुण्ड	-11.2799
हरूमध्ये	-11.2801
▁झन्डा	-11.2802
९८	-11.2802
▁२०००	-11.2808
▁स्याहार	-11.2814
▁हानि	-11.2815
▁रामकुमार	-11.2816
लाइट	-11.2816
ाइसकेको	-11.2817
फिर	-11.282
बू	-11.2823
▁ल्याब	-11.2824
▁सुन्तली	-11.2825
▁गुल्म	-11.283
▁मुलुकहरू	-11.283
▁बडी	-11.283
▁परिचाल	-11.2836
▁सिक्ने	-11.284
▁मिल्न	-11.284
▁बढाए	-11.2841
क्टर	-11.2841
▁धाम	-11.2843
सम्	-11.2846
▁शिर्ष	-11.2846
▁देशभित्र	-11.2854
▁बताउँछ	-11.2855
▁यात्रुहरु	-11.2856
▁गोपनीयता	-11.2858
▁आणविक	-11.2859
▁बिक्रेता	-11.2859
▁मुस्कान	-11.2859
▁म्यानचेस्टर	-11.2859
▁स्तब्ध	-11.2859
▁ह्युमिडिफायर	-11.2859
▁धूलो	-11.2859
▁महाकवि	-11.2859
▁ममता	-11.286
▁नबिल	-11.2861
ाँस	-11.2861
ोली	-11.2862
पोट	-11.2863
▁सलाम	-11.2865
▁आधुनिकीकरण	-11.2865
▁पतन	-11.2866
बेसी	-11.2867
▁हामीकहाँ	-11.2867
प्पा	-11.2868
▁प्रतिक्षा	-11.2871
▁छापेको	-11.2872
▁आउनेछ	-11.2873
▁कृपा	-11.2877
ढुंगा	-11.2878
▁गइसके	-11.288
▁पाना	-11.2885
▁चेन	-11.2889
पिड	-11.2889
मति	-11.2891
िइन्	-11.2892
४८	-11.2894
स्टिक	-11.2896
▁सुनेको	-11.2898
▁निर्णयहरु	-11.2902
▁देखेका	-11.2903
▁क्यार	-11.2904
▁ब्रु	-11.2905
▁लिगा	-11.2906
▁ठाने	-11.2907
▁बिट	-11.2914
▁खारेजी	-11.2915
▁आरोपी	-11.2918
▁सदनमा	-11.2924
▁अस्तव्यस्त	-11.2927
▁ब्राह्मण	-11.2927
▁लापरवाही	-11.2927
▁साक्षात्कार	-11.2927
▁सेक्युरिटी	-11.2927
▁क्षत्री	-11.2927
▁ट्याक्टर	-11.2927
▁मामला	-11.2927
▁धातु	-11.2928
▁सन्तोषजनक	-11.2928
▁तिव्र	-11.2928
▁अब्दुल	-11.2929
▁रोटी	-11.293
▁सम्भ	-11.2934
▁मानिसहरुले	-11.2935
▁महतोले	-11.2936
▁तीब्र	-11.2936
▁२००४	-11.2937
भ्य	-11.2938
▁भन्नाले	-11.2939
▁बाच	-11.294
▁मदर	-11.2942
धुर	-11.2952
विस	-11.2952
▁झरे	-11.2953
▁नैतिकता	-11.2967
▁बताउन	-11.2968
▁हुँदैनन्	-11.2971
्पो	-11.2976
▁काटिए	-11.2978
त्यस	-11.2985
▁बाधक	-11.2986
▁नगरेका	-11.2986
▁रोकेर	-11.2987
▁चाहि	-11.2989
▁लस	-11.2989
▁असाध्यै	-11.2995
▁अपलोड	-11.2995
▁अड्डा	-11.2995
▁मनोनित	-11.2995
▁कथित	-11.2995
▁ढुकुटी	-11.2995
▁बाहिरिने	-11.2996
▁जीवनी	-11.2996
▁डरलाग्दो	-11.2997
▁मूल्यवृद्धि	-11.2997
▁बुढी	-11.2999
▁गाईघाट	-11.2999
▁प्रत्याभूति	-11.2999
एफसी	-11.3001
▁पुटिन	-11.3001
▁हावी	-11.3002
▁समुद्री	-11.3003
▁बिवाह	-11.3003
▁लक्ष	-11.3006
▁अपांगता	-11.3008
एमसी	-11.3008
▁समेट्न	-11.3009
▁बचे	-11.3009
▁मसान्त	-11.3013
▁रुपैयाँभन्दा	-11.3014
कल्याण	-11.3016
▁कालमा	-11.3017
▁बेस्ट	-11.3018
मोहन	-11.3021
▁भंग	-11.3024
घटना	-11.3026
▁सार्की	-11.3028
▁खटाए	-11.303
▁जोङ	-11.303
▁टुक्र	-11.3031
मेण्ट	-11.3032
▁हर्क	-11.3033
▁टेकु	-11.3033
▁रोनाल्डोले	-11.3038
▁पुग्दैन	-11.3038
▁लिपि	-11.3048
ुन्जेल	-11.305
भयो	-11.3059
▁छाडेका	-11.3059
ाउँने	-11.3061
▁द्रुत	-11.3064
▁नाइजेरिया	-11.3064
▁पुरुषोत्तम	-11.3064
▁शिवाकोटी	-11.3064
▁सँधै	-11.3064
▁इज्जत	-11.3064
▁चौतर्फी	-11.3064
▁सञ्चित	-11.3064
▁बङ्गाल	-11.3064
▁साँघुरो	-11.3065
▁चिल्लो	-11.3066
जिङ	-11.3067
▁सीसी	-11.3068
▁दर्जा	-11.3069
ूत	-11.3077
▁बिक्रम	-11.3079
्याे	-11.3085
सियन	-11.3086
▁डन	-11.3086
▁कार्यहरु	-11.3087
▁अनुभवी	-11.3087
▁रोकाया	-11.3088
▁सिता	-11.3089
▁वालिङ	-11.3091
▁अन्तत	-11.3092
▁मानबहादुर	-11.3093
हिं	-11.3093
▁हब	-11.3096
▁दोहोर्	-11.3102
▁बन्दा	-11.3103
▁पहि	-11.3104
▁बैङ्कले	-11.3104
▁नोक्सान	-11.3107
▁धारण	-11.311
▁ओर	-11.3112
▁आप्	-11.3117
ाधिन	-11.3118
▁म्याक	-11.3119
्यता	-11.3122
▁बुकिङ	-11.3122
▁चेत	-11.3125
▁नुह	-11.3127
▁चल्छ	-11.3128
खान	-11.3129
▁ब्लु	-11.3131
ालले	-11.3132
▁लिन्छ	-11.3132
▁रोबोट	-11.3134
▁कौशल	-11.3134
▁रोक्का	-11.3134
ओसी	-11.3135
▁घुम्ती	-11.3135
▁पुष्पलाल	-11.3136
▁सीमावर्त	-11.3136
ाउँछु	-11.3136
▁अतिथी	-11.3138
▁मारे	-11.3142
बोल	-11.3143
▁आशावादी	-11.3147
▁नवौं	-11.3147
▁टाउकोमा	-11.3147
▁यसपाली	-11.3148
▁पार्ट	-11.3149
▁लालबहादुर	-11.3152
▁दिप	-11.3158
िओ	-11.3159
बाइ	-11.3162
मिला	-11.3167
गोपाल	-11.3167
▁मान्छेहरू	-11.3168
▁जानी	-11.3172
▁मिना	-11.3176
िसा	-11.3186
▁हार्	-11.3187
▁दुखाइ	-11.3189
प्रद	-11.319
म्ह	-11.3197
जोर	-11.32
▁चौकीमा	-11.3201
८९	-11.3203
▁कावासोती	-11.3203
▁फोक्सो	-11.3203
▁विवादास्पद	-11.3203
▁सर्वोत्कृष्ट	-11.3203
▁सोझो	-11.3203
▁सम्राट	-11.3204
▁नियन्त्रक	-11.3204
▁दीपावली	-11.3204
▁ब्याट्री	-11.3204
▁अन्तरवार्ता	-11.3204
▁बहुदलीय	-11.3205
▁मनोबल	-11.3206
▁गतिशील	-11.3207
▁सुनसान	-11.3208
▁अन्डर	-11.3215
▁दशमी	-11.3215
▁काग्रेस	-11.3216
मोड	-11.3218
▁बढ्दा	-11.322
▁साम्राज्यवाद	-11.3222
ओस	-11.3224
ाऊँ	-11.3225
▁सिमानामा	-11.3226
▁प्रान्तमा	-11.3234
▁पस्न	-11.3234
▁सेभ	-11.3237
▁नपाए	-11.3239
संस्था	-11.3242
▁सन्नी	-11.3252
िरा	-11.3253
▁ज्व	-11.3254
▁केबल	-11.3261
५८	-11.3262
▁मधेशमा	-11.3265
विश्व	-11.3265
▁अल्पसंख्यक	-11.3274
▁चहलपहल	-11.3274
▁चाहनुहुन्छ	-11.3274
▁पौराणिक	-11.3274
▁बिहीवार	-11.3274
▁मुसलमान	-11.3274
▁रूपन्देही	-11.3274
▁अफ्रिकी	-11.3274
▁गृहपृष्ठ	-11.3274
▁मसला	-11.3274
▁न्युनतम	-11.3275
वित्तिकै	-11.3275
▁पुण्य	-11.3276
▁रामशरण	-11.3276
▁ब्यस्त	-11.3278
▁फायर	-11.3279
▁गर्नुहुने	-11.328
शं	-11.3283
▁भित्र्याए	-11.3285
▁टिप	-11.3285
५६	-11.3287
▁हाँसो	-11.3288
▁छुटेका	-11.329
▁भएता	-11.3291
▁जमात	-11.3291
▁समेट्ने	-11.3299
परिवार	-11.3303
ख्य	-11.3304
▁काव्य	-11.3304
गण	-11.3305
६२	-11.3307
ओस्	-11.3311
▁ब्रह्म	-11.3311
पूजा	-11.3314
▁उल्	-11.3316
▁तहबाट	-11.3317
▁अफिसर	-11.3318
▁स्थानीयबासी	-11.3318
▁भक्ति	-11.3319
खानी	-11.3323
▁नहेर	-11.3326
▁सत्तापक्ष	-11.3327
▁सुशीला	-11.3331
▁गौरा	-11.3334
▁जनवादी	-11.3335
▁प्रती	-11.3338
▁पाएकी	-11.3341
चोटी	-11.3345
▁परित्याग	-11.3345
▁महासेठ	-11.3345
▁स्टाटस	-11.3345
▁सनातन	-11.3345
▁अध्याय	-11.3345
▁तालाबन्दी	-11.3345
▁तानसेन	-11.3345
्याङ्ग	-11.3346
▁जमाना	-11.3348
▁अल्झ	-11.3348
▁डम्बर	-11.335
▁कम्पनि	-11.3351
▁रहनुभएको	-11.3351
▁चौडा	-11.3352
▁तिमि	-11.3352
▁राख्छन्	-11.3356
▁सुनाउन	-11.3356
▁अनेकौं	-11.3356
ठि	-11.3356
वन्त	-11.3356
▁बढाउनुपर्ने	-11.3357
त्रो	-11.336
▁ट्विटर	-11.336
▁लेखिएका	-11.3364
▁लिलामी	-11.3366
▁खुवाए	-11.3368
▁चिन्न	-11.3369
▁सुझाए	-11.3375
▁जोत	-11.3376
▁दिवा	-11.3379
गमन	-11.3381
वाली	-11.3382
राष्ट्रिय	-11.3384
मेर	-11.3386
▁दिलाउने	-11.3388
▁घोर	-11.3389
▁थुन	-11.3391
▁आतिथ्य	-11.3391
ऋ	-11.3402
▁शिक्षकहरु	-11.3403
▁बनिसकेको	-11.3414
▁अधिनायकवाद	-11.3416
▁अस्वाभाविक	-11.3416
▁करिडोर	-11.3416
▁कर्पोरेट	-11.3416
▁ग्यारेन्टी	-11.3416
▁पर्यावरण	-11.3416
▁पोजेटिभ	-11.3416
▁शतप्रतिशत	-11.3416
▁इँटा	-11.3416
▁भान्सा	-11.3417
▁गर्दथे	-11.3417
▁माध्याम	-11.3417
▁किनेको	-11.3418
▁नमिले	-11.3419
▁प्रसङ्ग	-11.3419
▁ठाडो	-11.3421
▁समाजसेवा	-11.3422
▁नबोल	-11.3424
▁प्लेयर	-11.3425
४३	-11.3427
▁देखिन्थ्यो	-11.3428
▁साबिक	-11.3431
▁बाजे	-11.3433
▁समातेर	-11.3433
▁नसक	-11.3435
▁ठाँउमा	-11.3437
▁पला	-11.3445
▁ग्रे	-11.3451
▁भ्यान	-11.3452
लक्ष्मी	-11.3452
▁लान	-11.3453
पीडित	-11.3454
▁साकार	-11.3454
▁प्रोत्साह	-11.3464
▁पाइन्	-11.3469
▁कन्फ	-11.3469
अन्त	-11.3475
▁नरम	-11.3482
▁आहा	-11.3483
रेखा	-11.3484
▁बाला	-11.3487
▁पुस्ताका	-11.3487
▁उद्धेश्य	-11.3488
▁उन्मुक्ति	-11.3488
▁जताततै	-11.3488
▁बलात्कृत	-11.3488
▁ब्याडमिन्टन	-11.3488
▁मोटरसाईकल	-11.3488
▁हरितालिका	-11.3488
▁बञ्चित	-11.3488
▁तत्पर	-11.3488
▁दाजुभाई	-11.3488
ांै	-11.3488
▁औजार	-11.3489
▁क्षती	-11.3489
▁काँधमा	-11.3489
▁दाइजो	-11.349
▁लिम्बुवान	-11.349
▁हिँडेका	-11.3491
▁सावधानी	-11.3501
▁स्ल	-11.3503
▁हुल	-11.3504
▁दमकल	-11.3504
▁परिषद्का	-11.3504
▁मिल्यो	-11.3505
▁बलर	-11.3505
हुँदै	-11.3511
योजित	-11.3517
▁कमाण्डर	-11.3517
फोर्ड	-11.3518
आएको	-11.3519
▁पुरुषहरु	-11.352
▁छाडे	-11.3522
प्रे	-11.3523
▁नबुझे	-11.3524
▁थाक	-11.3525
ख्ख	-11.3526
▁छिमेक	-11.3531
न्दे	-11.3534
जेट	-11.3535
▁सघाउने	-11.3536
▁गङ्गा	-11.354
▁हेरी	-11.3544
▁प्याड	-11.3549
▁नसा	-11.3555
▁मनाइँदै	-11.3556
▁चौलागाई	-11.3561
▁सार्वभौम	-11.3561
▁जनसम्पर्क	-11.3561
▁ज्वाला	-11.3561
▁भीषण	-11.3561
▁पासवर्ड	-11.3561
▁बालविवाह	-11.3561
▁सर्भे	-11.3561
▁रिसर्च	-11.3562
▁नीजि	-11.3562
▁गोदाम	-11.3562
▁बनाइदिए	-11.3564
▁लगाउँदा	-11.3565
▁वाक्य	-11.3567
्लिन	-11.3567
भूतपूर्व	-11.3568
▁लिप	-11.357
▁नभेट	-11.3571
▁देशभक्त	-11.3571
▁आउनुभए	-11.3572
▁चुनौतीपूर्ण	-11.3572
▁फास्ट	-11.3574
▁वाचा	-11.3575
▁हुनसके	-11.3582
▁मनपरी	-11.3585
▁क्षेत्रहरू	-11.3589
क्याप	-11.359
▁नियाल	-11.3592
▁अर्कोतर्फ	-11.3593
▁सवा	-11.3594
▁सजिए	-11.3596
▁रसायन	-11.3605
▁चिच	-11.3606
▁याएर	-11.3607
▁गीति	-11.3608
▁पेन	-11.3611
▁टू	-11.3612
▁ठाँउ	-11.3612
ढे	-11.362
▁एकछिन	-11.3624
ष्टर	-11.3624
▁कोर्स	-11.3626
▁गैँडा	-11.3633
▁यिनले	-11.3633
पर्छ	-11.3634
▁ढोरपाटन	-11.3634
▁तिमल्सिना	-11.3634
▁निष्क्रिय	-11.3634
▁प्युठान	-11.3634
▁वृद्धवृद्धा	-11.3634
▁प्रार्थना	-11.3634
▁रातारात	-11.3634
▁छन्त्याल	-11.3634
▁उत्पत्ति	-11.3634
▁प्लान्ट	-11.3635
▁सन्चालन	-11.3636
८६	-11.3636
खेत	-11.3637
▁खेलाडीहरू	-11.3638
▁अफगान	-11.3638
▁बजाउन	-11.3639
▁चतुर	-11.3641
▁भईसकेको	-11.3641
▁पुँजीगत	-11.3642
▁मनाई	-11.3643
▁जितेन्द्र	-11.3649
▁लिइने	-11.365
▁गर्दे	-11.3652
▁अयोग्य	-11.3656
▁गर्दिन	-11.366
▁खुव	-11.3661
▁सुगर	-11.3663
▁चै	-11.3663
▁शेखर	-11.3665
▁उठान	-11.3665
▁गरिसके	-11.3671
▁भन्छु	-11.3673
नौँ	-11.3678
▁भारतिय	-11.3689
सिटी	-11.3689
▁आउछ	-11.369
गेट	-11.3696
▁देख्छ	-11.3699
▁खोजेर	-11.3699
▁पढ्नुहोस	-11.3702
▁भन्छन	-11.3704
▁अस्मिता	-11.3707
▁म्यानेजमेन्ट	-11.3707
▁जाँगर	-11.3707
▁शाहरुख	-11.3707
▁भैंसी	-11.3707
▁पौड्याल	-11.3707
▁जमघट	-11.3707
▁चौतारा	-11.3708
▁केन्या	-11.3708
▁संकाय	-11.3708
▁रहस्यमय	-11.3708
▁भाषिक	-11.3709
▁महन्थ	-11.3709
▁चारैतिर	-11.371
▁राखेप	-11.371
▁आरक्षण	-11.371
▁१९९०	-11.3711
▁फोरजी	-11.3711
▁सुहा	-11.3712
▁मनाइँदैछ	-11.3712
▁बायाँ	-11.3713
▁श्रेय	-11.3713
क्सी	-11.3715
▁यहीँ	-11.3717
▁टेकेर	-11.3719
▁स्वस्थ्य	-11.372
सिनो	-11.3721
▁ल्याउँछ	-11.3721
भूषण	-11.3723
▁कसर	-11.3725
▁प्रयोगकर्ताले	-11.3726
▁कोच	-11.3727
▁बिताउन	-11.3729
▁शानदा	-11.373
▁पाउँदैन	-11.3731
▁व्यावसाय	-11.3735
सेट	-11.374
गर्ने	-11.3746
▁ब्यानरमा	-11.3749
▁उठेका	-11.375
रहदा	-11.3759
▁रेट	-11.376
शान्ति	-11.376
रहन्छ	-11.3761
▁अटेर	-11.3762
▁ओठ	-11.3763
लिएको	-11.3764
▁अपांग	-11.3769
▁मितिः	-11.3779
▁आकांक्षा	-11.3781
▁आविष्कार	-11.3781
▁उमेदवार	-11.3781
▁एक्सचेञ्ज	-11.3781
▁कैयौँ	-11.3781
▁तामाकोशी	-11.3781
▁दुग्ध	-11.3781
▁दौरान	-11.3781
▁निरुत्साह	-11.3781
▁निर्विरोध	-11.3781
▁हातहतियार	-11.3781
▁आजभोलि	-11.3781
▁दस्तुर	-11.3781
▁साथसाथै	-11.3781
▁मातृभाषा	-11.3781
▁जातजाति	-11.3781
▁मतलब	-11.3782
▁सेन्सर	-11.3782
▁चकित	-11.3782
▁प्रतिकिलो	-11.3782
▁अग्रिम	-11.3783
▁गिद्ध	-11.3784
▁गरिरहँदा	-11.3787
▁ब्यवसाय	-11.379
▁चाहियो	-11.379
▁त्यसबारे	-11.3791
▁ह्यारी	-11.3792
▁विदुर	-11.3795
▁शिर्षक	-11.3796
▁].	-11.3797
▁हेर्नुस्	-11.3798
कर्ताहरु	-11.3802
▁इलेक्ट्रिक	-11.3803
▁छेक	-11.3804
▁पोष	-11.3808
▁डोरी	-11.381
▁चिने	-11.381
▁खेल्दा	-11.3811
ुपर्दैन	-11.3813
▁इल	-11.3816
न्याय	-11.3816
▁मनि	-11.3818
▁सघाउन	-11.3825
▁कास्य	-11.3829
▁डायल	-11.3832
▁वास्ता	-11.3833
▁प्रतिक	-11.3844
▁मोटोपन	-11.3846
▁टार्न	-11.3849
निधि	-11.385
न्जा	-11.385
▁विकाश	-11.385
▁ब्यबस्था	-11.3853
▁गुराँस	-11.3856
▁पारवहन	-11.3856
▁बर्सेनि	-11.3856
▁मनकामना	-11.3856
▁सुगन्ध	-11.3856
▁हातेमालो	-11.3856
▁कट्टेल	-11.3856
▁संरक्षित	-11.3856
▁स्नान	-11.3856
▁झलक	-11.3858
▁विषेश	-11.3858
▁उभिएर	-11.3858
▁जीर्ण	-11.3858
▁दोहा	-11.3861
▁पुनर्वास	-11.3864
▁वर्गीकरण	-11.3865
▁गाएर	-11.3867
▁त्यसयता	-11.3871
▁सद्भावना	-11.3871
▁हुदाँ	-11.3871
▁चरणका	-11.3873
▁बिदाइ	-11.3877
▁सर्च	-11.3877
▁भ्याए	-11.3881
६४	-11.3882
▁गोपी	-11.3882
▁फ्लु	-11.3891
▁रहेनछ	-11.3893
सिह	-11.3893
▁कीरा	-11.3894
▁कुटनीतिक	-11.39
▁पुर्याइ	-11.3902
▁चिनिए	-11.3903
▁लडेर	-11.3906
▁बलात्कारी	-11.3907
▁लगा	-11.3909
▁तरंग	-11.391
▁तपाईंहरू	-11.3912
हेर्नुस	-11.3912
६१	-11.3912
▁अधुर	-11.3916
▁इद	-11.3917
▁आइपुगे	-11.3924
▁पाउँ	-11.3927
ाैं	-11.3928
▁अँध्यारो	-11.3931
▁नवनियुक्त	-11.3931
▁पूजाआजा	-11.3931
▁बितिसक्दा	-11.3931
▁रुपैँया	-11.3931
▁स्वचालित	-11.3931
▁प्रतितोला	-11.3931
▁अबैध	-11.3931
▁लेनदेन	-11.3931
▁दीक्षित	-11.3932
▁फलफुल	-11.3932
▁हटाइ	-11.3932
▁शुद्धीकरण	-11.3934
▁गरिनुपर्छ	-11.3935
▁अनियन्त्र	-11.3935
▁मेट्रो	-11.3935
▁तीनवटै	-11.3939
्रेड	-11.394
▁नपाएपछि	-11.3941
ादेवी	-11.3941
▁निभाउन	-11.3942
▁गरिरहे	-11.3942
▁ऋणपत्र	-11.3946
५३	-11.3948
▁मज	-11.3948
शाली	-11.3951
▁संज्ञा	-11.3955
▁सोनी	-11.3957
▁चुके	-11.3957
स्या	-11.3962
▁लगाएपछि	-11.3969
लिङ्ग	-11.3972
कल्चर	-11.3973
▁तलव	-11.3975
▁जित्यो	-11.3976
साग	-11.3976
▁आदी	-11.3977
▁इन्स	-11.3977
ियस	-11.3978
▁हुलाक	-11.3978
▁चलाए	-11.3988
ायन	-11.3989
ड्ड	-11.3995
▁वर्क	-11.3997
▁बेहोर्न	-11.4001
▁स्क्र	-11.4002
▁अमित	-11.4005
▁दृष्य	-11.4007
▁निरपेक्ष	-11.4007
▁मैथिली	-11.4007
▁लिपुलेक	-11.4007
▁विश्वयुद्ध	-11.4007
▁बिजनेस	-11.4007
▁जतिसुकै	-11.4007
▁स्थगन	-11.4007
▁सिपाही	-11.4007
▁कालखण्ड	-11.4008
▁विपत्ति	-11.4008
▁खनिज	-11.4008
▁केबलकार	-11.4009
४६	-11.4009
▁अबस्था	-11.401
▁फैलिए	-11.4012
▁२०६६	-11.4014
विचार	-11.4016
▁अन्दाजी	-11.4016
▁अखण्डता	-11.4016
▁निहित	-11.402
ुपर्दा	-11.4021
▁हुनुपर्दछ	-11.4025
▁औषध	-11.4028
▁उहाँहरुले	-11.403
▁सातौँ	-11.4035
थोर	-11.404
▁टेक्न	-11.4043
८७	-11.4049
▁उप्रेतीले	-11.4053
्छन	-11.4054
नयाँ	-11.4057
बन्द	-11.4066
▁घटनापछि	-11.4066
▁बिन्दुमा	-11.4068
▁विनय	-11.4072
▁गाउँमै	-11.4076
समय	-11.4077
▁मण्डला	-11.4079
▁उठाए	-11.4079
▁आसन्	-11.408
▁जंगली	-11.4082
▁ट्र्याक	-11.4083
▁उपदफा	-11.4083
▁कोलम्बिया	-11.4083
▁खुर्सानी	-11.4083
▁मिठाई	-11.4083
▁ल्होसार	-11.4083
▁वासिङ्टन	-11.4083
▁दाहिने	-11.4083
▁पोसाक	-11.4083
▁सभापतित्वमा	-11.4083
▁डाँगी	-11.4084
▁बोतल	-11.4084
▁डिपो	-11.4085
▁गिरिजाप्रसाद	-11.4085
▁म्यादी	-11.4085
▁फुटवल	-11.4086
▁अनुकुल	-11.4087
हाट	-11.4091
▁कुलपति	-11.4094
▁कलात्मक	-11.4095
▁सच्चा	-11.4097
▁बनाइदिन	-11.4098
▁मरि	-11.4098
सिर	-11.4099
▁१९५०	-11.4099
▁निति	-11.41
▁बेल्ट	-11.41
िदिन्छ	-11.4111
▁ड्राइभ	-11.4112
▁व्यहोर	-11.4115
▁थिच	-11.4117
५७	-11.412
▁मोति	-11.413
▁लियोन	-11.4137
▁प्रतिरोध	-11.4138
परिषद	-11.4144
▁यसर्थ	-11.4146
लाय	-11.4151
▁स्पोर्ट	-11.4152
▁सक्दिन	-11.4153
८४	-11.4156
▁ट्वान्टी	-11.4158
▁अन्सारी	-11.416
▁उत्पीडन	-11.416
▁कोरोनाभाइरस	-11.416
▁धावनमार्ग	-11.416
▁लामखुट्टे	-11.416
▁सिटिजन्स	-11.416
बिम्स्टेक	-11.416
▁रोमाञ्चक	-11.416
▁जनतासँग	-11.416
▁मूख्य	-11.416
▁घुँडा	-11.416
▁बदनाम	-11.4161
▁व्याप्त	-11.4162
▁निर्वाचनपछि	-11.4162
▁कल्याणकारी	-11.4163
▁लसुन	-11.4164
▁देशव्यापी	-11.4165
▁बोलाइएको	-11.4165
▁मिड	-11.4165
▁हेमन्त	-11.4166
▁मौरी	-11.4167
चरण	-11.4167
▁सिटि	-11.4168
▁आफूमाथि	-11.4169
▁सङ	-11.4169
▁जोहो	-11.4174
▁एमबी	-11.4174
▁ठान्ने	-11.4178
▁गाइड	-11.418
▁चाल्न	-11.4181
▁हराउन	-11.4182
▁आर्य	-11.4184
▁माधवकुमा	-11.4185
▁वाटर	-11.4187
▁प्रभा	-11.4188
▁रुची	-11.4191
▁क्रिस	-11.4191
▁सिकाउने	-11.4193
▁सोझै	-11.4193
▁नाति	-11.4193
▁नत	-11.4195
्वी	-11.4199
▁नदेखिएको	-11.4199
▁उचाल	-11.4203
▁सेटिङ	-11.4205
▁बेरोजगारी	-11.4208
हरुलाइ	-11.4214
भेट	-11.4215
िणी	-11.4216
०७५	-11.4219
अधिकार	-11.4223
पारि	-11.4232
▁यिनीहरु	-11.4233
▁भोला	-11.4233
▁ग्वा	-11.4234
▁हर्ष	-11.4236
ध्यापक	-11.4237
▁कन्ट्रोल	-11.4237
▁प्रोफेसर	-11.4237
▁फर्निचर	-11.4237
▁म्याराथन	-11.4237
▁यमपञ्चक	-11.4237
▁षडयन्त्र	-11.4237
▁बाँडफाँट	-11.4238
▁आर्सनल	-11.4238
▁टाइगर	-11.4238
▁डुंगा	-11.4239
▁प्रवचन	-11.4239
▁पन्थी	-11.4239
▁एकतर्फी	-11.424
▁दिइसकेको	-11.4241
▁बन्धक	-11.4245
▁भेटिन्छन्	-11.4245
▁खुम्च	-11.4245
▁गराउनुभयो	-11.425
▁बेसार	-11.425
ताङ	-11.425
▁ओर्ल	-11.4254
▁सम्हाल्न	-11.4254
ादि	-11.4256
▁बिग्रन	-11.4256
▁गराउनुपर्ने	-11.4259
▁अनिता	-11.4261
▁घट्ना	-11.4262
▁युट्युबमा	-11.4267
ायिक	-11.4268
▁ल्ह	-11.4271
▁पठाएर	-11.4279
बन्धु	-11.4279
▁हानेर	-11.4281
▁लिला	-11.4282
▁प्रजा	-11.4282
▁ह्याक	-11.4288
▁संगम	-11.4288
म्पा	-11.4294
▁कर्मा	-11.4301
४९	-11.4301
▁जातिय	-11.431
कोभिड	-11.431
▁आत्मघाती	-11.4316
▁कृपया	-11.4316
▁नेगेटिभ	-11.4316
▁पारदर्शिता	-11.4316
▁प्रिन्सिपल	-11.4316
▁मलेशिया	-11.4316
▁महाअभियोग	-11.4316
▁श्राद्ध	-11.4316
▁सुनौलो	-11.4316
▁नम्रता	-11.4316
▁हाकिम	-11.4316
▁जर्सी	-11.4316
▁अग्रणी	-11.4316
▁विनाशकारी	-11.4316
▁बतायो	-11.4317
▁शेरचन	-11.4317
▁उपधारा	-11.4318
▁उत्पादकत्व	-11.4318
६७	-11.432
▁भीमसेन	-11.432
▁चलाउँदा	-11.432
▁१९९८	-11.4321
▁ड्रेस	-11.4321
▁जाती	-11.4321
▁हातपात	-11.4325
▁बिघा	-11.4326
▁भिड्ने	-11.4327
िरहेकी	-11.4329
▁आन्दोलनरत	-11.433
यर्स	-11.433
▁करेन्ट	-11.4331
▁याएका	-11.4331
विलम्ब	-11.4332
▁तथ्यांकअनुसार	-11.4335
▁ज्याक	-11.4336
▁टुङ्ग	-11.4337
्लिङ	-11.4338
▁व्यावसायी	-11.4346
▁चलाएर	-11.4346
पाती	-11.4347
▁फन्ड	-11.4347
▁विनाश	-11.4348
ब्याक	-11.4354
ओएस	-11.4354
▁चीनबीच	-11.4358
▁आजकल	-11.4359
▁निकाले	-11.4364
▁चुप	-11.4365
▁बुट	-11.4365
जुल	-11.4375
▁क्याट	-11.4377
▁मारेर	-11.4387
▁रोशनी	-11.4389
▁आतङ्क	-11.4394
▁चन्द्रागिरि	-11.4394
▁आषाढ	-11.4394
▁नपुग्दै	-11.4394
▁पत्थर	-11.4395
▁स्टाइल	-11.4395
▁आँशु	-11.4395
▁दयाहाङ	-11.4396
▁चीज	-11.4396
▁शिल्ड	-11.4396
भूमी	-11.4396
बाली	-11.4397
▁फ्रे	-11.4399
▁२०६७	-11.44
▁रञ्जित	-11.4403
▁फाराम	-11.4403
क्ष्य	-11.4405
▁सानैदेखि	-11.4406
▁कठिनाई	-11.4407
्र्या	-11.4407
खाने	-11.4409
▁२००१	-11.441
पोज	-11.4411
▁अर्कातिर	-11.4414
▁चट	-11.4418
▁पच	-11.4419
▁ब्यानर	-11.4419
▁चिनाउने	-11.442
▁चप	-11.4422
▁बुझिन्छ	-11.4425
०७४	-11.4426
▁प्यास	-11.4428
▁शिला	-11.4429
▁खसेर	-11.443
्याक्स	-11.4438
▁जलाशय	-11.4443
▁जौ	-11.4445
कर्ण	-11.4446
▁पहिलेदेखि	-11.4452
▁न्युन	-11.4454
▁क्षेत्रभित्र	-11.4455
▁नजरमा	-11.4457
▁ह्वा	-11.4459
हिल्यै	-11.4466
▁स्वयम	-11.4466
ढुङ्गा	-11.4472
▁भागेर	-11.4473
▁अद्यावधिक	-11.4474
▁आन्दोलित	-11.4474
▁मंसीर	-11.4474
▁मन्तब्य	-11.4474
▁माइक्रोफाइनान्स	-11.4474
▁उत्पीडित	-11.4474
▁शेयरधनी	-11.4474
▁चम्चा	-11.4474
▁सर्वप्रथम	-11.4474
▁भविष्यवाणी	-11.4474
▁दुनिया	-11.4474
▁एक्स्पो	-11.4475
▁उत्साहजनक	-11.4475
▁नपरोस्	-11.4476
▁मीना	-11.4476
▁परिपाटी	-11.4477
▁ज्यादा	-11.4478
▁पन्जा	-11.4478
▁पासवान	-11.4478
▁उत्तरदायी	-11.4478
▁सुजन	-11.4481
▁साताअघि	-11.4481
▁मस्को	-11.4483
▁थिईन्	-11.4483
▁स्वीकारे	-11.4487
▁बां	-11.4487
▁दावा	-11.449
याउने	-11.449
▁वैध	-11.4491
सेन्स	-11.4493
▁विजयकुमार	-11.4493
खाना	-11.4494
▁मोती	-11.4494
▁विज	-11.4496
▁कोइला	-11.4497
▁रमाउने	-11.45
▁व्यवहारिक	-11.4506
▁बहन	-11.4507
मोन	-11.4511
▁न्युरो	-11.4511
▁राग	-11.4521
▁जगत्	-11.4521
▁मागेका	-11.4523
▁हेरि	-11.4524
▁लागेकी	-11.4525
▁संक्रमणबाट	-11.4529
▁कलाकारहरू	-11.453
▁सुज	-11.4535
वार्ता	-11.4536
इरहन	-11.4536
▁विन्दुमा	-11.4548
▁तिब्बती	-11.4548
▁मुकेश	-11.4552
▁उरुग्वे	-11.4554
▁घृणा	-11.4554
▁टेक्सास	-11.4554
▁तिलोत्तमा	-11.4554
▁निश्चय	-11.4554
▁वेपत्ता	-11.4554
▁ह्याट्रिक	-11.4554
▁नक्षत्र	-11.4554
▁प्रतिलिपि	-11.4554
▁भृकुटीमण्डप	-11.4554
▁आइपीओ	-11.4554
▁परोपकार	-11.4554
▁सुरुङमार्ग	-11.4555
▁संयम	-11.4557
▁साभार	-11.4558
▁पकड	-11.4559
▁सम्भवतः	-11.456
भञ्ज्याङ	-11.4561
▁बच्चाहरु	-11.4561
▁०७२	-11.4562
▁देखिन्न	-11.4564
▁पुजारी	-11.4568
▁जोर	-11.4568
▁देह	-11.4569
पन्थ	-11.4571
▁व्यहोरा	-11.4572
▁बोझ	-11.4573
ध्व	-11.4581
▁घट्न	-11.4587
▁देखाई	-11.4588
▁टुंग्याउन	-11.4588
▁थाल्ने	-11.4591
ार्थी	-11.4595
▁जिउँद	-11.4597
▁आपत	-11.4605
▁कमाण्ड	-11.4605
वृद्धि	-11.4605
▁कलर	-11.4607
▁धम्क	-11.4609
▁सुके	-11.4611
▁भाँच	-11.4612
बुङ	-11.4614
▁छोड्ने	-11.4614
▁जन्माउने	-11.4614
▁पुर्खा	-11.4618
▁अवस्थाबारे	-11.4618
िरहन्छ	-11.462
▁सुदूर	-11.4625
▁बुझ्दै	-11.4631
▁उपरिक्षक	-11.4634
▁एपिएफ	-11.4634
▁गजुरेल	-11.4634
▁सौराहा	-11.4634
▁वरियता	-11.4634
▁हिसावले	-11.4634
▁नगरपालीका	-11.4634
▁दिलीप	-11.4634
▁वर्षौंदेखि	-11.4634
▁प्वाल	-11.4635
▁रियालिटी	-11.4635
मिस	-11.4635
▁मुलुकहरु	-11.4636
▁श्रीमति	-11.4636
▁रात्रि	-11.4638
▁देवानी	-11.4638
▁जतिबेला	-11.4643
▁बन्नेछ	-11.4644
▁युवतीहरु	-11.4645
▁लाग्नुपर्ने	-11.4646
▁जान्छु	-11.4646
्थेँ	-11.4646
▁नगरसभा	-11.4647
▁बिभाग	-11.4647
▁नर्सरी	-11.4647
▁राख्नुहोस्	-11.4648
▁म्याग्	-11.465
▁गरिसकेपछि	-11.4652
हजार	-11.4657
▁कू	-11.4663
▁लेग	-11.4665
▁प्रजातिका	-11.4666
▁महिलामाथि	-11.4668
▁हाड	-11.4671
▁यमन	-11.4673
▁पल्टन	-11.4678
▁सघाउ	-11.4682
▁जप	-11.4683
▁एमए	-11.4683
▁चलाएका	-11.4684
जेन्ट	-11.4684
लाग्दा	-11.4687
▁स्वाब	-11.4694
▁मातहतमा	-11.4696
▁खण्डन	-11.4701
▁कण	-11.4702
▁यश	-11.4704
▁उत्प	-11.4704
▁खेम	-11.4705
▁जिउ	-11.4708
टआउट	-11.4712
▁ख्रीष्ट	-11.4716
▁विर्तामोड	-11.4716
▁शुभचिन्तक	-11.4716
▁सेरोफेरो	-11.4716
▁सोभियत	-11.4716
▁अन्धकार	-11.4716
▁सक्तैन	-11.4716
▁सुवर्ण	-11.4716
▁जस्तोसुकै	-11.4716
▁थ्रीस्टार	-11.4716
▁मुटुरोग	-11.4717
चन्द	-11.472
▁पूर्वअध्यक्ष	-11.472
▁समझदारीपत्र	-11.4721
▁सिकाए	-11.4721
पोखरा	-11.4723
४१	-11.4724
्छौँ	-11.4726
▁करदाता	-11.4727
▁मधेसवादी	-11.4727
▁गरिदै	-11.4728
▁निषेधित	-11.4729
▁पिपल	-11.473
▁उतार	-11.473
▁२००५	-11.4732
▁सम्वन्धित	-11.4732
▁कामपा	-11.4734
▁पौडी	-11.4737
▁गराइरहे	-11.4747
▁दर्जनभन्दा	-11.4748
▁खाएका	-11.4756
▁उतार्न	-11.4757
सम्पाद	-11.4757
▁हिलो	-11.4758
▁बुझाउनु	-11.476
▁यूवा	-11.476
▁हुनुभन्दा	-11.4763
▁गाँस	-11.4765
▁पञ्चायती	-11.4769
भाषा	-11.4784
▁अपेक्षित	-11.4798
▁कन्स्ट्रक्सन	-11.4798
▁बहराइन	-11.4798
▁पुरातत्व	-11.4798
▁शिशिर	-11.4798
▁शैलेन्द्र	-11.4798
▁ग्याँस	-11.4798
▁डेङ्गु	-11.4798
दर्पण	-11.4798
▁वयस्क	-11.4798
▁पुनर्संरचना	-11.4798
▁नलिने	-11.4798
▁खल्ती	-11.4798
▁अर्चना	-11.4799
▁ईमेल	-11.4801
▁कार्ल	-11.4803
▁सर्वेन्द्र	-11.4803
▁नजिकिँदै	-11.4805
▁आकृति	-11.4806
▁क्लास	-11.4806
झै	-11.4808
▁फेशन	-11.4809
▁आआफ्नो	-11.481
फार	-11.4812
कलाकार	-11.4819
रीया	-11.4823
▁विद्यालयहरु	-11.4823
▁सफाई	-11.4824
▁टाइप	-11.4831
आफ	-11.4832
▁देखिनु	-11.4836
▁मान्य	-11.4838
ब्याग	-11.4841
▁प्रतिकार	-11.4842
िनुपर्ने	-11.4845
▁भ्याट	-11.4858
▁तल्ला	-11.4862
जोड	-11.4866
जुङ	-11.4877
▁एशोसिएसन	-11.488
▁कार्यसूची	-11.488
▁भ्रातृ	-11.488
▁विहीबार	-11.488
▁अठोट	-11.488
▁कार्यकक्ष	-11.488
▁अखबार	-11.4881
▁टेन्डर	-11.4881
▁प्राज्ञ	-11.4883
▁क्यू	-11.4885
िज्म	-11.4887
▁पागल	-11.4887
होम	-11.4887
▁चलाउँदै	-11.4888
▁सुट	-11.4894
शंकर	-11.4894
▁राख्नुभएको	-11.4898
्लान्	-11.4898
▁गुमाउँदै	-11.4901
थुम	-11.4902
▁बुधबारदेखि	-11.4904
▁कोदो	-11.4904
▁बलराम	-11.4905
▁फैलाउने	-11.4906
▁गार्	-11.4907
▁पठाउनु	-11.491
▁बसिरहेको	-11.491
्दिनँ	-11.4913
▁छुटेको	-11.4914
▁वर्षमुनि	-11.4914
▁सिने	-11.4918
▁चढ्ने	-11.4919
▁लुकाउन	-11.4922
राजनीतिक	-11.4923
▁वहा	-11.493
आईएस	-11.4936
▁दुःखी	-11.4944
▁नसुन	-11.4951
▁उस्	-11.4952
▁जोगाउने	-11.4952
▁सतर्क	-11.4954
▁भीमदत्त	-11.496
▁युवाहरुलाई	-11.4963
▁अनेसास	-11.4964
▁जडिबुटी	-11.4964
▁नेयमार	-11.4964
▁मोफसल	-11.4964
▁शहिद	-11.4964
▁समयावधि	-11.4964
▁समर्पण	-11.4964
▁सम्वोधन	-11.4964
▁स्ट्राइकर	-11.4964
▁निरंकुश	-11.4964
▁परिपक्व	-11.4964
▁श्रवण	-11.4964
▁सातदोबाटो	-11.4964
▁अल्प	-11.4964
जीवी	-11.4964
▁प्रजापति	-11.4964
▁चेम्बर	-11.4965
▁शतक	-11.4965
▁चुनाब	-11.4966
▁लागिपरेको	-11.4966
▁थापामगर	-11.4968
▁बस्याल	-11.4968
▁विचारधारा	-11.4969
▁उषा	-11.497
▁सीधा	-11.4971
▁थानकोट	-11.4971
उदा	-11.4972
▁बनाइयो	-11.4972
▁डुबेर	-11.4973
▁गाएका	-11.4974
▁पोर्न	-11.4975
▁सम्हालेका	-11.4976
▁बाझ	-11.4977
▁गोबर	-11.4978
▁जबसम्म	-11.4978
▁व्यवसायीहरू	-11.4979
संस्कृति	-11.4979
▁दुलाल	-11.4981
▁बत	-11.4981
▁आपू	-11.4984
▁गोर्खाली	-11.4984
▁लक्ष्मीप्रसाद	-11.4985
▁सहयोगार्थ	-11.4989
बस्ती	-11.4994
▁देखाउनु	-11.4998
▁बोलाउने	-11.5001
▁हुनुअघि	-11.5002
▁आउदै	-11.5002
▁बिउ	-11.5002
▁मातृका	-11.5005
▁अचार	-11.5006
▁बोलाउन	-11.5007
▁चुनिए	-11.5008
टीय	-11.5014
▁फुड	-11.502
▁तास	-11.502
▁दिसा	-11.5043
▁क्लिन	-11.5048
▁आइसोलेसन	-11.5048
▁इमिरेट्स	-11.5048
▁जावलाखेल	-11.5048
▁बास्तोला	-11.5048
▁रिपब्लिक	-11.5048
▁लुटपाट	-11.5048
▁नवजात	-11.5048
▁जिब्रो	-11.5048
▁गिरोह	-11.5048
▁नमान्ने	-11.5048
▁हेल्प	-11.5048
▁भाग्यमानी	-11.5048
▁महाराजगञ्ज	-11.5048
▁प्रशंसक	-11.5048
▁क्रियाशिल	-11.5048
▁सुनील	-11.5049
▁वीरेन्द्रनगर	-11.505
▁हावापानी	-11.505
▁गुरूङ	-11.5053
▁च्यात	-11.5053
▁मर्कामा	-11.5054
मानसिंह	-11.5059
अध्यक्ष	-11.5061
▁पकाए	-11.5062
सर्ग	-11.5063
▁मिसाएर	-11.5063
▁सुस्ता	-11.5064
▁लुकाएर	-11.5064
▁हान्ने	-11.5071
▁फसे	-11.5071
▁माइक	-11.5073
▁थोप	-11.5073
रह्यो	-11.5073
▁राजी	-11.5075
पोल	-11.5076
▁पाइसके	-11.5079
▁तीस	-11.508
▁हुलाकी	-11.508
▁सोचाइ	-11.508
▁बजारीकरण	-11.5082
▁मिश्रित	-11.5082
धारण	-11.5083
▁मौलिकता	-11.5087
प्रेम	-11.5094
्यूट	-11.5095
▁भइसके	-11.5097
्गा	-11.5098
५४	-11.5098
दूर	-11.5102
▁रहनेछन्	-11.5103
खोर	-11.5103
▁विहे	-11.5104
▁हम	-11.5105
त्ते	-11.5111
▁पुगी	-11.5111
▁तिर्नु	-11.5111
▁हुर्के	-11.5116
▁नगए	-11.5118
▁जान्ने	-11.5121
▁सीट	-11.5124
ायौं	-11.5129
▁उत्प्रेर	-11.5132
▁गिरिजा	-11.5132
▁बिचौलिया	-11.5132
▁अव्यवस्थित	-11.5132
▁अस्वीकृत	-11.5132
▁एचआइभी	-11.5132
▁धन्यबाद	-11.5132
▁लैंगिक	-11.5132
▁वाग्मती	-11.5132
▁हेरचाह	-11.5132
▁अमिताभ	-11.5132
▁तटबन्ध	-11.5132
▁प्रतिलिटर	-11.5132
▁प्रतिरक्षा	-11.5132
▁कच्ची	-11.5132
▁सुपारी	-11.5132
▁अपुग	-11.5132
▁अर्धशतक	-11.5132
▁ब्यहोर	-11.5133
▁स्तनपान	-11.5133
▁लोग्ने	-11.5133
ंडा	-11.5133
▁ओमप्रकाश	-11.5134
▁खेलहरु	-11.5135
▁चिठी	-11.5136
▁पूर्ति	-11.5136
▁देखिन्थे	-11.5136
▁ग्राण्ड	-11.5138
▁सभाहल	-11.5139
▁जोगी	-11.5139
▁हिरोइन	-11.5139
▁पञ्चमी	-11.5139
▁सिक्का	-11.514
▁हज	-11.5141
ादेश	-11.5142
▁सिङ्गो	-11.5142
▁वेल्स	-11.5143
▁जनस्तर	-11.5143
▁गरिन्थ्यो	-11.5146
▁एकैदिन	-11.5146
▁पाँचवटा	-11.5147
▁अबस्थामा	-11.515
भिन्न	-11.5151
▁स्वाइन	-11.5151
▁मेचीनगर	-11.5155
▁बदलि	-11.5158
ोत्सव	-11.5159
▁तिर्थ	-11.5159
▁गुमाउन	-11.5161
प्रधान	-11.5161
▁सुझ	-11.5167
▁तोकेर	-11.5169
▁बसेकी	-11.5169
▁रूपमै	-11.5171
स्टी	-11.5181
▁सांसद्	-11.5186
▁खादा	-11.5187
जाति	-11.5187
▁एपी	-11.5189
▁बताइ	-11.5189
▁हेप	-11.5194
सम्मत	-11.5194
▁बहाना	-11.5194
थली	-11.5196
न्ते	-11.5198
▁मेघा	-11.5199
गर्न	-11.5201
▁बढाइ	-11.5202
▁लगेका	-11.5204
▁मान्नु	-11.5206
▁विमला	-11.521
ध्द	-11.521
▁विद्वान	-11.5211
▁जीवनस्तर	-11.5211
▁विपद	-11.5211
▁काउण्टर	-11.5218
▁तानाशाह	-11.5218
▁व्यङ्ग्य	-11.5218
थेरापी	-11.5218
▁आश्रय	-11.5218
▁गुनासा	-11.5218
▁लोकदोहोरी	-11.5218
▁बसोवास	-11.5218
▁स्पर्धा	-11.5218
▁कम्युनिटी	-11.5218
▁त्रसित	-11.5218
▁श्वास	-11.5219
▁ह्वात्त	-11.5219
▁दिनहरुमा	-11.522
▁प्राज्ञिक	-11.5222
▁सुदर्शन	-11.5222
▁राजीव	-11.5223
▁टोखा	-11.5224
▁महासभा	-11.5224
▁कर्मचारीतन्त्र	-11.5225
▁रेलवे	-11.5226
▁अराजकता	-11.5227
▁लव	-11.5229
▁अन्यौल	-11.523
▁सोच्ने	-11.5234
लाभ	-11.5234
▁पाएन	-11.5237
▁बुझ्नु	-11.5238
▁बैंकक	-11.5239
▁सुकै	-11.524
सामाजिक	-11.5242
▁अवधिभर	-11.5248
▁ट्रेन	-11.5252
▁रमाउन	-11.5255
िसके	-11.5259
▁सघन	-11.526
९०	-11.5261
▁स्वराज	-11.5262
▁अर्थशास्त्री	-11.5276
स्याङ	-11.5276
▁जाहेर	-11.5276
▁अन्तराल	-11.5287
▁ट्रेडिङ	-11.529
▁बियर	-11.5296
▁विश्वभरि	-11.5298
डीपी	-11.5299
▁युनिभर्स	-11.5304
▁अत्याचार	-11.5304
▁अवैधानिक	-11.5304
▁टुँडिखेल	-11.5304
▁मौज्दात	-11.5304
▁संसोधन	-11.5304
▁उतारचढाव	-11.5304
▁रोमान्स	-11.5304
▁हजुरआमा	-11.5304
▁ब्याक्टेरिया	-11.5304
▁अहमद	-11.5304
▁शङ्का	-11.5304
▁उपनिर्वाचन	-11.5305
▁इनरुवा	-11.5305
▁अर्डर	-11.5305
▁रुचाउने	-11.5305
▁क्लियर	-11.5306
साउन	-11.5306
▁बताउछन्	-11.5307
▁प्रतिवाद	-11.5309
▁आईरहेको	-11.531
▁क्वारेन्टाइन	-11.531
▁समात	-11.5312
▁गर्नुअघि	-11.5312
▁पाउँदैनन्	-11.5313
▁छिर्न	-11.5313
▁बढिरहेका	-11.5314
▁मजदुरी	-11.5314
▁असमानता	-11.5315
▁किट	-11.5315
महान्यायाधिवक्ता	-11.5316
▁भइरहे	-11.5317
▁जन्मस्थल	-11.5318
▁सञ्चारमन्त्री	-11.5319
▁बेग	-11.5322
▁पाउनेछ	-11.5326
▁त्यसबाहेक	-11.5327
▁लाने	-11.5327
▁थिई	-11.5328
▁डिजाइनर	-11.533
▁अग्ला	-11.5332
चक्र	-11.5333
▁फ्रिज	-11.5333
▁वर्गीय	-11.5335
▁खेलेर	-11.5338
▁अर्की	-11.5338
शिप	-11.5338
▁शनि	-11.5343
▁जीउ	-11.5347
▁ह्यु	-11.5355
▁ल्याउ	-11.5359
▁थिम	-11.536
ाइदिन	-11.5361
▁खिच्न	-11.5364
▁छाडा	-11.5365
▁गैरे	-11.5367
▁बस्यो	-11.5372
▁गाउँघरमा	-11.5372
▁कप्तानी	-11.5373
वृत्त	-11.5381
ाँै	-11.5382
▁गुल	-11.5385
▁एटीएम	-11.5387
▁डिल्ली	-11.5388
▁नङ	-11.5391
▁अर्गानिक	-11.5391
▁आध्यात्मिक	-11.5391
▁निरिक्षक	-11.5391
▁परिभाषित	-11.5391
▁बाबजुद	-11.5391
▁ब्वाइज	-11.5391
▁विडम्बना	-11.5391
▁सम्बाददाता	-11.5391
▁साँच्चिकै	-11.5391
▁सुकुम्बासी	-11.5391
▁अन्त्येष्टि	-11.5391
▁फिदिम	-11.5391
▁सर्वहारा	-11.5391
▁जफत	-11.5391
▁मनोवैज्ञानिक	-11.5391
▁घिउ	-11.5391
▁डुङ्गा	-11.5392
▁रसिद	-11.5393
▁नुहाउन	-11.5395
▁टापु	-11.5397
▁बित्यो	-11.5398
▁त्यागे	-11.5402
▁बाँधिए	-11.5403
▁कहा	-11.5403
▁कलाकारिता	-11.5406
▁आकास	-11.5407
▁गर्नुभएका	-11.5409
▁काँडा	-11.541
▁भेगका	-11.5416
▁पुस्तालाई	-11.5416
▁रिफर	-11.5421
▁मनिष	-11.5421
बाहु	-11.5422
्बे	-11.5422
▁विस्तारित	-11.5432
▁कुमाल	-11.5433
▁धनु	-11.5435
▁पात्रो	-11.5442
▁एकाधिकार	-11.5446
▁वृद्धा	-11.5452
क्षय	-11.5452
मध्य	-11.5454
▁साम्राज्य	-11.5456
▁नीर	-11.5459
▁छुट्टी	-11.5461
▁आउद	-11.547
▁जवाफदेही	-11.5479
▁प्याकुरेल	-11.5479
▁बास्केटबल	-11.5479
▁खप्तड	-11.5479
▁नियामक	-11.5479
▁भयानक	-11.5479
▁गुप्तचर	-11.5479
▁सीमांकन	-11.5479
वर्तन	-11.5479
▁फ्रेन्च	-11.5479
▁सुझाब	-11.5479
▁लाउन	-11.5479
▁पाला	-11.5479
▁दातृ	-11.548
▁जरूर	-11.548
▁रेमिट	-11.5481
▁भिषा	-11.5481
▁दिईएको	-11.5484
▁दुइटा	-11.5487
▁ग्रीन	-11.5487
▁लोकेन्द्र	-11.5491
▁दृढता	-11.5492
▁मानिएका	-11.5494
▁ल्याउनुपर्ने	-11.5497
▁आवरण	-11.5498
▁सक्ला	-11.55
▁केहीबेर	-11.5501
▁हवाइ	-11.5501
ेक्टर	-11.5502
▁खुलेका	-11.5503
बिध	-11.5504
▁दिक्क	-11.5506
▁सुचि	-11.5507
▁धौ	-11.5507
वय	-11.5508
▁उडाए	-11.5514
पुरुष	-11.5515
यात्री	-11.5517
▁बताईन्	-11.5524
▁रेक्टर	-11.5524
नरसिंह	-11.5526
▁लिन्छन्	-11.5526
▁जुटाउने	-11.5528
▁जिया	-11.5528
ट्याक	-11.5528
▁सामानहरु	-11.5537
▁सबैजना	-11.5539
▁राजनितिक	-11.554
जीत	-11.5541
उँदछ	-11.5543
▁लेख्नु	-11.5544
▁तरीका	-11.5544
▁हाँक	-11.5554
▁झ्	-11.5554
▁पार्टि	-11.5558
▁गुहार	-11.556
▁आमन्त्रण	-11.5567
▁नियन्त्रित	-11.5567
▁म्याड्रिड	-11.5567
▁रामायण	-11.5567
▁खडेरी	-11.5567
▁गोलरक्षक	-11.5567
▁बच्चन	-11.5567
▁सुबेदी	-11.5567
▁राक्षस	-11.5567
▁राधिका	-11.5567
▁वितरक	-11.5567
▁धरातल	-11.5567
▁जंगबहादुर	-11.5568
▁स्वेच्छ	-11.5568
▁सोमपाल	-11.5568
▁कटारी	-11.5568
▁झ्या	-11.5568
▁जन्मजयन्ती	-11.5569
५२	-11.5571
▁दर्जी	-11.5571
▁वृहत	-11.5571
▁ब्यांक	-11.5572
▁आडमा	-11.5572
▁प्रतिस्थापन	-11.5573
▁मूलतः	-11.5573
▁चेतन	-11.5575
▁रोजाइमा	-11.5576
▁जिविस	-11.5577
▁भेटिन	-11.5577
▁बज्र	-11.5577
▁उम्मेदवारहरु	-11.5577
▁ओसार	-11.5579
ड्र	-11.558
▁शिक्षालय	-11.5583
▁मालिका	-11.5583
▁बगान	-11.5584
▁बढ्नुपर्ने	-11.5585
▁गराउनुभएको	-11.5585
▁काखमा	-11.5586
क्षेप	-11.5586
▁सम्झेर	-11.5588
▁हिड्ने	-11.5598
▁दीपा	-11.56
▁फण्ड	-11.5603
▁फैलाउन	-11.5604
▁६००	-11.5607
फिल्ड	-11.5607
▁अनाथ	-11.5611
▁बच्ने	-11.5612
आइपी	-11.5614
अर्थ	-11.5618
्वाङ	-11.562
▁जोडिन	-11.5633
▁खाँदै	-11.5634
▁टिप्न	-11.5634
▁समस्त	-11.5636
०७३	-11.5637
दियो	-11.5637
▁सादा	-11.5641
▁नेवारी	-11.5643
सगै	-11.5647
ाइदिने	-11.5649
▁गीतहरू	-11.5649
▁क्षेप्यास्त्र	-11.5657
▁चुपचाप	-11.5657
▁च्यारिटी	-11.5657
▁परिवर्तित	-11.5657
▁ब्रिटिस	-11.5657
▁लाहुरे	-11.5657
▁सान्त्वना	-11.5657
▁दाबेदार	-11.5657
▁पुरूष	-11.5657
▁प्रज्वल	-11.5657
▁स्टेडियम	-11.5657
▁तत्त्व	-11.5657
▁प्रबिधि	-11.5657
▁महसुल	-11.5657
▁कान्छो	-11.5657
▁फाईदा	-11.5657
▁खाल्डो	-11.5657
▁राकेश	-11.5657
▁फ्रेन्ड	-11.5658
▁हेक्का	-11.5659
▁कहानी	-11.566
▁फ्लोर	-11.5661
▁योगेन्द्र	-11.5662
▁पाण्डव	-11.5662
बहार	-11.5662
▁साहसिक	-11.5664
रोपण	-11.5666
▁उल्लिख	-11.5667
▁भर्ती	-11.5667
न्डे	-11.5668
▁दब	-11.5669
निश	-11.567
▁भनौं	-11.5674
▁तान्ने	-11.568
▁लगाइने	-11.5683
▁फलो	-11.5686
▁सत्	-11.5687
▁निकालेका	-11.5689
▁पुँजीवादी	-11.5691
▁एकान्त	-11.57
▁खराबी	-11.5703
▁नगरकोट	-11.5703
▁डिस्क	-11.5704
▁सम्वाद	-11.5706
▁फसेका	-11.5708
▁सम्वत	-11.5708
▁बाँच्ने	-11.571
▁शिवराज	-11.5711
▁चित्रकार	-11.5716
र्पा	-11.5726
कृष्ट	-11.5727
▁भएनन्	-11.5734
ट्युब	-11.5734
▁खान्छ	-11.5735
वेट	-11.5737
्याउनु	-11.5739
▁दिनभरि	-11.5746
▁फ्याँक	-11.5747
▁दामोदर	-11.5747
▁दुर्गन्ध	-11.5747
▁शर्मिला	-11.5747
▁सांगठनिक	-11.5747
▁हडताल	-11.5747
▁सीधै	-11.5747
▁रत्नपार्क	-11.5747
▁थकाली	-11.5747
▁सुष्मा	-11.5747
▁मनस्थिति	-11.5747
▁दबाव	-11.5747
▁बिचल्ली	-11.5748
▁माथेमा	-11.5748
▁सूर्योदय	-11.5748
▁कष्टकर	-11.5749
▁हेतु	-11.5752
▁स्नेह	-11.5753
▁बर्खा	-11.5753
▁अपार	-11.5754
▁पर्चा	-11.5758
▁साझ	-11.576
▁मर्ज	-11.5763
▁विकासमन्त्री	-11.5767
▁सेभेन	-11.5768
▁प्रावि	-11.5769
▁जता	-11.5771
▁कमाएका	-11.5773
▁संघियता	-11.5777
▁थपिएका	-11.5778
▁कडाई	-11.5778
▁जगदीश	-11.5779
▁बडो	-11.5783
▁ढल्क	-11.5787
ज्योति	-11.579
हाउस	-11.5791
महिला	-11.5791
▁सनम	-11.5794
▁बायो	-11.5794
फुट	-11.5797
▁डेटिङ	-11.5798
वाणी	-11.58
▁राष्ट	-11.5802
ण्य	-11.5802
▁ड्राइभर	-11.5803
वस्त्र	-11.5804
▁ल्याउँदै	-11.5805
▁थन्क	-11.581
▁पसेर	-11.5812
्युज	-11.5812
▁नेदरल्याण्ड	-11.5818
▁बहिर	-11.5821
सैन	-11.5825
विहिन	-11.5827
▁शू	-11.5829
▁अनुमानित	-11.5833
ग्ने	-11.5833
▁उठे	-11.5835
▁संविधानसभाबाट	-11.5835
▁सरोकारवालाहरु	-11.5836
▁उत्रे	-11.5836
▁आईएमई	-11.5838
▁इटालियन	-11.5838
▁उल्लङ्घन	-11.5838
▁कार्यदिशा	-11.5838
▁ठ्याक्कै	-11.5838
▁प्रगाढ	-11.5838
▁प्रवृति	-11.5838
▁प्रिमियम	-11.5838
▁प्रोफाइल	-11.5838
▁मनोरन्जन	-11.5838
▁विक्रेता	-11.5838
▁शुक्लाफाँटा	-11.5838
▁सार्वजानिक	-11.5838
▁नर्भिक	-11.5838
▁गर्दागर्दै	-11.5838
▁कालिमाटी	-11.5838
▁जमुना	-11.5838
▁राउन्ड	-11.5838
▁कैदीबन्दी	-11.5838
▁अफिसियल	-11.5838
▁शुरुआत	-11.5838
▁मेलिना	-11.5839
▁ल्याउँदा	-11.584
▁लुक्ला	-11.5841
ईपीएल	-11.5842
▁क्वाटरफाइनलमा	-11.5842
▁प्रसाईं	-11.5848
▁आवधि	-11.5851
▁२०३०	-11.5851
▁निकायहरू	-11.5854
▁लगन	-11.5857
▁प्रबल	-11.586
▁ढंगबाट	-11.5861
शृ	-11.5866
▁पुगिन्	-11.5868
▁एरिया	-11.5868
पार्क	-11.5884
स्ट्रो	-11.5898
▁दोहो	-11.5899
▁१६०	-11.5904
▁ठोक्क	-11.5906
▁अस्त	-11.591
▁खन्न	-11.5911
▁फै	-11.5916
▁रैछ	-11.592
▁१२०	-11.592
▁गरिरहन	-11.5926
▁पाण्डेय	-11.5927
▁फेवाताल	-11.5929
▁सत्याग्रह	-11.5929
▁सिण्डिकेट	-11.5929
▁सिवाकोटी	-11.5929
▁अप्रत्यक्ष	-11.5929
▁कार्यन्वयन	-11.5929
▁क्वारेन्टिन	-11.5929
▁घटस्थापना	-11.5929
▁बगैंचा	-11.5929
▁महाभियोग	-11.5929
▁मेरुदण्ड	-11.5929
▁ह्रास	-11.5929
▁मुसहर	-11.5929
▁चितुवा	-11.5929
वर्षे	-11.5929
▁भुषाल	-11.593
▁रुचाए	-11.593
▁हस्तकला	-11.593
▁खलंगा	-11.593
▁लक्ष्मीपूजा	-11.593
फर्म	-11.5931
▁भिजिट	-11.5931
▁रुपाकोट	-11.5931
▁इन्सेक	-11.5931
▁ल्याइएका	-11.5932
▁क्याफे	-11.5932
▁संजय	-11.5932
▁लगाइदिए	-11.5932
▁कथाकार	-11.5935
▁प्रसन्न	-11.5936
▁राजस्थान	-11.5936
ञ	-11.5937
▁गरोस्	-11.5938
▁वीर्य	-11.5939
▁हर्कत	-11.594
▁कसरत	-11.594
▁आउला	-11.5942
▁बस्छ	-11.5945
▁पाईने	-11.5947
▁महिनौ	-11.5947
▁रोकिएका	-11.5948
▁प्यारो	-11.595
िजा	-11.5952
▁जिस्क	-11.5953
▁हास	-11.5955
▁बिधा	-11.5961
▁पाल्न	-11.5964
८३	-11.5969
▁नामकरण	-11.5971
ँझ	-11.5978
सञ्चार	-11.5978
▁पूर्णरूप	-11.5981
▁आवश्यकताअनुसार	-11.5982
हेर्नुहोस	-11.5982
संग्रह	-11.5983
▁टोलि	-11.5984
▁भेटिन्छ	-11.5987
▁डेली	-11.5988
▁स्वीकार्य	-11.5991
▁पौन	-11.5992
▁पासाङ	-11.5996
ृद्ध	-11.5997
ज्यु	-11.6001
रहेकी	-11.6008
न्ति	-11.6014
ुष	-11.6015
डीसी	-11.6018
दृष्टि	-11.6018
▁प्लेन	-11.6021
▁आशीर्वाद	-11.6022
▁मतपेटिका	-11.6022
▁डंगोल	-11.6022
▁डिप्रेसन	-11.6022
▁पहेँलो	-11.6022
▁शिष्टाचार	-11.6022
▁श्रद्धाञ्जलि	-11.6022
▁सकुशल	-11.6022
▁सत्यतथ्य	-11.6022
▁सम्बन्धविच्छेद	-11.6022
▁अरनिको	-11.6022
▁आवेदक	-11.6022
▁निश्चल	-11.6022
▁नाइके	-11.6022
▁हरियाली	-11.6022
▁आभास	-11.6022
▁कार्टुन	-11.6022
▁चाहन्थे	-11.6022
▁आइसीसी	-11.6024
▁सकिन्थ्यो	-11.6025
▁मौसमविद्	-11.6025
▁महिमा	-11.6029
द्रा	-11.6031
▁याउँछ	-11.6031
▁नदिइ	-11.6033
▁खस्दा	-11.6034
▁पालुङ	-11.6034
▁रोजेको	-11.6038
▁साख	-11.6038
▁पारिएका	-11.6039
▁उपचाररत	-11.604
्यायो	-11.6041
▁बाँधेर	-11.6042
▁पहिलोपल्ट	-11.6043
▁महेश्वर	-11.6044
▁बिग्रे	-11.6044
गुरु	-11.605
▁चित्रकला	-11.6051
▁जादा	-11.6052
▁प्रकाशक	-11.6055
▁बस्नुपर्ने	-11.6057
प्रेस	-11.6059
▁गरियोस्	-11.606
▁पटकथा	-11.6068
सीसी	-11.6068
▁घरबार	-11.6069
▁गुजरात	-11.607
▁संसारभरि	-11.6072
▁बटुले	-11.6078
▁भनिन	-11.6081
जिल्ला	-11.6081
सन्त	-11.6084
▁डाउन	-11.6085
▁सरकारबीच	-11.6085
थरि	-11.6086
▁कतिसम्म	-11.6089
▁टक्	-11.609
घि	-11.6091
▁निधार	-11.61
▁सिन्धु	-11.6111
▁ओगट	-11.6113
▁भोग्न	-11.6114
ोन्मुख	-11.6115
▁एजुकेशन	-11.6115
▁गैरजिम्मेवार	-11.6115
▁डाइरेक्टर	-11.6115
▁नमस्ते	-11.6115
▁मौखिक	-11.6115
▁सर्वश्रेष्ठ	-11.6115
▁अत्तरिया	-11.6115
▁एशियन	-11.6115
▁तपस्या	-11.6115
▁उदघाटन	-11.6115
▁विखण्डन	-11.6115
▁आश्रित	-11.6115
▁रेणु	-11.6115
▁डायरी	-11.6116
▁रेल्वे	-11.6117
▁यहाँसम्म	-11.6117
▁रहँदैन	-11.6117
▁समीर	-11.6118
▁बिज्ञान	-11.612
▁अगस्त	-11.6121
▁ब्याण्ड	-11.6123
पोत	-11.6123
▁लिङ्क	-11.6123
▁पेशागत	-11.6123
▁ट्रष्ट	-11.6126
थोक	-11.6127
▁फैलिन	-11.6129
▁मूर्त	-11.6129
▁पकेट	-11.613
पिन	-11.6134
▁भनियो	-11.614
▁धरा	-11.6141
▁शुक्र	-11.6143
योजक	-11.6154
▁गाउँघर	-11.6154
▁ढक	-11.6156
वर्ड	-11.616
▁जन्माउन	-11.6163
▁नासा	-11.6165
एनपी	-11.6167
िन्थे	-11.617
▁मेष	-11.6173
▁ताली	-11.6175
▁नियोजन	-11.6182
फिट	-11.6185
▁पाइन्छन्	-11.6185
▁याउनु	-11.6186
▁चल्नेछ	-11.6191
▁कुलो	-11.6191
▁जनवाद	-11.6194
▁लखन	-11.6197
▁मानवता	-11.6198
▁थपिए	-11.62
▁इस्ट	-11.6206
▁डेट	-11.6207
▁कुण्ठ	-11.621
▁अभिमुखीकरण	-11.621
▁डिफ्यूजर	-11.621
▁नेटवर्थ	-11.621
▁सर्जरी	-11.621
▁निन्द्रा	-11.621
▁प्रोसेस	-11.621
पाठ	-11.621
▁मेकअप	-11.621
▁विलियम	-11.621
▁छिटै	-11.6211
▁बालाजु	-11.6211
▁यत्रो	-11.6211
▁नाराबाजी	-11.6212
▁र्याली	-11.6212
▁नपाउँदै	-11.6213
▁वीपी	-11.6215
▁शक्तिहरू	-11.6216
▁वजेट	-11.6216
▁पातलो	-11.6217
▁हुँदैछन्	-11.6218
▁कान्ति	-11.6218
▁नहुँदै	-11.6221
▁सिरियाली	-11.6221
▁बढाइने	-11.6224
▁२००२	-11.6226
▁हिड्न	-11.6229
▁सिमरा	-11.6234
जीव	-11.6237
द्धार	-11.624
▁भन्द	-11.6242
प्रतिस्पर्धात्मक	-11.6246
▁देख्नु	-11.6247
▁दिनेछन्	-11.6247
वेयर	-11.6248
▁थालिन्	-11.626
▁बाई	-11.6274
▁पत्या	-11.6277
▁भुक्तान	-11.6278
▁अपर	-11.6279
▁खड्ग	-11.6282
बस्तु	-11.6284
▁ब्यवसायी	-11.6294
बुझ	-11.6295
▁गुमाउनु	-11.6297
▁बेहोरे	-11.6303
▁फेरबदल	-11.6305
नेप्लिज	-11.6305
▁क्षयरोग	-11.6305
▁ब्यबसाय	-11.6305
▁साबुन	-11.6305
▁आन्द्रा	-11.6305
▁सक्नुहुनेछ	-11.6305
▁अनुराग	-11.6305
▁हृदयघात	-11.6306
▁ग्रान्ड	-11.6306
▁त्यसैगरि	-11.6308
▁लोकमान	-11.6308
▁धर्ती	-11.6308
▁संभव	-11.6309
▁कटु	-11.6309
धुन	-11.631
घारी	-11.631
▁इश्वर	-11.631
▁११०	-11.6314
▁२०२२	-11.6315
▁खुलाए	-11.6315
▁हुदैछ	-11.6315
▁पार्नुभयो	-11.6315
▁सुनाइन्	-11.6317
▁सफ्ट	-11.6318
▁धरोहर	-11.6318
▁राख्नुभयो	-11.6321
▁नरहने	-11.6324
▁निकायसँग	-11.6325
▁बौ	-11.6326
▁२०१	-11.6327
▁पर्यटकिय	-11.6333
बाज	-11.6333
▁फुर्	-11.6337
▁पाटा	-11.6341
▁मान्छन्	-11.6345
ब्रा	-11.6345
पोष्ट	-11.6348
▁हाजिरी	-11.6349
▁फर्काउने	-11.6351
▁पर्ला	-11.6353
▁स्पा	-11.6359
च्युट	-11.636
िरहनु	-11.6361
▁सर्न	-11.6369
▁काशी	-11.6369
वाणिज्य	-11.637
▁नेवा	-11.6371
सुन्दर	-11.6371
५१	-11.6382
▁अस्थिर	-11.6385
▁एवम	-11.6394
▁स्टाफ	-11.6397
▁बर्षदेखि	-11.6397
▁ओखलढुङ्गा	-11.6401
▁तालिबान	-11.6401
▁परमप्रभु	-11.6401
▁मझौला	-11.6401
▁युवायुवती	-11.6401
▁रोमान्टिक	-11.6401
▁सार्वभौमसत्ता	-11.6401
▁सूक्ष्म	-11.6401
▁आँकलन	-11.6401
▁क्विन्टल	-11.6401
▁जगेर्ना	-11.6401
▁भाजपा	-11.6401
▁गुजारा	-11.6401
▁च्यालेन्ज	-11.6401
▁फाईनल	-11.6401
▁जगेडा	-11.6401
▁नलिई	-11.6401
▁जोर्डन	-11.6401
▁मनसाय	-11.6401
▁गिरिराजमण	-11.6401
▁दिपावली	-11.6401
▁रोयल्टी	-11.6401
▁सामथ्र्य	-11.6401
▁बनारस	-11.6401
▁प्राइम	-11.6402
▁एमसीसी	-11.6402
वृत	-11.6403
▁तैनाथ	-11.6404
▁आरिफ	-11.6404
▁कलैया	-11.6404
▁टीभी	-11.6405
▁सिरियल	-11.6406
▁बेहोर	-11.6411
▁चिनिया	-11.6412
▁भ्यू	-11.642
खोज	-11.6423
▁फाल्ने	-11.6426
▁त्यतिकै	-11.6428
▁नयां	-11.6431
▁सन्धी	-11.6431
▁रहिआएक	-11.6431
▁राजाराम	-11.6435
▁अत्य	-11.6438
▁बारीमा	-11.6439
▁लेख्दै	-11.6443
▁आइटी	-11.6443
डुल	-11.6445
▁शिक्षामन्त्री	-11.6452
▁घन्ट	-11.6453
बक्स	-11.6455
▁बैंकहरू	-11.6464
▁याइ	-11.6473
ैसाथ	-11.6475
▁टिके	-11.6487
▁बलिया	-11.6494
▁ढिलासुस्ती	-11.6498
▁भिक्षु	-11.6498
▁टेण्डर	-11.6498
▁बिजपाटी	-11.6498
▁चौमासिक	-11.6498
▁धरापमा	-11.6498
विमर्श	-11.6498
▁छरितो	-11.6498
▁अध्यन	-11.6498
▁कंडेल	-11.6499
▁स्वयंसेवक	-11.6499
▁उपसमूह	-11.6499
▁तारिफ	-11.65
▁तपार्इं	-11.6501
▁अनुचित	-11.6502
लखेट	-11.6503
▁मदत	-11.6504
▁एचके	-11.6504
▁कण्डम	-11.6505
५९	-11.6511
▁गर्यौं	-11.6511
▁बगाएर	-11.6512
▁यादब	-11.6513
रोना	-11.6513
▁उच्चतम	-11.6514
▁जोडिएर	-11.6514
ाञ्चल	-11.6524
टू	-11.6526
▁आठौँ	-11.6526
▁विषयहरू	-11.6526
▁हरिप्रसाद	-11.6527
▁थाई	-11.6529
▁भास	-11.6529
तिहार	-11.6532
▁साट	-11.6535
▁गिरि	-11.6539
▁मानिन्छन्	-11.6542
▁मापक	-11.6554
जिब	-11.6556
पक्क	-11.6556
▁जोडिने	-11.6557
दैनन्	-11.656
▁नबने	-11.656
▁आसन	-11.6562
कुट	-11.6571
संहिता	-11.6571
कप्तान	-11.6571
▁ट्विट	-11.6574
▁गाला	-11.6574
शिष	-11.6584
२०७५	-11.6584
्थें	-11.6585
▁स्टोरी	-11.6586
▁सामग्रीहरु	-11.6586
▁बाँड्न	-11.6594
आरआई	-11.6594
▁अन्वेषण	-11.6596
▁डिफेन्स	-11.6596
▁निम्त्याए	-11.6596
▁भद्रगोल	-11.6596
▁महत्वाकांक्ष	-11.6596
▁हवल्दार	-11.6596
▁उपेक्षा	-11.6596
▁अल्ट्रा	-11.6596
▁चाँदनी	-11.6596
▁बिशाल	-11.6596
▁मध्यमाञ्चल	-11.6597
▁चकलेट	-11.6597
▁बन्दोबस्त	-11.6597
▁योद्धा	-11.6597
▁कथन	-11.6597
▁रिक्सा	-11.6597
▁विश्राम	-11.6598
▁विमलेन्द्र	-11.6598
▁शीत	-11.6599
▁आधारभुत	-11.6599
▁राष्ट्रसङ्घ	-11.6599
▁कनेक्ट	-11.6599
▁कसैसँग	-11.66
▁मतभेद	-11.66
▁उपल्लो	-11.66
▁चम	-11.6603
▁रजनी	-11.6604
▁बिबाह	-11.6606
हारेर	-11.6606
▁हेमराज	-11.6607
▁स्वत	-11.6608
▁साट्न	-11.6609
▁कृषकहरु	-11.6609
▁सरदर	-11.661
▁मिश्रण	-11.6611
▁सन्यास	-11.6612
▁सुनिन्छ	-11.6613
▁दर्जनौँ	-11.6613
▁एड्स	-11.6619
▁जाली	-11.662
▁क्यारे	-11.6622
▁चिनाउन	-11.6623
गाह	-11.6625
▁जहा	-11.6628
▁भरपुर	-11.6634
▁मच्चाए	-11.6638
▁पाल्ने	-11.6644
▁यिनी	-11.6646
▁झर्ने	-11.6646
▁लिलाम	-11.6647
▁लाईफ	-11.6657
▁झुम	-11.6662
▁सिसा	-11.6667
नुसार	-11.6671
▁सपिङ	-11.6674
▁गर्नैपर्छ	-11.6675
▁क्षमा	-11.6675
▁पुँजीवाद	-11.6678
रियल	-11.6682
्मिक	-11.6686
▁बर्बाद	-11.6689
्चित	-11.6691
▁विस्फोटक	-11.6692
गेन	-11.6694
▁आयआर्जन	-11.6695
▁कोईराला	-11.6695
▁गन्तब्य	-11.6695
▁जनविश्वास	-11.6695
▁पोष्टमार्टम	-11.6695
▁प्रदुषण	-11.6695
▁मस्जिद	-11.6695
▁लैङ्गिक	-11.6695
▁व्यंग्य	-11.6695
▁हरिवंश	-11.6695
▁चोपडा	-11.6695
▁सर्किट	-11.6695
▁युक्रेन	-11.6695
▁रंगमञ्च	-11.6695
▁प्रचुर	-11.6695
▁दिपायल	-11.6696
▁बिरालो	-11.6696
सम्पादन	-11.6697
▁सकृय	-11.6698
▁बेलबारी	-11.6698
▁पुननिर्माण	-11.6698
▁सिंगल	-11.6699
▁हुंदै	-11.6699
▁रामवरण	-11.6699
▁कुम्भ	-11.67
▁डिएनए	-11.67
▁लुटेरा	-11.67
▁चाँ	-11.67
▁ब्यान्ड	-11.6701
▁सीताराम	-11.6702
▁चाहन्छौं	-11.6702
▁चौध	-11.6702
▁टिक्न	-11.6703
▁याइएको	-11.6704
▁जत्ति	-11.6704
▁तोरी	-11.6707
▁गुञ्ज	-11.6708
▁साधु	-11.6708
▁प्यार	-11.6709
▁पाइरहेको	-11.6711
▁नरबहादुर	-11.6712
▁त्यता	-11.6716
▁आरती	-11.6717
▁तानिए	-11.6719
▁ऐश्वर्या	-11.672
विनायक	-11.6727
▁उतारे	-11.6736
▁बन्देज	-11.6742
▁देखिएकी	-11.6747
▁स्वच्छता	-11.675
▁प्रअ	-11.675
▁चाहेर	-11.6754
▁पाउँदै	-11.6754
▁घण्टासम्म	-11.6757
▁हिंड	-11.6761
▁ऐश्वर्य	-11.677
▁बताइन	-11.6772
अमेरिका	-11.6776
▁भ्यु	-11.6782
▁म्याक्स	-11.6783
▁नजीक	-11.6793
▁सम्झौतापत्रमा	-11.6794
▁इमरान	-11.6795
▁चाबहिल	-11.6795
▁नेइमार	-11.6795
▁पानीजहाज	-11.6795
▁पारस्परिक	-11.6795
▁प्रोडक्सन	-11.6795
▁बाढीपहिरो	-11.6795
▁ब्रिटिश	-11.6795
▁महोत्सब	-11.6795
▁एकलौटी	-11.6795
▁यथास्थिति	-11.6795
▁पत्तो	-11.6795
▁सापेक्ष	-11.6795
▁अविजित	-11.6795
▁धुवाँ	-11.6795
▁गलकोट	-11.6795
▁नपुग्ने	-11.6795
▁चार्टर्ड	-11.6796
▁जोरपाटी	-11.6796
▁स्पर्श	-11.6796
▁पटक्कै	-11.6796
▁गिलास	-11.6796
▁प्रोग्राम	-11.6797
▁राजसंस्था	-11.6797
▁परामर्शदाता	-11.6798
▁मिनाहा	-11.6798
▁परिसके	-11.6798
▁थापाथली	-11.6798
▁पठाई	-11.6799
▁सुनकोशी	-11.6799
▁लम्बाइ	-11.68
▁चलाइएको	-11.68
▁खबरदारी	-11.6801
▁बर्स	-11.6802
▁भर्सन	-11.6802
▁खड्क	-11.6803
निकट	-11.6805
▁पाउन्ड	-11.6805
▁बोसो	-11.6805
तापनि	-11.6806
▁राष्ट्रपती	-11.6806
▁२००३	-11.6811
९५	-11.6811
▁८००	-11.6812
सकिएको	-11.6815
▁दिइनेछ	-11.6817
▁निरास	-11.6826
▁सुची	-11.6831
▁भित्रिएका	-11.6833
▁आँख	-11.6835
▁नाडा	-11.6841
▁वर्षभरि	-11.6841
▁खालि	-11.6843
▁अग्रसरता	-11.6844
▁धनबहादुर	-11.6844
▁उचाले	-11.6848
▁पृ	-11.6849
▁दुखद	-11.6849
▁अम्बा	-11.6857
▁सुतिरहे	-11.6857
▁बेलै	-11.6864
▁अंग्रेज	-11.6869
देउ	-11.6872
शुल्क	-11.6878
्छौ	-11.6881
्याइँ	-11.6881
▁अप्र	-11.6882
▁बनाइसके	-11.6882
▁सम्झौताअनुसार	-11.6886
विज्ञान	-11.6887
▁नदेखिए	-11.6887
▁पढ्नुस	-11.6893
▁अधिग्रहण	-11.6896
▁झोलुङ्गे	-11.6896
▁बेथिति	-11.6896
▁भलिवल	-11.6896
▁येशू	-11.6896
▁समवेदना	-11.6896
▁सर्वाेच्च	-11.6896
▁अशक्त	-11.6896
▁जीविकोपार्जन	-11.6896
▁राज्यसत्ता	-11.6896
▁सुक्खा	-11.6896
▁पुल्चोक	-11.6896
▁मध्यस्थता	-11.6896
▁एरेन्ज	-11.6896
▁चट्टान	-11.6896
▁प्रकासित	-11.6897
▁अाफ्न	-11.6897
▁डिभाइस	-11.6897
▁बदाम	-11.6897
▁जुवाडे	-11.6898
▁नर्वे	-11.6898
▁सगुन	-11.6898
▁विप्रेषण	-11.6899
▁गुलियो	-11.6899
▁हकहित	-11.69
▁शिवालय	-11.69
▁शव्द	-11.69
▁उर्वर	-11.69
▁नाङ्ग	-11.69
▁पठाइने	-11.6902
▁विपिन	-11.6902
▁सकिदैन	-11.6903
▁खाडल	-11.6903
▁बाँझो	-11.6904
▁पहारी	-11.6906
▁लगायो	-11.6906
आईबी	-11.6907
▁पाचन	-11.6907
▁पुर्ब	-11.6908
▁भालु	-11.6909
▁आपत्	-11.691
▁आदित्य	-11.691
▁टेकबहादुर	-11.6911
▁काबुल	-11.6911
▁नीलो	-11.6913
ओटा	-11.6913
▁ईन्द्र	-11.6913
▁हलो	-11.6916
▁कृषिजन्य	-11.6919
▁हेर्छ	-11.6926
▁चुलो	-11.6926
▁दलबीच	-11.6927
▁नियति	-11.693
▁भिन्नता	-11.6931
▁नाच्ने	-11.6931
मद	-11.6934
▁बराह	-11.6934
▁गरिरहनु	-11.6956
वार्ड	-11.6957
▁ताकि	-11.6961
▁आधुनिकता	-11.6968
▁कमर्स	-11.6977
▁खसे	-11.6981
▁मेरि	-11.6983
▁फाल्न	-11.6986
▁बात	-11.6987
संगठन	-11.6988
खुशी	-11.6991
ुपर्ला	-11.6993
▁जिउन	-11.6994
▁इन्स्टिच्युट	-11.6998
▁एनआइसी	-11.6998
▁खुकुलो	-11.6998
▁धौलागिरी	-11.6998
▁बैज्ञानिक	-11.6998
▁रेखदेख	-11.6998
▁विकिपिडिया	-11.6998
▁विहिबार	-11.6998
▁सुदुरपश्चिम	-11.6998
▁सेमिनार	-11.6998
▁सौभाग्य	-11.6998
▁हँुदैन	-11.6998
▁जीवनयापन	-11.6998
▁अविवाहित	-11.6998
▁स्वकीय	-11.6998
▁आवस्यक	-11.6998
▁गल्फ	-11.6998
▁गैह्र	-11.6999
▁रोबर्ट	-11.6999
▁जेम्स	-11.6999
▁मृग	-11.6999
▁अमात्य	-11.6999
▁सावित्री	-11.6999
▁शेरधन	-11.7
▁आतंककारी	-11.7
▁पीडक	-11.7001
▁दोहन	-11.7001
▁ब्यबस्थापन	-11.7002
▁पाउण्ड	-11.7002
▁लिफ्ट	-11.7003
▁खुद्रा	-11.7003
▁वडाअध्यक्ष	-11.7003
▁विचाराधीन	-11.7004
▁गुणात्मक	-11.7005
▁२०४९	-11.7005
▁२०४७	-11.7007
▁डुबेको	-11.7007
▁कपूर	-11.7008
▁शासकीय	-11.7008
▁खम्बा	-11.701
▁समाजशास्त्र	-11.7011
उनु	-11.7013
▁एसएस	-11.7016
▁निन्दा	-11.7018
▁करोडौँ	-11.7019
▁मनिषा	-11.7021
▁समिर	-11.7032
गाम	-11.7037
खुवा	-11.7041
पठाउँदा	-11.7042
▁सानी	-11.7044
▁न्यूरो	-11.7047
▁तुह	-11.705
▁पर्दछन्	-11.705
ट्रो	-11.7051
▁चिनो	-11.7052
ाईज	-11.7061
▁अस्ति	-11.7067
▁मौला	-11.7067
▁थपेर	-11.7069
ूद	-11.7072
हुदै	-11.7075
▁टिप्पणीहरू	-11.7075
▁बचाउने	-11.708
▁इयर	-11.7081
विद्यालय	-11.7089
▁मङ्गल	-11.7093
हाई	-11.7096
▁इनिङ	-11.7096
▁प्रतिवद्ध	-11.7098
▁छुवाछूत	-11.7101
▁प्रिपेड	-11.7101
▁फेस्टिभल	-11.7101
▁बहिस्कार	-11.7101
▁मध्यपहाडी	-11.7101
▁एआईजी	-11.7101
▁प्रत्यक्षदर्शी	-11.7101
▁सञ्जीव	-11.7101
▁ससाना	-11.7101
▁राउटे	-11.7102
▁नागरीक	-11.7102
▁रमणीय	-11.7102
▁कालेबुङ	-11.7102
▁घट्दो	-11.7104
२०७४	-11.7104
▁शिब	-11.7105
▁वजार	-11.7105
▁समेटिएका	-11.7105
▁नराख्ने	-11.7109
▁घटाएर	-11.7114
▁बनाउदै	-11.7119
▁विफल	-11.7119
▁समानुपातिकतर्फ	-11.712
िन्हो	-11.7125
▁भोकै	-11.7128
मूर्ति	-11.713
▁चिम	-11.7136
▁सामाग्रीहरु	-11.7138
रुङ	-11.7138
▁थन्किए	-11.7145
्जर	-11.7145
▁मंच	-11.7148
▁फर्किएपछि	-11.7151
उत्तर	-11.7153
▁कूटनीति	-11.7159
▁राखेपछि	-11.7165
श्मि	-11.7167
मोद	-11.7168
▁देवि	-11.7171
▁निरज	-11.7183
▁संकटा	-11.7185
▁प्रसस्त	-11.7201
▁कम्प्लेक्स	-11.7205
▁चाँगुनारायण	-11.7205
▁चौपाया	-11.7205
▁प्रबद्र्धन	-11.7205
▁प्रवर्धन	-11.7205
▁भयावह	-11.7205
▁शिक्षिका	-11.7205
▁स्रोतसाधन	-11.7205
▁जनजाती	-11.7206
▁सीईओ	-11.7206
▁अधिकांस	-11.7206
▁चालिसे	-11.7206
▁प्रबेश	-11.7206
▁जग्गाधनी	-11.7206
▁घरधनी	-11.7206
▁पछ्याएको	-11.7206
▁क्लोज	-11.7207
▁मुखर्जी	-11.7207
▁श्रमजीवी	-11.7207
▁चौहान	-11.7207
▁केन्द्रबिन्दु	-11.7208
▁डिल्लीबजार	-11.7208
▁गंगामाया	-11.7209
▁बदलिए	-11.7211
▁खेप्नु	-11.7212
▁लक्की	-11.7212
▁२०४८	-11.7214
▁भिड्दै	-11.7216
▁ट्रेन्ड	-11.7216
▁नन्दबहादुर	-11.7216
▁आरक्ष	-11.7219
▁व्याज	-11.7222
▁छुटाउन	-11.7223
▁सातवटा	-11.7225
याङ	-11.7226
▁पाउनुपर्छ	-11.7229
▁गरिसकिए	-11.723
▁रोप्ने	-11.7232
▁लाइक	-11.7233
्याउँछ	-11.7236
पेट	-11.7245
्रोन	-11.7246
▁शौ	-11.7247
▁क्रमिक	-11.7249
समाज	-11.7249
▁भारततर्फ	-11.7251
▁जनप्रतिनिधिहरु	-11.7254
▁तारिक	-11.7257
निवास	-11.7262
▁हान्न	-11.7263
पहिले	-11.7263
▁डेरी	-11.7267
▁खेलिरहेको	-11.7268
थिन	-11.7275
▁सम्झिन	-11.7275
▁पिरो	-11.7277
▁रोज्न	-11.7277
▁गरिदिनु	-11.7278
▁हिँडिरहे	-11.7281
रोकिने	-11.7282
ट्याङ	-11.7284
दुत	-11.7296
आरसी	-11.7298
▁सप्	-11.7301
विशेष	-11.7309
▁खोजतलास	-11.7311
▁निलम्बित	-11.7311
▁बक्यौता	-11.7311
▁बहुउद्देश्य	-11.7311
▁मस्र्याङ्दी	-11.7311
▁त्रिशुली	-11.7311
▁बिद्युत	-11.7311
▁रनरअप	-11.7311
▁अक्षयकोष	-11.7311
▁आतुर	-11.7311
▁हर्मोन	-11.7311
▁साम्यवाद	-11.7311
▁कोहली	-11.7311
▁पुष्टी	-11.7312
▁सविन	-11.7312
▁चिनजान	-11.7312
▁सुविधासम्पन्न	-11.7313
▁आलेख	-11.7313
▁न्यूनिकरण	-11.7314
▁काठमाडाैँ	-11.7315
▁झुट	-11.7315
▁सर्भर	-11.7315
▁मूलधार	-11.7317
▁जयनगर	-11.7318
▁अवधी	-11.7319
▁लोकसभा	-11.732
▁फेयर	-11.732
▁टेष्ट	-11.7321
▁यौनजन्य	-11.7321
असार	-11.7325
▁लुकेर	-11.7327
▁नबस्न	-11.7328
हाल्ने	-11.7328
▁निजि	-11.7331
▁आँचल	-11.7335
▁सरिक	-11.7337
▁बाँड्ने	-11.7341
ाइदिन्छ	-11.7342
▁अर्थपूर्ण	-11.7343
सक्नुभएको	-11.7352
▁भएलगत्तै	-11.7354
▁भागेका	-11.7356
▁हिरासत	-11.7356
▁शब्दहरू	-11.7359
▁ग्रस	-11.7365
▁सिर्ज	-11.7365
▁सोध्ने	-11.7366
▁पोष्टर	-11.7367
▁जीवनभर	-11.7368
▁ठड	-11.7371
▁गरिएपछि	-11.7373
सेवी	-11.7382
▁केभी	-11.7382
▁जोड्दै	-11.7386
▁मिक्स	-11.7387
▁विहानै	-11.7391
▁अनियमित	-11.7402
▁पाँचौँ	-11.7405
▁बंगला	-11.7417
▁कर्पोरेसन	-11.7417
▁गतिबिधि	-11.7417
▁हड्ताल	-11.7417
▁कम्बोडिया	-11.7417
▁जघन्य	-11.7417
▁प्राइभेट	-11.7417
▁बेलौरी	-11.7417
▁भ्यालेन्टाइन	-11.7417
▁मन्त्रिमण्डल	-11.7417
▁लाभदायक	-11.7417
▁स्वास्नी	-11.7417
▁निरुपण	-11.7417
▁रेफ्री	-11.7417
▁सिइओ	-11.7417
▁स्वास्थ्यचौकी	-11.7417
▁इञ्जिनीयर	-11.7417
▁फार्मेसी	-11.7417
▁सानातिना	-11.7417
▁रिजर्भ	-11.7417
▁रमाईलो	-11.7417
▁सोल्टी	-11.7417
[...]
